{
  "version": "1.0",
  "truncation": {
    "direction": "Right",
    "max_length": 512,
    "strategy": "LongestFirst",
    "stride": 0
  },
  "padding": null,
  "added_tokens": [
    {
      "id": 0,
      "content": "[PAD]",
      "single_word": false,
      "lstrip": false,
      "rstrip": false,
      "normalized": false,
      "special": true
    },
    {
      "id": 1,
      "content": "[UNK]",
      "single_word": false,
      "lstrip": false,
      "rstrip": false,
      "normalized": false,
      "special": true
    },
    {
      "id": 2,
      "content": "[CLS]",
      "single_word": false,
      "lstrip": false,
      "rstrip": false,
      "normalized": false,
      "special": true
    },
    {
      "id": 3,
      "content": "[SEP]",
      "single_word": false,
      "lstrip": false,
      "rstrip": false,
      "normalized": false,
      "special": true
    },
    {
      "id": 4,
      "content": "[MASK]",
      "single_word": false,
      "lstrip": false,
      "rstrip": false,
      "normalized": false,
      "special": true
    }
  ],
  "normalizer": {
    "type": "BertNormalizer",
    "clean_text": true,
    "handle_chinese_chars": true,
    "strip_accents": null,
    "lowercase": true
  },
  "pre_tokenizer": {
    "type": "BertPreTokenizer"
  },
  "post_processor": {
    "type": "TemplateProcessing",
    "single": [
      {
        "SpecialToken": {
          "id": "[CLS]",
          "type_id": 0
        }
      },
      {
        "Sequence": {
          "id": "A",
          "type_id": 0
        }
      },
      {
        "SpecialToken": {
          "id": "[SEP]",
          "type_id": 0
        }
      }
    ],
    "pair": [
      {
        "SpecialToken": {
          "id": "[CLS]",
          "type_id": 0
        }
      },
      {
        "Sequence": {
          "id": "A",
          "type_id": 0
        }
      },
      {
        "SpecialToken": {
          "id": "[SEP]",
          "type_id": 0
        }
      },
      {
        "Sequence": {
          "id": "B",
          "type_id": 1
        }
      },
      {
        "SpecialToken": {
          "id": "[SEP]",
          "type_id": 1
        }
      }
    ],
    "special_tokens": {
      "[CLS]": {
        "id": "[CLS]",
        "ids": [
          2
        ],
        "tokens": [
          "[CLS]"
        ]
      },
      "[SEP]": {
        "id": "[SEP]",
        "ids": [
          3
        ],
        "tokens": [
          "[SEP]"
        ]
      }
    }
  },
  "decoder": {
    "type": "WordPiece",
    "prefix": "##",
    "cleanup": true
  },
  "model": {
    "type": "WordPiece",
    "unk_token": "[UNK]",
    "continuing_subword_prefix": "##",
    "max_input_chars_per_word": 100,
    "vocab": {
      "[PAD]": 0,
      "[UNK]": 1,
      "[CLS]": 2,
      "[SEP]": 3,
      "[MASK]": 4,
      "!": 5,
      "\"": 6,
      "#": 7,
      "$": 8,
      "%": 9,
      "&": 10,
      "'": 11,
      "(": 12,
      ")": 13,
      "*": 14,
      "+": 15,
      ",": 16,
      "-": 17,
      ".": 18,
      "/": 19,
      "0": 20,
      "1": 21,
      "2": 22,
      "3": 23,
      "4": 24,
      "5": 25,
      "6": 26,
      "7": 27,
      "8": 28,
      "9": 29,
      ":": 30,
      ";": 31,
      "<": 32,
      "=": 33,
      ">": 34,
      "?": 35,
      "@": 36,
      "[": 37,
      "\\": 38,
      "]": 39,
      "^": 40,
      "_": 41,
      "`": 42,
      "a": 43,
      "b": 44,
      "c": 45,
      "d": 46,
      "e": 47,
      "f": 48,
      "g": 49,
      "h": 50,
      "i": 51,
      "j": 52,
      "k": 53,
      "l": 54,
      "m": 55,
      "n": 56,
      "o": 57,
      "p": 58,
      "q": 59,
      "r": 60,
      "s": 61,
      "t": 62,
      "u": 63,
      "v": 64,
      "w": 65,
      "x": 66,
      "y": 67,
      "z": 68,
      "{": 69,
      "|": 70,
      "}": 71,
      "~": 72,
      "£": 73,
      "¥": 74,
      "§": 75,
      "¨": 76,
      "«": 77,
      "¬": 78,
      "®": 79,
      "¯": 80,
      "°": 81,
      "±": 82,
      "²": 83,
      "´": 84,
      "·": 85,
      "º": 86,
      "»": 87,
      "½": 88,
      "¾": 89,
      "¿": 90,
      "×": 91,
      "ß": 92,
      "æ": 93,
      "ð": 94,
      "÷": 95,
      "ø": 96,
      "đ": 97,
      "ı": 98,
      "ł": 99,
      "ŋ": 100,
      "œ": 101,
      "ƒ": 102,
      "ƥ": 103,
      "ƹ": 104,
      "ƿ": 105,
      "ȡ": 106,
      "ɐ": 107,
      "ɑ": 108,
      "ɒ": 109,
      "ɔ": 110,
      "ɖ": 111,
      "ɗ": 112,
      "ə": 113,
      "ɚ": 114,
      "ɛ": 115,
      "ɜ": 116,
      "ɡ": 117,
      "ɪ": 118,
      "ɫ": 119,
      "ɭ": 120,
      "ɸ": 121,
      "ɽ": 122,
      "ɾ": 123,
      "ʁ": 124,
      "ʃ": 125,
      "ʊ": 126,
      "ʌ": 127,
      "ʍ": 128,
      "ʎ": 129,
      "ʒ": 130,
      "ʔ": 131,
      "ʰ": 132,
      "ʱ": 133,
      "ʲ": 134,
      "ʻ": 135,
      "ʼ": 136,
      "ʾ": 137,
      "ʿ": 138,
      "ˈ": 139,
      "ˌ": 140,
      "ː": 141,
      "ˑ": 142,
      "˙": 143,
      "˚": 144,
      "ˠ": 145,
      "α": 146,
      "β": 147,
      "γ": 148,
      "δ": 149,
      "ε": 150,
      "ζ": 151,
      "η": 152,
      "θ": 153,
      "ι": 154,
      "κ": 155,
      "λ": 156,
      "μ": 157,
      "ν": 158,
      "ξ": 159,
      "ο": 160,
      "π": 161,
      "ρ": 162,
      "ς": 163,
      "σ": 164,
      "τ": 165,
      "υ": 166,
      "φ": 167,
      "χ": 168,
      "ψ": 169,
      "ω": 170,
      "ϕ": 171,
      "ϵ": 172,
      "а": 173,
      "б": 174,
      "в": 175,
      "г": 176,
      "д": 177,
      "е": 178,
      "ж": 179,
      "з": 180,
      "и": 181,
      "к": 182,
      "л": 183,
      "м": 184,
      "н": 185,
      "о": 186,
      "п": 187,
      "р": 188,
      "с": 189,
      "т": 190,
      "у": 191,
      "ф": 192,
      "х": 193,
      "ц": 194,
      "ч": 195,
      "ш": 196,
      "щ": 197,
      "ъ": 198,
      "ы": 199,
      "ь": 200,
      "э": 201,
      "ю": 202,
      "я": 203,
      "і": 204,
      "ү": 205,
      "א": 206,
      "ג": 207,
      "ד": 208,
      "ה": 209,
      "ו": 210,
      "ח": 211,
      "י": 212,
      "ם": 213,
      "ן": 214,
      "נ": 215,
      "ע": 216,
      "ר": 217,
      "ש": 218,
      "ء": 219,
      "ا": 220,
      "ت": 221,
      "ج": 222,
      "خ": 223,
      "د": 224,
      "ر": 225,
      "س": 226,
      "ش": 227,
      "ص": 228,
      "ط": 229,
      "ع": 230,
      "ف": 231,
      "ق": 232,
      "ك": 233,
      "ل": 234,
      "م": 235,
      "ن": 236,
      "ه": 237,
      "و": 238,
      "ي": 239,
      "چ": 240,
      "ی": 241,
      "आ": 242,
      "क": 243,
      "ख": 244,
      "ग": 245,
      "घ": 246,
      "च": 247,
      "ज": 248,
      "ञ": 249,
      "ट": 250,
      "ठ": 251,
      "ड": 252,
      "ण": 253,
      "त": 254,
      "द": 255,
      "ध": 256,
      "न": 257,
      "प": 258,
      "ब": 259,
      "भ": 260,
      "म": 261,
      "य": 262,
      "र": 263,
      "ल": 264,
      "व": 265,
      "श": 266,
      "ष": 267,
      "स": 268,
      "ह": 269,
      "ा": 270,
      "ि": 271,
      "ी": 272,
      "ो": 273,
      "ং": 274,
      "অ": 275,
      "ক": 276,
      "খ": 277,
      "চ": 278,
      "ত": 279,
      "দ": 280,
      "ধ": 281,
      "ন": 282,
      "ব": 283,
      "ভ": 284,
      "ম": 285,
      "য": 286,
      "র": 287,
      "ল": 288,
      "স": 289,
      "া": 290,
      "ি": 291,
      "ী": 292,
      "ে": 293,
      "ৰ": 294,
      "ਗ": 295,
      "ਭ": 296,
      "ਾ": 297,
      "ੜ": 298,
      "ତ": 299,
      "ଧ": 300,
      "ନ": 301,
      "ବ": 302,
      "ଭ": 303,
      "ମ": 304,
      "ର": 305,
      "ସ": 306,
      "ା": 307,
      "இ": 308,
      "ந": 309,
      "ப": 310,
      "ம": 311,
      "ய": 312,
      "ல": 313,
      "ி": 314,
      "ு": 315,
      "ை": 316,
      "ം": 317,
      "ക": 318,
      "യ": 319,
      "റ": 320,
      "ല": 321,
      "ി": 322,
      "േ": 323,
      "ก": 324,
      "ค": 325,
      "ฆ": 326,
      "จ": 327,
      "ฉ": 328,
      "ณ": 329,
      "ท": 330,
      "น": 331,
      "ม": 332,
      "ย": 333,
      "ร": 334,
      "ษ": 335,
      "ส": 336,
      "ห": 337,
      "อ": 338,
      "า": 339,
      "โ": 340,
      "ไ": 341,
      "ᄀ": 342,
      "ᄃ": 343,
      "ᄅ": 344,
      "ᄆ": 345,
      "ᄇ": 346,
      "ᄉ": 347,
      "ᄊ": 348,
      "ᄋ": 349,
      "ᄌ": 350,
      "ᄎ": 351,
      "ᄏ": 352,
      "ᄒ": 353,
      "ᅡ": 354,
      "ᅢ": 355,
      "ᅥ": 356,
      "ᅦ": 357,
      "ᅧ": 358,
      "ᅨ": 359,
      "ᅩ": 360,
      "ᅪ": 361,
      "ᅫ": 362,
      "ᅭ": 363,
      "ᅮ": 364,
      "ᅳ": 365,
      "ᅵ": 366,
      "ᆨ": 367,
      "ᆫ": 368,
      "ᆯ": 369,
      "ᆷ": 370,
      "ᆸ": 371,
      "ᆼ": 372,
      "ក": 373,
      "ខ": 374,
      "ង": 375,
      "ច": 376,
      "ជ": 377,
      "ញ": 378,
      "ឌ": 379,
      "ណ": 380,
      "ត": 381,
      "ថ": 382,
      "ទ": 383,
      "ន": 384,
      "ប": 385,
      "ភ": 386,
      "យ": 387,
      "រ": 388,
      "ល": 389,
      "វ": 390,
      "ស": 391,
      "ឡ": 392,
      "ឬ": 393,
      "ា": 394,
      "េ": 395,
      "៖": 396,
      "ᴥ": 397,
      "ᵊ": 398,
      "ẚ": 399,
      "‐": 400,
      "‑": 401,
      "–": 402,
      "—": 403,
      "―": 404,
      "‖": 405,
      "‘": 406,
      "’": 407,
      "“": 408,
      "”": 409,
      "„": 410,
      "†": 411,
      "‡": 412,
      "•": 413,
      "…": 414,
      "′": 415,
      "″": 416,
      "‹": 417,
      "›": 418,
      "⁄": 419,
      "₃": 420,
      "€": 421,
      "₱": 422,
      "₹": 423,
      "₿": 424,
      "ℑ": 425,
      "ℓ": 426,
      "ℜ": 427,
      "™": 428,
      "ℵ": 429,
      "ℶ": 430,
      "←": 431,
      "→": 432,
      "↔": 433,
      "↦": 434,
      "↪": 435,
      "⇒": 436,
      "⇔": 437,
      "∀": 438,
      "∁": 439,
      "∂": 440,
      "∃": 441,
      "∅": 442,
      "∇": 443,
      "∈": 444,
      "∊": 445,
      "∋": 446,
      "∏": 447,
      "∐": 448,
      "∑": 449,
      "−": 450,
      "∓": 451,
      "∖": 452,
      "∗": 453,
      "∘": 454,
      "∙": 455,
      "√": 456,
      "∝": 457,
      "∞": 458,
      "∣": 459,
      "∥": 460,
      "∧": 461,
      "∨": 462,
      "∩": 463,
      "∪": 464,
      "∫": 465,
      "∬": 466,
      "∮": 467,
      "∴": 468,
      "∵": 469,
      "∼": 470,
      "≀": 471,
      "≃": 472,
      "≅": 473,
      "≈": 474,
      "≜": 475,
      "≝": 476,
      "≡": 477,
      "≤": 478,
      "≥": 479,
      "≦": 480,
      "≧": 481,
      "≪": 482,
      "≫": 483,
      "≻": 484,
      "≼": 485,
      "≽": 486,
      "⊂": 487,
      "⊃": 488,
      "⊆": 489,
      "⊇": 490,
      "⊊": 491,
      "⊋": 492,
      "⊔": 493,
      "⊕": 494,
      "⊖": 495,
      "⊗": 496,
      "⊙": 497,
      "⊤": 498,
      "⊥": 499,
      "⊲": 500,
      "⊴": 501,
      "⊻": 502,
      "⋂": 503,
      "⋃": 504,
      "⋅": 505,
      "⋆": 506,
      "⋉": 507,
      "⋊": 508,
      "⋔": 509,
      "⋮": 510,
      "⋯": 511,
      "⋱": 512,
      "⌈": 513,
      "⌉": 514,
      "⌊": 515,
      "⌋": 516,
      "⏞": 517,
      "⏟": 518,
      "─": 519,
      "┌": 520,
      "┐": 521,
      "╥": 522,
      "╨": 523,
      "▀": 524,
      "▄": 525,
      "█": 526,
      "░": 527,
      "▒": 528,
      "▓": 529,
      "■": 530,
      "□": 531,
      "△": 532,
      "○": 533,
      "◘": 534,
      "◻": 535,
      "☡": 536,
      "☺": 537,
      "☿": 538,
      "♂": 539,
      "♃": 540,
      "♄": 541,
      "♡": 542,
      "♥": 543,
      "♭": 544,
      "♯": 545,
      "➡": 546,
      "⟨": 547,
      "⟩": 548,
      "⟹": 549,
      "⟺": 550,
      "⠀": 551,
      "⠁": 552,
      "⠋": 553,
      "⠙": 554,
      "⠟": 555,
      "⠻": 556,
      "⠿": 557,
      "⡈": 558,
      "⡟": 559,
      "⡷": 560,
      "⡿": 561,
      "⢀": 562,
      "⢁": 563,
      "⢻": 564,
      "⢿": 565,
      "⣌": 566,
      "⣠": 567,
      "⣴": 568,
      "⣶": 569,
      "⣷": 570,
      "⣼": 571,
      "⣾": 572,
      "⣿": 573,
      "⨁": 574,
      "⨆": 575,
      "⩽": 576,
      "⩾": 577,
      "ⱷ": 578,
      "『": 579,
      "』": 580,
      "〜": 581,
      "い": 582,
      "け": 583,
      "つ": 584,
      "て": 585,
      "に": 586,
      "の": 587,
      "ひ": 588,
      "ま": 589,
      "ゃ": 590,
      "よ": 591,
      "る": 592,
      "ん": 593,
      "ア": 594,
      "イ": 595,
      "エ": 596,
      "オ": 597,
      "カ": 598,
      "キ": 599,
      "ク": 600,
      "コ": 601,
      "サ": 602,
      "シ": 603,
      "ス": 604,
      "ッ": 605,
      "テ": 606,
      "ト": 607,
      "ナ": 608,
      "ニ": 609,
      "ノ": 610,
      "ハ": 611,
      "ヒ": 612,
      "フ": 613,
      "ヘ": 614,
      "ホ": 615,
      "マ": 616,
      "ム": 617,
      "メ": 618,
      "ラ": 619,
      "リ": 620,
      "ル": 621,
      "ン": 622,
      "・": 623,
      "ー": 624,
      "一": 625,
      "三": 626,
      "上": 627,
      "不": 628,
      "中": 629,
      "丸": 630,
      "主": 631,
      "乃": 632,
      "之": 633,
      "乙": 634,
      "九": 635,
      "争": 636,
      "事": 637,
      "二": 638,
      "五": 639,
      "亜": 640,
      "京": 641,
      "人": 642,
      "代": 643,
      "仪": 644,
      "件": 645,
      "会": 646,
      "伝": 647,
      "伽": 648,
      "余": 649,
      "供": 650,
      "保": 651,
      "候": 652,
      "倭": 653,
      "傳": 654,
      "像": 655,
      "光": 656,
      "兜": 657,
      "全": 658,
      "八": 659,
      "公": 660,
      "六": 661,
      "内": 662,
      "切": 663,
      "初": 664,
      "利": 665,
      "刮": 666,
      "前": 667,
      "創": 668,
      "功": 669,
      "加": 670,
      "动": 671,
      "動": 672,
      "包": 673,
      "化": 674,
      "北": 675,
      "医": 676,
      "十": 677,
      "南": 678,
      "占": 679,
      "卫": 680,
      "印": 681,
      "发": 682,
      "史": 683,
      "叶": 684,
      "号": 685,
      "司": 686,
      "合": 687,
      "同": 688,
      "名": 689,
      "向": 690,
      "吳": 691,
      "周": 692,
      "商": 693,
      "問": 694,
      "啓": 695,
      "四": 696,
      "因": 697,
      "図": 698,
      "固": 699,
      "国": 700,
      "國": 701,
      "圓": 702,
      "土": 703,
      "地": 704,
      "報": 705,
      "塔": 706,
      "壁": 707,
      "士": 708,
      "変": 709,
      "大": 710,
      "天": 711,
      "太": 712,
      "夫": 713,
      "央": 714,
      "夷": 715,
      "奇": 716,
      "女": 717,
      "妇": 718,
      "婦": 719,
      "子": 720,
      "字": 721,
      "学": 722,
      "學": 723,
      "安": 724,
      "宋": 725,
      "实": 726,
      "宫": 727,
      "寒": 728,
      "将": 729,
      "小": 730,
      "少": 731,
      "山": 732,
      "岭": 733,
      "島": 734,
      "州": 735,
      "工": 736,
      "巻": 737,
      "帝": 738,
      "幕": 739,
      "平": 740,
      "年": 741,
      "府": 742,
      "度": 743,
      "康": 744,
      "廟": 745,
      "异": 746,
      "式": 747,
      "張": 748,
      "强": 749,
      "彌": 750,
      "影": 751,
      "征": 752,
      "徐": 753,
      "御": 754,
      "心": 755,
      "志": 756,
      "急": 757,
      "恋": 758,
      "愛": 759,
      "慈": 760,
      "慶": 761,
      "戒": 762,
      "戦": 763,
      "打": 764,
      "抱": 765,
      "抹": 766,
      "拔": 767,
      "拳": 768,
      "挡": 769,
      "推": 770,
      "摄": 771,
      "攝": 772,
      "改": 773,
      "政": 774,
      "整": 775,
      "數": 776,
      "文": 777,
      "断": 778,
      "新": 779,
      "方": 780,
      "日": 781,
      "旦": 782,
      "明": 783,
      "春": 784,
      "昭": 785,
      "時": 786,
      "智": 787,
      "暗": 788,
      "書": 789,
      "月": 790,
      "望": 791,
      "朝": 792,
      "期": 793,
      "木": 794,
      "未": 795,
      "本": 796,
      "李": 797,
      "東": 798,
      "松": 799,
      "校": 800,
      "株": 801,
      "根": 802,
      "桃": 803,
      "梅": 804,
      "棕": 805,
      "楓": 806,
      "楚": 807,
      "楠": 808,
      "業": 809,
      "概": 810,
      "欢": 811,
      "正": 812,
      "步": 813,
      "歸": 814,
      "死": 815,
      "毒": 816,
      "氏": 817,
      "民": 818,
      "气": 819,
      "氣": 820,
      "水": 821,
      "永": 822,
      "沢": 823,
      "治": 824,
      "沼": 825,
      "法": 826,
      "泥": 827,
      "洋": 828,
      "津": 829,
      "派": 830,
      "流": 831,
      "海": 832,
      "液": 833,
      "淫": 834,
      "淳": 835,
      "温": 836,
      "測": 837,
      "港": 838,
      "溫": 839,
      "漂": 840,
      "漢": 841,
      "潘": 842,
      "火": 843,
      "灸": 844,
      "炎": 845,
      "热": 846,
      "焦": 847,
      "煦": 848,
      "燕": 849,
      "營": 850,
      "燥": 851,
      "特": 852,
      "現": 853,
      "瑕": 854,
      "生": 855,
      "用": 856,
      "男": 857,
      "画": 858,
      "病": 859,
      "痧": 860,
      "療": 861,
      "皇": 862,
      "矢": 863,
      "硬": 864,
      "碑": 865,
      "社": 866,
      "祖": 867,
      "神": 868,
      "祠": 869,
      "福": 870,
      "科": 871,
      "称": 872,
      "積": 873,
      "空": 874,
      "立": 875,
      "竺": 876,
      "等": 877,
      "算": 878,
      "篤": 879,
      "精": 880,
      "索": 881,
      "紫": 882,
      "絆": 883,
      "統": 884,
      "經": 885,
      "縣": 886,
      "纲": 887,
      "经": 888,
      "结": 889,
      "络": 890,
      "维": 891,
      "编": 892,
      "罐": 893,
      "羂": 894,
      "羅": 895,
      "美": 896,
      "者": 897,
      "聞": 898,
      "肚": 899,
      "肝": 900,
      "肺": 901,
      "胃": 902,
      "胱": 903,
      "胸": 904,
      "脈": 905,
      "脉": 906,
      "脏": 907,
      "脾": 908,
      "腎": 909,
      "腑": 910,
      "腸": 911,
      "腹": 912,
      "膽": 913,
      "臟": 914,
      "舟": 915,
      "色": 916,
      "艾": 917,
      "若": 918,
      "草": 919,
      "萤": 920,
      "营": 921,
      "葛": 922,
      "董": 923,
      "蒙": 924,
      "蒲": 925,
      "薫": 926,
      "藤": 927,
      "虎": 928,
      "虚": 929,
      "虫": 930,
      "蛋": 931,
      "蟬": 932,
      "血": 933,
      "衆": 934,
      "術": 935,
      "衛": 936,
      "衢": 937,
      "表": 938,
      "袖": 939,
      "被": 940,
      "襟": 941,
      "襠": 942,
      "西": 943,
      "要": 944,
      "観": 945,
      "解": 946,
      "詳": 947,
      "護": 948,
      "证": 949,
      "诃": 950,
      "课": 951,
      "財": 952,
      "賢": 953,
      "贝": 954,
      "起": 955,
      "跌": 956,
      "身": 957,
      "軍": 958,
      "辩": 959,
      "農": 960,
      "進": 961,
      "運": 962,
      "道": 963,
      "邪": 964,
      "部": 965,
      "醫": 966,
      "里": 967,
      "金": 968,
      "針": 969,
      "録": 970,
      "鏡": 971,
      "門": 972,
      "開": 973,
      "関": 974,
      "防": 975,
      "阳": 976,
      "阿": 977,
      "院": 978,
      "陳": 979,
      "靈": 980,
      "青": 981,
      "面": 982,
      "音": 983,
      "響": 984,
      "顔": 985,
      "風": 986,
      "风": 987,
      "飞": 988,
      "骨": 989,
      "髀": 990,
      "鮮": 991,
      "鶏": 992,
      "鹰": 993,
      "麻": 994,
      "黄": 995,
      "龍": 996,
      "ꜣ": 997,
      "，": 998,
      "～": 999,
      "𝓛": 1000,
      "𝔠": 1001,
      "𝛿": 1002,
      "𝜆": 1003,
      "🌈": 1004,
      "##a": 1005,
      "##r": 1006,
      "##u": 1007,
      "##e": 1008,
      "##v": 1009,
      "##n": 1010,
      "##y": 1011,
      "##l": 1012,
      "##i": 1013,
      "##s": 1014,
      "##p": 1015,
      "##o": 1016,
      "##c": 1017,
      "##h": 1018,
      "##w": 1019,
      "##z": 1020,
      "##m": 1021,
      "##g": 1022,
      "##f": 1023,
      "##d": 1024,
      "##b": 1025,
      "##k": 1026,
      "##0": 1027,
      "##3": 1028,
      "##t": 1029,
      "##x": 1030,
      "##q": 1031,
      "##4": 1032,
      "##7": 1033,
      "##2": 1034,
      "##1": 1035,
      "##j": 1036,
      "##6": 1037,
      "##8": 1038,
      "##5": 1039,
      "##×": 1040,
      "##9": 1041,
      "##ι": 1042,
      "##α": 1043,
      "##ν": 1044,
      "##η": 1045,
      "##μ": 1046,
      "##ق": 1047,
      "##ه": 1048,
      "##σ": 1049,
      "##τ": 1050,
      "##ρ": 1051,
      "##ε": 1052,
      "##°": 1053,
      "##ο": 1054,
      "##р": 1055,
      "##о": 1056,
      "##н": 1057,
      "##т": 1058,
      "##в": 1059,
      "##и": 1060,
      "##к": 1061,
      "##ʿ": 1062,
      "##ញ": 1063,
      "##ា": 1064,
      "##ប": 1065,
      "##ត": 1066,
      "##រ": 1067,
      "##ɔ": 1068,
      "##ː": 1069,
      "##ɪ": 1070,
      "##ŋ": 1071,
      "##л": 1072,
      "##ж": 1073,
      "##ł": 1074,
      "##♭": 1075,
      "##∗": 1076,
      "##э": 1077,
      "##с": 1078,
      "##व": 1079,
      "##ि": 1080,
      "##ध": 1081,
      "##ा": 1082,
      "##न": 1083,
      "##म": 1084,
      "##ʻ": 1085,
      "##υ": 1086,
      "##φ": 1087,
      "##ᅡ": 1088,
      "##ᆫ": 1089,
      "##ᄒ": 1090,
      "##ᅪ": 1091,
      "##δ": 1092,
      "##द": 1093,
      "##ы": 1094,
      "##а": 1095,
      "##я": 1096,
      "##ς": 1097,
      "##া": 1098,
      "##র": 1099,
      "##ত": 1100,
      "##ক": 1101,
      "##ী": 1102,
      "##у": 1103,
      "##κ": 1104,
      "##∞": 1105,
      "##त": 1106,
      "##र": 1107,
      "##ग": 1108,
      "##м": 1109,
      "##п": 1110,
      "##е": 1111,
      "##æ": 1112,
      "##θ": 1113,
      "##ᅩ": 1114,
      "##ᄃ": 1115,
      "##ᅳ": 1116,
      "##ᆼ": 1117,
      "##ᆨ": 1118,
      "##ᄀ": 1119,
      "##ᅭ": 1120,
      "##⣿": 1121,
      "##⣷": 1122,
      "##⣶": 1123,
      "##ी": 1124,
      "##क": 1125,
      "##⊥": 1126,
      "##ो": 1127,
      "##ल": 1128,
      "##য": 1129,
      "##ন": 1130,
      "##ি": 1131,
      "##ମ": 1132,
      "##ବ": 1133,
      "##ଧ": 1134,
      "##ା": 1135,
      "##ନ": 1136,
      "##ə": 1137,
      "##®": 1138,
      "##ス": 1139,
      "##ナ": 1140,
      "##ア": 1141,
      "##イ": 1142,
      "##の": 1143,
      "##ク": 1144,
      "##ラ": 1145,
      "##ン": 1146,
      "##フ": 1147,
      "##ル": 1148,
      "##ɛ": 1149,
      "##い": 1150,
      "##ᅵ": 1151,
      "##ᆯ": 1152,
      "##ᄌ": 1153,
      "##ᅦ": 1154,
      "##ᄋ": 1155,
      "##ᆷ": 1156,
      "##ɚ": 1157,
      "##ð": 1158,
      "##リ": 1159,
      "##ー": 1160,
      "##オ": 1161,
      "##ト": 1162,
      "##ニ": 1163,
      "##ッ": 1164,
      "##ホ": 1165,
      "##ү": 1166,
      "##ω": 1167,
      "##γ": 1168,
      "##ꜣ": 1169,
      "##ᄉ": 1170,
      "##ᅢ": 1171,
      "##œ": 1172,
      "##⁄": 1173,
      "##ß": 1174,
      "##ı": 1175,
      "##²": 1176,
      "##→": 1177,
      "##خ": 1178,
      "##ص": 1179,
      "##ɭ": 1180,
      "##λ": 1181,
      "##¬": 1182,
      "##χ": 1183,
      "##і": 1184,
      "##⠟": 1185,
      "##⢁": 1186,
      "##⣴": 1187,
      "##⡿": 1188,
      "##⠋": 1189,
      "##⣠": 1190,
      "##⣾": 1191,
      "##ʾ": 1192,
      "##ь": 1193,
      "##♯": 1194,
      "##ब": 1195,
      "##प": 1196,
      "##ξ": 1197,
      "##ʰ": 1198,
      "##ø": 1199,
      "##א": 1200,
      "##ו": 1201,
      "##נ": 1202,
      "##י": 1203,
      "##ם": 1204,
      "##य": 1205,
      "##マ": 1206,
      "##ヒ": 1207,
      "##け": 1208,
      "##る": 1209,
      "##メ": 1210,
      "##キ": 1211,
      "##シ": 1212,
      "##コ": 1213,
      "##ष": 1214,
      "##ण": 1215,
      "##श": 1216,
      "##स": 1217,
      "##⊤": 1218,
      "##−": 1219,
      "##г": 1220,
      "##ม": 1221,
      "##ท": 1222,
      "##ร": 1223,
      "##โ": 1224,
      "##ฆ": 1225,
      "##ษ": 1226,
      "##ค": 1227,
      "##ฉ": 1228,
      "##น": 1229,
      "##ˑ": 1230,
      "##カ": 1231,
      "##™": 1232,
      "##з": 1233,
      "##ц": 1234,
      "##ч": 1235,
      "##ˈ": 1236,
      "##ɾ": 1237,
      "##ᅮ": 1238,
      "##ᄏ": 1239,
      "##ᄅ": 1240,
      "##ᅥ": 1241,
      "##ᆸ": 1242,
      "##ʒ": 1243,
      "##ע": 1244,
      "##ש": 1245,
      "##ר": 1246,
      "##ן": 1247,
      "##ड": 1248,
      "##ח": 1249,
      "##∩": 1250,
      "##ਗ": 1251,
      "##ੜ": 1252,
      "##ਾ": 1253,
      "##½": 1254,
      "##つ": 1255,
      "##て": 1256,
      "##б": 1257,
      "##ʊ": 1258,
      "##⡷": 1259,
      "##⢀": 1260,
      "##⠀": 1261,
      "##х": 1262,
      "##ʲ": 1263,
      "##ʃ": 1264,
      "##⣌": 1265,
      "##⠙": 1266,
      "##⢿": 1267,
      "##ʌ": 1268,
      "##ⱷ": 1269,
      "##ᴥ": 1270,
      "##≼": 1271,
      "##ت": 1272,
      "##ر": 1273,
      "##ن": 1274,
      "##д": 1275,
      "##ل": 1276,
      "##ا": 1277,
      "##د": 1278,
      "##ट": 1279,
      "##ɜ": 1280,
      "##đ": 1281,
      "##ي": 1282,
      "##π": 1283,
      "##ह": 1284,
      "##ひ": 1285,
      "##ま": 1286,
      "##¥": 1287,
      "##ج": 1288,
      "##ᄇ": 1289,
      "##⢻": 1290,
      "##ञ": 1291,
      "##ज": 1292,
      "##´": 1293,
      "##ʔ": 1294,
      "##∈": 1295,
      "##ю": 1296,
      "##ର": 1297,
      "##ତ": 1298,
      "##ʼ": 1299,
      "##റ": 1300,
      "##ി": 1301,
      "##യ": 1302,
      "##ം": 1303,
      "##ɡ": 1304,
      "##ᵊ": 1305,
      "##ᄆ": 1306,
      "##ɗ": 1307,
      "##ʱ": 1308,
      "##េ": 1309,
      "##ជ": 1310,
      "##ណ": 1311,
      "##ឌ": 1312,
      "##♥": 1313,
      "##⡈": 1314,
      "##م": 1315,
      "##ع": 1316,
      "##و": 1317,
      "##س": 1318,
      "##₃": 1319,
      "##វ": 1320,
      "##ស": 1321,
      "##ゃ": 1322,
      "##ん": 1323,
      "##ɖ": 1324,
      "##ி": 1325,
      "##ய": 1326,
      "##ல": 1327,
      "##ம": 1328,
      "##ை": 1329,
      "##ப": 1330,
      "##ு": 1331,
      "##ে": 1332,
      "##ד": 1333,
      "##□": 1334,
      "##খ": 1335,
      "##ল": 1336,
      "##щ": 1337,
      "##ф": 1338,
      "##ʁ": 1339,
      "##ʎ": 1340,
      "##ɐ": 1341,
      "##⠿": 1342,
      "##ឡ": 1343,
      "##ង": 1344,
      "##ច": 1345,
      "##ថ": 1346,
      "##ន": 1347,
      "##ក": 1348,
      "##យ": 1349,
      "##ខ": 1350,
      "##ភ": 1351,
      "##ល": 1352,
      "##দ": 1353,
      "##ৰ": 1354,
      "##ɫ": 1355,
      "##ᄎ": 1356,
      "##ك": 1357,
      "##ی": 1358,
      "##ء": 1359,
      "##ط": 1360,
      "##ヘ": 1361,
      "##ठ": 1362,
      "##ং": 1363,
      "##⠁": 1364,
      "##ᄊ": 1365,
      "##ᅧ": 1366,
      "##⋊": 1367,
      "##ទ": 1368,
      "##േ": 1369,
      "##ല": 1370,
      "##⠻": 1371,
      "##⡟": 1372,
      "##⊴": 1373,
      "##ъ": 1374,
      "##√": 1375,
      "##ɒ": 1376,
      "##エ": 1377,
      "##ˠ": 1378,
      "##ব": 1379,
      "##ধ": 1380,
      "##ᅫ": 1381,
      "##ᅨ": 1382,
      "##ந": 1383,
      "##⋅": 1384,
      "##∇": 1385,
      "##ห": 1386,
      "##า": 1387,
      "##อ": 1388,
      "##ณ": 1389,
      "##จ": 1390,
      "##ก": 1391,
      "##ไ": 1392,
      "##ย": 1393,
      "##ƥ": 1394,
      "##ȡ": 1395,
      "##˚": 1396,
      "##⣼": 1397,
      "##ẚ": 1398,
      "th": 1399,
      "the": 1400,
      "##er": 1401,
      "##on": 1402,
      "##in": 1403,
      "##at": 1404,
      "##es": 1405,
      "##ed": 1406,
      "##en": 1407,
      "##nd": 1408,
      "##or": 1409,
      "##al": 1410,
      "in": 1411,
      "##an": 1412,
      "of": 1413,
      "##ar": 1414,
      "##ic": 1415,
      "##it": 1416,
      "##is": 1417,
      "##ion": 1418,
      "and": 1419,
      "##ing": 1420,
      "##as": 1421,
      "##ro": 1422,
      "to": 1423,
      "##re": 1424,
      "##ent": 1425,
      "##le": 1426,
      "##om": 1427,
      "##st": 1428,
      "##el": 1429,
      "##ou": 1430,
      "##ec": 1431,
      "##ol": 1432,
      "##ac": 1433,
      "##et": 1434,
      "##il": 1435,
      "##ation": 1436,
      "##th": 1437,
      "##iv": 1438,
      "##am": 1439,
      "##ur": 1440,
      "as": 1441,
      "for": 1442,
      "##ly": 1443,
      "is": 1444,
      "##em": 1445,
      "##ts": 1446,
      "st": 1447,
      "##ch": 1448,
      "on": 1449,
      "##ad": 1450,
      "##ers": 1451,
      "##ce": 1452,
      "##ig": 1453,
      "##id": 1454,
      "##ir": 1455,
      "wh": 1456,
      "con": 1457,
      "re": 1458,
      "##ut": 1459,
      "##im": 1460,
      "al": 1461,
      "##ul": 1462,
      "##ith": 1463,
      "an": 1464,
      "##ter": 1465,
      "pro": 1466,
      "be": 1467,
      "##ay": 1468,
      "##ow": 1469,
      "##ct": 1470,
      "##us": 1471,
      "by": 1472,
      "that": 1473,
      "##ist": 1474,
      "su": 1475,
      "##ot": 1476,
      "with": 1477,
      "com": 1478,
      "or": 1479,
      "##ies": 1480,
      "was": 1481,
      "19": 1482,
      "##os": 1483,
      "##ver": 1484,
      "ch": 1485,
      "##ain": 1486,
      "sp": 1487,
      "ex": 1488,
      "##od": 1489,
      "de": 1490,
      "##ap": 1491,
      "##ical": 1492,
      "20": 1493,
      "##ab": 1494,
      "##ess": 1495,
      "##um": 1496,
      "##og": 1497,
      "##op": 1498,
      "##if": 1499,
      "##ag": 1500,
      "##ial": 1501,
      "##pl": 1502,
      "ar": 1503,
      "##and": 1504,
      "##ity": 1505,
      "##ate": 1506,
      "##av": 1507,
      "##ian": 1508,
      "##ud": 1509,
      "pr": 1510,
      "are": 1511,
      "##oc": 1512,
      "##rom": 1513,
      "##ia": 1514,
      "##ear": 1515,
      "un": 1516,
      "##est": 1517,
      "##ment": 1518,
      "from": 1519,
      "tr": 1520,
      "it": 1521,
      "##un": 1522,
      "##ere": 1523,
      "us": 1524,
      "at": 1525,
      "##ive": 1526,
      "ind": 1527,
      "##ich": 1528,
      "ne": 1529,
      "en": 1530,
      "##ld": 1531,
      "se": 1532,
      "##ect": 1533,
      "##art": 1534,
      "##ated": 1535,
      "dis": 1536,
      "comp": 1537,
      "##ions": 1538,
      "##qu": 1539,
      "##ine": 1540,
      "##pp": 1541,
      "##igh": 1542,
      "##ence": 1543,
      "wor": 1544,
      "inc": 1545,
      "sh": 1546,
      "which": 1547,
      "##ish": 1548,
      "##ak": 1549,
      "##all": 1550,
      "##se": 1551,
      "le": 1552,
      "##ib": 1553,
      "##ill": 1554,
      "##iz": 1555,
      "##ther": 1556,
      "##ort": 1557,
      "were": 1558,
      "##ant": 1559,
      "res": 1560,
      "##ore": 1561,
      "pl": 1562,
      "##ary": 1563,
      "int": 1564,
      "##ell": 1565,
      "##ost": 1566,
      "sc": 1567,
      "##pt": 1568,
      "##olog": 1569,
      "not": 1570,
      "this": 1571,
      "##rou": 1572,
      "##ge": 1573,
      "##ath": 1574,
      "##ics": 1575,
      "##ure": 1576,
      "##ov": 1577,
      "cont": 1578,
      "##gh": 1579,
      "cl": 1580,
      "##act": 1581,
      "ad": 1582,
      "##erm": 1583,
      "##ard": 1584,
      "##ace": 1585,
      "##ast": 1586,
      "##ations": 1587,
      "##our": 1588,
      "##per": 1589,
      "##cc": 1590,
      "all": 1591,
      "he": 1592,
      "##ans": 1593,
      "##ber": 1594,
      "##ip": 1595,
      "##du": 1596,
      "##end": 1597,
      "##ach": 1598,
      "##oun": 1599,
      "##ave": 1600,
      "##ame": 1601,
      "im": 1602,
      "##ie": 1603,
      "##ous": 1604,
      "##ust": 1605,
      "##rit": 1606,
      "its": 1607,
      "##ong": 1608,
      "##ory": 1609,
      "##ome": 1610,
      "part": 1611,
      "##so": 1612,
      "##ual": 1613,
      "##ition": 1614,
      "war": 1615,
      "inter": 1616,
      "sy": 1617,
      "man": 1618,
      "##00": 1619,
      "can": 1620,
      "##ult": 1621,
      "their": 1622,
      "##lud": 1623,
      "##ech": 1624,
      "am": 1625,
      "##ign": 1626,
      "pol": 1627,
      "also": 1628,
      "have": 1629,
      "##ue": 1630,
      "##ass": 1631,
      "##onom": 1632,
      "af": 1633,
      "##ra": 1634,
      "comm": 1635,
      "##fer": 1636,
      "##for": 1637,
      "go": 1638,
      "ab": 1639,
      "such": 1640,
      "includ": 1641,
      "##ction": 1642,
      "201": 1643,
      "has": 1644,
      "ec": 1645,
      "per": 1646,
      "##ance": 1647,
      "gen": 1648,
      "fir": 1649,
      "art": 1650,
      "fr": 1651,
      "rec": 1652,
      "##ub": 1653,
      "##ational": 1654,
      "##ks": 1655,
      "##ates": 1656,
      "cent": 1657,
      "##ry": 1658,
      "ph": 1659,
      "em": 1660,
      "med": 1661,
      "##ely": 1662,
      "mar": 1663,
      "##ord": 1664,
      "mod": 1665,
      "##ology": 1666,
      "mus": 1667,
      "new": 1668,
      "##yle": 1669,
      "bo": 1670,
      "first": 1671,
      "##ould": 1672,
      "##gr": 1673,
      "##ific": 1674,
      "##vel": 1675,
      "##ces": 1676,
      "##etw": 1677,
      "other": 1678,
      "form": 1679,
      "##ight": 1680,
      "##age": 1681,
      "##ang": 1682,
      "##ire": 1683,
      "econom": 1684,
      "one": 1685,
      "##ents": 1686,
      "##ens": 1687,
      "##play": 1688,
      "##ied": 1689,
      "dec": 1690,
      "##able": 1691,
      "##ide": 1692,
      "##ru": 1693,
      "they": 1694,
      "##ism": 1695,
      "##echn": 1696,
      "sci": 1697,
      "had": 1698,
      "des": 1699,
      "##ik": 1700,
      "te": 1701,
      "ev": 1702,
      "display": 1703,
      "##ack": 1704,
      "his": 1705,
      "##ime": 1706,
      "bec": 1707,
      "##pr": 1708,
      "but": 1709,
      "##style": 1710,
      "##ount": 1711,
      "##ound": 1712,
      "##form": 1713,
      "cons": 1714,
      "col": 1715,
      "ag": 1716,
      "more": 1717,
      "bas": 1718,
      "##out": 1719,
      "200": 1720,
      "app": 1721,
      "world": 1722,
      "techn": 1723,
      "##ced": 1724,
      "displaystyle": 1725,
      "##stem": 1726,
      "##ile": 1727,
      "##ice": 1728,
      "##amp": 1729,
      "sub": 1730,
      "ser": 1731,
      "india": 1732,
      "##ater": 1733,
      "##ning": 1734,
      "system": 1735,
      "over": 1736,
      "##ree": 1737,
      "und": 1738,
      "reg": 1739,
      "tw": 1740,
      "##ular": 1741,
      "##ff": 1742,
      "##ors": 1743,
      "##uring": 1744,
      "##ric": 1745,
      "space": 1746,
      "been": 1747,
      "some": 1748,
      "acc": 1749,
      "gener": 1750,
      "used": 1751,
      "rel": 1752,
      "ass": 1753,
      "pre": 1754,
      "##ok": 1755,
      "stud": 1756,
      "##own": 1757,
      "ear": 1758,
      "##ited": 1759,
      "inv": 1760,
      "into": 1761,
      "co": 1762,
      "math": 1763,
      "me": 1764,
      "##gan": 1765,
      "these": 1766,
      "##ose": 1767,
      "year": 1768,
      "under": 1769,
      "202": 1770,
      "##een": 1771,
      "##velop": 1772,
      "##ative": 1773,
      "most": 1774,
      "##ys": 1775,
      "develop": 1776,
      "we": 1777,
      "soc": 1778,
      "imp": 1779,
      "##ubl": 1780,
      "##ond": 1781,
      "hist": 1782,
      "after": 1783,
      "who": 1784,
      "may": 1785,
      "produ": 1786,
      "ma": 1787,
      "##ities": 1788,
      "##rop": 1789,
      "##are": 1790,
      "two": 1791,
      "##ough": 1792,
      "ro": 1793,
      "betw": 1794,
      "between": 1795,
      "##iet": 1796,
      "inst": 1797,
      "there": 1798,
      "##tern": 1799,
      "ele": 1800,
      "##rap": 1801,
      "##ivers": 1802,
      "kn": 1803,
      "##reat": 1804,
      "##ists": 1805,
      "fe": 1806,
      "num": 1807,
      "def": 1808,
      "##ite": 1809,
      "out": 1810,
      "ac": 1811,
      "during": 1812,
      "##ade": 1813,
      "many": 1814,
      "##ft": 1815,
      "##oin": 1816,
      "trans": 1817,
      "##ally": 1818,
      "pe": 1819,
      "met": 1820,
      "act": 1821,
      "so": 1822,
      "par": 1823,
      "##erman": 1824,
      "music": 1825,
      "##ious": 1826,
      "att": 1827,
      "nor": 1828,
      "pres": 1829,
      "##rough": 1830,
      "##ution": 1831,
      "how": 1832,
      "spec": 1833,
      "gover": 1834,
      "##ict": 1835,
      "ge": 1836,
      "##ep": 1837,
      "##eric": 1838,
      "##land": 1839,
      "off": 1840,
      "##ten": 1841,
      "time": 1842,
      "##aw": 1843,
      "set": 1844,
      "##low": 1845,
      "18": 1846,
      "dif": 1847,
      "pop": 1848,
      "than": 1849,
      "govern": 1850,
      "count": 1851,
      "##ail": 1852,
      "do": 1853,
      "##ural": 1854,
      "##ury": 1855,
      "##ines": 1856,
      "fin": 1857,
      "eng": 1858,
      "##rib": 1859,
      "rep": 1860,
      "##ase": 1861,
      "lar": 1862,
      "##eld": 1863,
      "194": 1864,
      "##raph": 1865,
      "min": 1866,
      "br": 1867,
      "##ern": 1868,
      "when": 1869,
      "german": 1870,
      "work": 1871,
      "##ph": 1872,
      "states": 1873,
      "play": 1874,
      "##ement": 1875,
      "americ": 1876,
      "mon": 1877,
      "grou": 1878,
      "high": 1879,
      "##iss": 1880,
      "##ms": 1881,
      "##ved": 1882,
      "##les": 1883,
      "##aus": 1884,
      "199": 1885,
      "polit": 1886,
      "sec": 1887,
      "fol": 1888,
      "##te": 1889,
      "##ve": 1890,
      "cap": 1891,
      "##ized": 1892,
      "use": 1893,
      "eu": 1894,
      "##apan": 1895,
      "model": 1896,
      "hum": 1897,
      "japan": 1898,
      "##ri": 1899,
      "through": 1900,
      "would": 1901,
      "up": 1902,
      "publ": 1903,
      "sch": 1904,
      "ai": 1905,
      "science": 1906,
      "##ons": 1907,
      "##als": 1908,
      "##earch": 1909,
      "##ob": 1910,
      "id": 1911,
      "bi": 1912,
      "call": 1913,
      "class": 1914,
      "qu": 1915,
      "var": 1916,
      "##orts": 1917,
      "intern": 1918,
      "##ember": 1919,
      "univers": 1920,
      "##emat": 1921,
      "##old": 1922,
      "##ject": 1923,
      "including": 1924,
      "str": 1925,
      "lear": 1926,
      "only": 1927,
      "ob": 1928,
      "##ike": 1929,
      "##ating": 1930,
      "cre": 1931,
      "century": 1932,
      "inf": 1933,
      "##ians": 1934,
      "prov": 1935,
      "while": 1936,
      "government": 1937,
      "mathemat": 1938,
      "national": 1939,
      "sim": 1940,
      "disc": 1941,
      "##ures": 1942,
      "000": 1943,
      "##ered": 1944,
      "differ": 1945,
      "pos": 1946,
      "supp": 1947,
      "##ility": 1948,
      "##ograph": 1949,
      "group": 1950,
      "found": 1951,
      "##hip": 1952,
      "fun": 1953,
      "bl": 1954,
      "##ral": 1955,
      "brit": 1956,
      "pow": 1957,
      "##ug": 1958,
      "##lish": 1959,
      "term": 1960,
      "##ings": 1961,
      "##0s": 1962,
      "dist": 1963,
      "##ward": 1964,
      "##ket": 1965,
      "united": 1966,
      "sur": 1967,
      "gr": 1968,
      "##one": 1969,
      "research": 1970,
      "progr": 1971,
      "end": 1972,
      "exp": 1973,
      "##ically": 1974,
      "##ted": 1975,
      "technology": 1976,
      "ap": 1977,
      "##xt": 1978,
      "##ake": 1979,
      "##yp": 1980,
      "##illion": 1981,
      "##row": 1982,
      "follow": 1983,
      "fil": 1984,
      "if": 1985,
      "sou": 1986,
      "where": 1987,
      "est": 1988,
      "no": 1989,
      "val": 1990,
      "##ey": 1991,
      "state": 1992,
      "medic": 1993,
      "history": 1994,
      "about": 1995,
      "dat": 1996,
      "both": 1997,
      "car": 1998,
      "##ments": 1999,
      "add": 2000,
      "##ient": 2001,
      "##ision": 2002,
      "organ": 2003,
      "maj": 2004,
      "fl": 2005,
      "sin": 2006,
      "sign": 2007,
      "well": 2008,
      "social": 2009,
      "##ork": 2010,
      "air": 2011,
      "rem": 2012,
      "##cept": 2013,
      "##ank": 2014,
      "##ert": 2015,
      "known": 2016,
      "called": 2017,
      "peop": 2018,
      "##red": 2019,
      "##ise": 2020,
      "##ese": 2021,
      "equ": 2022,
      "based": 2023,
      "oper": 2024,
      "##ield": 2025,
      "major": 2026,
      "rev": 2027,
      "eff": 2028,
      "europ": 2029,
      "##led": 2030,
      "sports": 2031,
      "##ever": 2032,
      "ext": 2033,
      "comput": 2034,
      "comple": 2035,
      "years": 2036,
      "europe": 2037,
      "number": 2038,
      "##enc": 2039,
      "char": 2040,
      "human": 2041,
      "learning": 2042,
      "mov": 2043,
      "dem": 2044,
      "nat": 2045,
      "arm": 2046,
      "##ital": 2047,
      "any": 2048,
      "often": 2049,
      "##ample": 2050,
      "them": 2051,
      "##its": 2052,
      "##ization": 2053,
      "const": 2054,
      "partic": 2055,
      "##cess": 2056,
      "early": 2057,
      "##sp": 2058,
      "became": 2059,
      "people": 2060,
      "adv": 2061,
      "medicine": 2062,
      "##ind": 2063,
      "##ale": 2064,
      "##ood": 2065,
      "##imes": 2066,
      "however": 2067,
      "american": 2068,
      "##rol": 2069,
      "##ially": 2070,
      "##az": 2071,
      "mil": 2072,
      "main": 2073,
      "##att": 2074,
      "sm": 2075,
      "198": 2076,
      "##erg": 2077,
      "trad": 2078,
      "##ained": 2079,
      "example": 2080,
      "being": 2081,
      "##ruct": 2082,
      "##ually": 2083,
      "will": 2084,
      "##ier": 2085,
      "dep": 2086,
      "##ss": 2087,
      "indian": 2088,
      "program": 2089,
      "##ily": 2090,
      "appro": 2091,
      "##iew": 2092,
      "again": 2093,
      "different": 2094,
      "pers": 2095,
      "##ects": 2096,
      "##her": 2097,
      "political": 2098,
      "##ession": 2099,
      "##ann": 2100,
      "bel": 2101,
      "##omen": 2102,
      "sing": 2103,
      "##ices": 2104,
      "##ew": 2105,
      "##plic": 2106,
      "theory": 2107,
      "##aining": 2108,
      "##ild": 2109,
      "197": 2110,
      "##ble": 2111,
      "general": 2112,
      "##wn": 2113,
      "##ays": 2114,
      "##ues": 2115,
      "##up": 2116,
      "lead": 2117,
      "##io": 2118,
      "##uss": 2119,
      "like": 2120,
      "data": 2121,
      "##ron": 2122,
      "bu": 2123,
      "made": 2124,
      "resp": 2125,
      "incre": 2126,
      "##ulation": 2127,
      "10": 2128,
      "##ological": 2129,
      "economic": 2130,
      "##urn": 2131,
      "##bers": 2132,
      "conc": 2133,
      "desc": 2134,
      "contin": 2135,
      "british": 2136,
      "then": 2137,
      "##ange": 2138,
      "since": 2139,
      "op": 2140,
      "196": 2141,
      "##ased": 2142,
      "later": 2143,
      "occ": 2144,
      "##alth": 2145,
      "sa": 2146,
      "university": 2147,
      "##ages": 2148,
      "commun": 2149,
      "##oy": 2150,
      "dr": 2151,
      "three": 2152,
      "##ible": 2153,
      "phys": 2154,
      "##ix": 2155,
      "##round": 2156,
      "compan": 2157,
      "##ined": 2158,
      "process": 2159,
      "##omet": 2160,
      "##ool": 2161,
      "anal": 2162,
      "##anc": 2163,
      "typ": 2164,
      "##ences": 2165,
      "ret": 2166,
      "poin": 2167,
      "dire": 2168,
      "peri": 2169,
      "loc": 2170,
      "##ause": 2171,
      "ed": 2172,
      "mat": 2173,
      "period": 2174,
      "consid": 2175,
      "economics": 2176,
      "##und": 2177,
      "each": 2178,
      "public": 2179,
      "##ior": 2180,
      "##ful": 2181,
      "det": 2182,
      "cor": 2183,
      "bro": 2184,
      "##ery": 2185,
      "elect": 2186,
      "ann": 2187,
      "record": 2188,
      "##ames": 2189,
      "##fore": 2190,
      "##elf": 2191,
      "pract": 2192,
      "la": 2193,
      "red": 2194,
      "##ting": 2195,
      "sever": 2196,
      "gu": 2197,
      "support": 2198,
      "191": 2199,
      "pat": 2200,
      "##ivid": 2201,
      "cult": 2202,
      "million": 2203,
      "##igin": 2204,
      "south": 2205,
      "##olution": 2206,
      "##ai": 2207,
      "lang": 2208,
      "include": 2209,
      "ord": 2210,
      "##eng": 2211,
      "##ident": 2212,
      "origin": 2213,
      "colle": 2214,
      "design": 2215,
      "cr": 2216,
      "film": 2217,
      "common": 2218,
      "rele": 2219,
      "study": 2220,
      "serv": 2221,
      "japanese": 2222,
      "##aking": 2223,
      "##ock": 2224,
      "power": 2225,
      "##ention": 2226,
      "could": 2227,
      "writ": 2228,
      "plan": 2229,
      "milit": 2230,
      "gre": 2231,
      "##ives": 2232,
      "##osed": 2233,
      "##ived": 2234,
      "mu": 2235,
      "##hod": 2236,
      "second": 2237,
      "systems": 2238,
      "field": 2239,
      "women": 2240,
      "##ised": 2241,
      "##lu": 2242,
      "development": 2243,
      "netw": 2244,
      "lab": 2245,
      "mem": 2246,
      "king": 2247,
      "modern": 2248,
      "against": 2249,
      "direct": 2250,
      "##iqu": 2251,
      "perform": 2252,
      "method": 2253,
      "el": 2254,
      "##til": 2255,
      "##ah": 2256,
      "function": 2257,
      "international": 2258,
      "long": 2259,
      "exper": 2260,
      "dom": 2261,
      "same": 2262,
      "country": 2263,
      "four": 2264,
      "mach": 2265,
      "15": 2266,
      "inform": 2267,
      "non": 2268,
      "prof": 2269,
      "sov": 2270,
      "using": 2271,
      "soviet": 2272,
      "langu": 2273,
      "##ries": 2274,
      "repr": 2275,
      "her": 2276,
      "##itions": 2277,
      "##uc": 2278,
      "##very": 2279,
      "control": 2280,
      "chr": 2281,
      "medical": 2282,
      "north": 2283,
      "several": 2284,
      "##cl": 2285,
      "fam": 2286,
      "##rodu": 2287,
      "##ently": 2288,
      "emp": 2289,
      "##ively": 2290,
      "arch": 2291,
      "large": 2292,
      "mult": 2293,
      "open": 2294,
      "##br": 2295,
      "real": 2296,
      "##ipl": 2297,
      "##ina": 2298,
      "land": 2299,
      "##ason": 2300,
      "##ize": 2301,
      "##oh": 2302,
      "larg": 2303,
      "##itional": 2304,
      "expl": 2305,
      "team": 2306,
      "##ablish": 2307,
      "military": 2308,
      "##ued": 2309,
      "##other": 2310,
      "ent": 2311,
      "##ories": 2312,
      "allow": 2313,
      "sk": 2314,
      "began": 2315,
      "own": 2316,
      "##ency": 2317,
      "17": 2318,
      "within": 2319,
      "gl": 2320,
      "establish": 2321,
      "prom": 2322,
      "series": 2323,
      "##itut": 2324,
      "requ": 2325,
      "school": 2326,
      "geograph": 2327,
      "##ins": 2328,
      "led": 2329,
      "cell": 2330,
      "##ished": 2331,
      "result": 2332,
      "##ains": 2333,
      "##uth": 2334,
      "##bo": 2335,
      "christ": 2336,
      "crit": 2337,
      "top": 2338,
      "av": 2339,
      "##ross": 2340,
      "##erv": 2341,
      "fact": 2342,
      "##ball": 2343,
      "import": 2344,
      "prev": 2345,
      "193": 2346,
      "mid": 2347,
      "scient": 2348,
      "proble": 2349,
      "repres": 2350,
      "##par": 2351,
      "cur": 2352,
      "##get": 2353,
      "##oci": 2354,
      "##ering": 2355,
      "game": 2356,
      "prot": 2357,
      "histor": 2358,
      "accord": 2359,
      "influ": 2360,
      "##ty": 2361,
      "phil": 2362,
      "offic": 2363,
      "jew": 2364,
      "because": 2365,
      "before": 2366,
      "associ": 2367,
      "prin": 2368,
      "following": 2369,
      "##oman": 2370,
      "##ench": 2371,
      "##ired": 2372,
      "lif": 2373,
      "##ick": 2374,
      "leg": 2375,
      "among": 2376,
      "ident": 2377,
      "12": 2378,
      "until": 2379,
      "germany": 2380,
      "##por": 2381,
      "##yn": 2382,
      "conf": 2383,
      "##iven": 2384,
      "feat": 2385,
      "##atic": 2386,
      "health": 2387,
      "##ague": 2388,
      "around": 2389,
      "though": 2390,
      "those": 2391,
      "port": 2392,
      "indust": 2393,
      "##ash": 2394,
      "market": 2395,
      "ref": 2396,
      "##ont": 2397,
      "law": 2398,
      "particular": 2399,
      "show": 2400,
      "16": 2401,
      "##estern": 2402,
      "##iety": 2403,
      "##epend": 2404,
      "##au": 2405,
      "ter": 2406,
      "popular": 2407,
      "mathematics": 2408,
      "describ": 2409,
      "##ton": 2410,
      "##ases": 2411,
      "party": 2412,
      "according": 2413,
      "post": 2414,
      "##acter": 2415,
      "succ": 2416,
      "models": 2417,
      "aust": 2418,
      "prop": 2419,
      "independ": 2420,
      "ide": 2421,
      "great": 2422,
      "what": 2423,
      "text": 2424,
      "##ather": 2425,
      "back": 2426,
      "developed": 2427,
      "##duc": 2428,
      "company": 2429,
      "information": 2430,
      "civ": 2431,
      "har": 2432,
      "represent": 2433,
      "beh": 2434,
      "sw": 2435,
      "russ": 2436,
      "##ified": 2437,
      "##ogn": 2438,
      "cal": 2439,
      "##ateg": 2440,
      "army": 2441,
      "##oot": 2442,
      "nov": 2443,
      "iss": 2444,
      "region": 2445,
      "treat": 2446,
      "sol": 2447,
      "bar": 2448,
      "##air": 2449,
      "song": 2450,
      "opp": 2451,
      "##man": 2452,
      "env": 2453,
      "##ilar": 2454,
      "educ": 2455,
      "##ected": 2456,
      "##oph": 2457,
      "##raft": 2458,
      "poss": 2459,
      "civil": 2460,
      "stat": 2461,
      "another": 2462,
      "small": 2463,
      "##thern": 2464,
      "special": 2465,
      "president": 2466,
      "lib": 2467,
      "cour": 2468,
      "western": 2469,
      "even": 2470,
      "similar": 2471,
      "low": 2472,
      "camp": 2473,
      "##itive": 2474,
      "195": 2475,
      "invol": 2476,
      "introdu": 2477,
      "uk": 2478,
      "##etic": 2479,
      "##ene": 2480,
      "provid": 2481,
      "success": 2482,
      "union": 2483,
      "##line": 2484,
      "alth": 2485,
      "##istic": 2486,
      "level": 2487,
      "although": 2488,
      "lin": 2489,
      "pur": 2490,
      "##aces": 2491,
      "##ner": 2492,
      "##gin": 2493,
      "forces": 2494,
      "way": 2495,
      "grow": 2496,
      "right": 2497,
      "##iron": 2498,
      "league": 2499,
      "due": 2500,
      "##ament": 2501,
      "start": 2502,
      "##sc": 2503,
      "##unch": 2504,
      "environ": 2505,
      "polic": 2506,
      "div": 2507,
      "various": 2508,
      "refer": 2509,
      "institut": 2510,
      "central": 2511,
      "##ability": 2512,
      "struct": 2513,
      "press": 2514,
      "del": 2515,
      "##oss": 2516,
      "##ission": 2517,
      "signific": 2518,
      "east": 2519,
      "##ights": 2520,
      "population": 2521,
      "see": 2522,
      "much": 2523,
      "lit": 2524,
      "##ellig": 2525,
      "ii": 2526,
      "individ": 2527,
      "french": 2528,
      "##une": 2529,
      "list": 2530,
      "life": 2531,
      "every": 2532,
      "present": 2533,
      "##ants": 2534,
      "stand": 2535,
      "##bn": 2536,
      "empire": 2537,
      "##acy": 2538,
      "##dom": 2539,
      "bod": 2540,
      "language": 2541,
      "##res": 2542,
      "##ims": 2543,
      "##ract": 2544,
      "auth": 2545,
      "##ribut": 2546,
      "individual": 2547,
      "##ird": 2548,
      "need": 2549,
      "countries": 2550,
      "14": 2551,
      "training": 2552,
      "did": 2553,
      "eas": 2554,
      "##read": 2555,
      "##ival": 2556,
      "exam": 2557,
      "comb": 2558,
      "aff": 2559,
      "natural": 2560,
      "machine": 2561,
      "lim": 2562,
      "##ars": 2563,
      "hel": 2564,
      "sym": 2565,
      "engine": 2566,
      "aug": 2567,
      "##ness": 2568,
      "left": 2569,
      "##ured": 2570,
      "win": 2571,
      "11": 2572,
      "arg": 2573,
      "##ium": 2574,
      "activ": 2575,
      "vide": 2576,
      "##ately": 2577,
      "alg": 2578,
      "##ves": 2579,
      "fur": 2580,
      "##ploy": 2581,
      "##ination": 2582,
      "aut": 2583,
      "conv": 2584,
      "analys": 2585,
      "along": 2586,
      "ital": 2587,
      "sum": 2588,
      "important": 2589,
      "##ctions": 2590,
      "order": 2591,
      "considered": 2592,
      "person": 2593,
      "##ential": 2594,
      "##iving": 2595,
      "deg": 2596,
      "force": 2597,
      "launch": 2598,
      "applic": 2599,
      "far": 2600,
      "##ule": 2601,
      "pred": 2602,
      "joh": 2603,
      "##ief": 2604,
      "environment": 2605,
      "men": 2606,
      "sl": 2607,
      "view": 2608,
      "##ole": 2609,
      "spe": 2610,
      "pal": 2611,
      "significant": 2612,
      "care": 2613,
      "##ead": 2614,
      "france": 2615,
      "##put": 2616,
      "ant": 2617,
      "city": 2618,
      "fund": 2619,
      "games": 2620,
      "ra": 2621,
      "point": 2622,
      "english": 2623,
      "##ense": 2624,
      "##enn": 2625,
      "capital": 2626,
      "enc": 2627,
      "##els": 2628,
      "exist": 2629,
      "##ended": 2630,
      "init": 2631,
      "computer": 2632,
      "approach": 2633,
      "##ax": 2634,
      "kingdom": 2635,
      "esp": 2636,
      "european": 2637,
      "foc": 2638,
      "alb": 2639,
      "##orn": 2640,
      "isbn": 2641,
      "##rain": 2642,
      "##erc": 2643,
      "appear": 2644,
      "##uts": 2645,
      "##lect": 2646,
      "intellig": 2647,
      "##ared": 2648,
      "hand": 2649,
      "cla": 2650,
      "single": 2651,
      "##aced": 2652,
      "tem": 2653,
      "##ret": 2654,
      "included": 2655,
      "given": 2656,
      "good": 2657,
      "effect": 2658,
      "ins": 2659,
      "##ets": 2660,
      "13": 2661,
      "adm": 2662,
      "further": 2663,
      "broad": 2664,
      "analysis": 2665,
      "now": 2666,
      "##ister": 2667,
      "rece": 2668,
      "focus": 2669,
      "afric": 2670,
      "super": 2671,
      "mass": 2672,
      "##anu": 2673,
      "report": 2674,
      "day": 2675,
      "just": 2676,
      "log": 2677,
      "dev": 2678,
      "complex": 2679,
      "ce": 2680,
      "west": 2681,
      "chang": 2682,
      "times": 2683,
      "value": 2684,
      "##ances": 2685,
      "production": 2686,
      "batt": 2687,
      "##eral": 2688,
      "rest": 2689,
      "rad": 2690,
      "##ption": 2691,
      "mathematical": 2692,
      "##ification": 2693,
      "prim": 2694,
      "china": 2695,
      "earth": 2696,
      "compet": 2697,
      "##ration": 2698,
      "##icult": 2699,
      "make": 2700,
      "##tle": 2701,
      "mor": 2702,
      "somet": 2703,
      "##ocr": 2704,
      "invest": 2705,
      "network": 2706,
      "late": 2707,
      "##ull": 2708,
      "released": 2709,
      "192": 2710,
      "character": 2711,
      "mater": 2712,
      "##gg": 2713,
      "fre": 2714,
      "conn": 2715,
      "established": 2716,
      "vers": 2717,
      "rul": 2718,
      "anim": 2719,
      "john": 2720,
      "##ked": 2721,
      "##ection": 2722,
      "wid": 2723,
      "##wards": 2724,
      "algor": 2725,
      "##itution": 2726,
      "without": 2727,
      "traditional": 2728,
      "august": 2729,
      "algorith": 2730,
      "##ison": 2731,
      "vis": 2732,
      "##bert": 2733,
      "tot": 2734,
      "areas": 2735,
      "members": 2736,
      "third": 2737,
      "created": 2738,
      "##over": 2739,
      "##thers": 2740,
      "know": 2741,
      "down": 2742,
      "##xim": 2743,
      "interv": 2744,
      "manag": 2745,
      "republ": 2746,
      "##ector": 2747,
      "##ove": 2748,
      "glob": 2749,
      "il": 2750,
      "coun": 2751,
      "island": 2752,
      "groups": 2753,
      "proper": 2754,
      "expr": 2755,
      "vi": 2756,
      "##ane": 2757,
      "relig": 2758,
      "##ify": 2759,
      "place": 2760,
      "inte": 2761,
      "##aving": 2762,
      "defin": 2763,
      "june": 2764,
      "##oth": 2765,
      "recogn": 2766,
      "making": 2767,
      "##bs": 2768,
      "him": 2769,
      "anc": 2770,
      "##ling": 2771,
      "##ensive": 2772,
      "eth": 2773,
      "education": 2774,
      "di": 2775,
      "book": 2776,
      "##irc": 2777,
      "home": 2778,
      "##ources": 2779,
      "colon": 2780,
      "##78": 2781,
      "scientific": 2782,
      "help": 2783,
      "material": 2784,
      "vol": 2785,
      "less": 2786,
      "mal": 2787,
      "##asing": 2788,
      "behav": 2789,
      "##ats": 2790,
      "##ements": 2791,
      "build": 2792,
      "lo": 2793,
      "key": 2794,
      "still": 2795,
      "society": 2796,
      "##iction": 2797,
      "musl": 2798,
      "##jects": 2799,
      "##plied": 2800,
      "theor": 2801,
      "ju": 2802,
      "run": 2803,
      "princ": 2804,
      "##ols": 2805,
      "march": 2806,
      "old": 2807,
      "emerg": 2808,
      "former": 2809,
      "##inese": 2810,
      "near": 2811,
      "ris": 2812,
      "syn": 2813,
      "##acks": 2814,
      "impro": 2815,
      "become": 2816,
      "ast": 2817,
      "cert": 2818,
      "##yl": 2819,
      "chinese": 2820,
      "##ware": 2821,
      "republic": 2822,
      "last": 2823,
      "cover": 2824,
      "lat": 2825,
      "##lam": 2826,
      "cost": 2827,
      "intelligence": 2828,
      "fem": 2829,
      "##ouse": 2830,
      "methods": 2831,
      "death": 2832,
      "total": 2833,
      "short": 2834,
      "hy": 2835,
      "usually": 2836,
      "relations": 2837,
      "mathb": 2838,
      "##ley": 2839,
      "##ieved": 2840,
      "circ": 2841,
      "meas": 2842,
      "occur": 2843,
      "related": 2844,
      "body": 2845,
      "test": 2846,
      "season": 2847,
      "geography": 2848,
      "separ": 2849,
      "territ": 2850,
      "author": 2851,
      "ir": 2852,
      "artific": 2853,
      "##ples": 2854,
      "album": 2855,
      "sat": 2856,
      "##na": 2857,
      "said": 2858,
      "five": 2859,
      "fac": 2860,
      "oct": 2861,
      "event": 2862,
      "six": 2863,
      "##app": 2864,
      "caus": 2865,
      "area": 2866,
      "##ality": 2867,
      "underst": 2868,
      "den": 2869,
      "join": 2870,
      "##iple": 2871,
      "video": 2872,
      "##med": 2873,
      "head": 2874,
      "mean": 2875,
      "others": 2876,
      "##way": 2877,
      "##ourn": 2878,
      "bet": 2879,
      "she": 2880,
      "decl": 2881,
      "roman": 2882,
      "enter": 2883,
      "tak": 2884,
      "produc": 2885,
      "sept": 2886,
      "artificial": 2887,
      "movement": 2888,
      "##ests": 2889,
      "economy": 2890,
      "coll": 2891,
      "determ": 2892,
      "case": 2893,
      "cond": 2894,
      "##ument": 2895,
      "bre": 2896,
      "free": 2897,
      "standard": 2898,
      "##ipp": 2899,
      "should": 2900,
      "local": 2901,
      "mic": 2902,
      "##ots": 2903,
      "##ither": 2904,
      "role": 2905,
      "word": 2906,
      "domin": 2907,
      "curr": 2908,
      "rather": 2909,
      "york": 2910,
      "25": 2911,
      "##ator": 2912,
      "begin": 2913,
      "attem": 2914,
      "official": 2915,
      "deep": 2916,
      "september": 2917,
      "mag": 2918,
      "##sequ": 2919,
      "december": 2920,
      "bank": 2921,
      "cy": 2922,
      "numbers": 2923,
      "very": 2924,
      "##ties": 2925,
      "##orks": 2926,
      "bus": 2927,
      "pass": 2928,
      "arr": 2929,
      "foot": 2930,
      "##king": 2931,
      "apr": 2932,
      "##ites": 2933,
      "sal": 2934,
      "##inist": 2935,
      "##ender": 2936,
      "across": 2937,
      "ach": 2938,
      "champ": 2939,
      "published": 2940,
      "concept": 2941,
      "announ": 2942,
      "##ung": 2943,
      "##ches": 2944,
      "april": 2945,
      "won": 2946,
      "priv": 2947,
      "##ple": 2948,
      "##ades": 2949,
      "##ledge": 2950,
      "global": 2951,
      "##ex": 2952,
      "hal": 2953,
      "occup": 2954,
      "best": 2955,
      "specific": 2956,
      "addition": 2957,
      "##eter": 2958,
      "terms": 2959,
      "generally": 2960,
      "biology": 2961,
      "family": 2962,
      "pain": 2963,
      "cle": 2964,
      "##iness": 2965,
      "capt": 2966,
      "100": 2967,
      "name": 2968,
      "defined": 2969,
      "##ience": 2970,
      "##adem": 2971,
      "works": 2972,
      "policy": 2973,
      "pot": 2974,
      "##ark": 2975,
      "##me": 2976,
      "sometimes": 2977,
      "qual": 2978,
      "rule": 2979,
      "grad": 2980,
      "##iver": 2981,
      "concern": 2982,
      "2023": 2983,
      "espec": 2984,
      "product": 2985,
      "po": 2986,
      "july": 2987,
      "especially": 2988,
      "##ending": 2989,
      "tele": 2990,
      "2024": 2991,
      "academ": 2992,
      "##ma": 2993,
      "##amed": 2994,
      "techniqu": 2995,
      "written": 2996,
      "altern": 2997,
      "journ": 2998,
      "change": 2999,
      "##ving": 3000,
      "philos": 3001,
      "##ones": 3002,
      "978": 3003,
      "employ": 3004,
      "ancient": 3005,
      "functions": 3006,
      "problems": 3007,
      "mot": 3008,
      "geor": 3009,
      "doct": 3010,
      "janu": 3011,
      "tit": 3012,
      "students": 3013,
      "sold": 3014,
      "january": 3015,
      "interest": 3016,
      "november": 3017,
      "project": 3018,
      "media": 3019,
      "##isms": 3020,
      "introduced": 3021,
      "integr": 3022,
      "held": 3023,
      "object": 3024,
      "largest": 3025,
      "neg": 3026,
      "take": 3027,
      "practice": 3028,
      "ep": 3029,
      "ukrain": 3030,
      "##idence": 3031,
      "quant": 3032,
      "ax": 3033,
      "##ergy": 3034,
      "##li": 3035,
      "dise": 3036,
      "pa": 3037,
      "played": 3038,
      "der": 3039,
      "canad": 3040,
      "opt": 3041,
      "##ober": 3042,
      "##ether": 3043,
      "studies": 3044,
      "earl": 3045,
      "service": 3046,
      "soft": 3047,
      "##ators": 3048,
      "october": 3049,
      "tar": 3050,
      "##ature": 3051,
      "took": 3052,
      "access": 3053,
      "reach": 3054,
      "applied": 3055,
      "##ote": 3056,
      "degree": 3057,
      "##gy": 3058,
      "trade": 3059,
      "culture": 3060,
      "dyn": 3061,
      "revolution": 3062,
      "##anding": 3063,
      "certain": 3064,
      "profession": 3065,
      "##dle": 3066,
      "##cul": 3067,
      "obs": 3068,
      "performance": 3069,
      "must": 3070,
      "##ae": 3071,
      "##ored": 3072,
      "eastern": 3073,
      "hom": 3074,
      "##aster": 3075,
      "classical": 3076,
      "sound": 3077,
      "democr": 3078,
      "nav": 3079,
      "ang": 3080,
      "politics": 3081,
      "previous": 3082,
      "fed": 3083,
      "return": 3084,
      "##istan": 3085,
      "original": 3086,
      "agre": 3087,
      "##imed": 3088,
      "kill": 3089,
      "##ode": 3090,
      "month": 3091,
      "avail": 3092,
      "dest": 3093,
      "child": 3094,
      "elements": 3095,
      "##ress": 3096,
      "increasing": 3097,
      "##sh": 3098,
      "base": 3099,
      "few": 3100,
      "##ably": 3101,
      "battle": 3102,
      "came": 3103,
      "##oid": 3104,
      "particip": 3105,
      "dig": 3106,
      "house": 3107,
      "physical": 3108,
      "dim": 3109,
      "attack": 3110,
      "described": 3111,
      "ur": 3112,
      "##ends": 3113,
      "sex": 3114,
      "kore": 3115,
      "cho": 3116,
      "ke": 3117,
      "##vers": 3118,
      "islam": 3119,
      "##ude": 3120,
      "redu": 3121,
      "##eign": 3122,
      "energy": 3123,
      "problem": 3124,
      "knowledge": 3125,
      "either": 3126,
      "fut": 3127,
      "symb": 3128,
      "engineering": 3129,
      "fail": 3130,
      "micro": 3131,
      "networks": 3132,
      "deb": 3133,
      "##iment": 3134,
      "champions": 3135,
      "water": 3136,
      "##pts": 3137,
      "##icians": 3138,
      "includes": 3139,
      "jewish": 3140,
      "possible": 3141,
      "announced": 3142,
      "##day": 3143,
      "isra": 3144,
      "vir": 3145,
      "##let": 3146,
      "chem": 3147,
      "##ream": 3148,
      "line": 3149,
      "##ring": 3150,
      "thus": 3151,
      "##ension": 3152,
      "financ": 3153,
      "having": 3154,
      "ren": 3155,
      "2008": 3156,
      "israel": 3157,
      "arab": 3158,
      "regard": 3159,
      "middle": 3160,
      "##oks": 3161,
      "##bru": 3162,
      "estim": 3163,
      "##iers": 3164,
      "philosoph": 3165,
      "tax": 3166,
      "demand": 3167,
      "business": 3168,
      "##ym": 3169,
      "##eration": 3170,
      "30": 3171,
      "repl": 3172,
      "front": 3173,
      "austral": 3174,
      "rights": 3175,
      "ill": 3176,
      "sup": 3177,
      "##ops": 3178,
      "artists": 3179,
      "hol": 3180,
      "ste": 3181,
      "means": 3182,
      "award": 3183,
      "loss": 3184,
      "forms": 3185,
      "decision": 3186,
      "mount": 3187,
      "self": 3188,
      "2019": 3189,
      "subject": 3190,
      "strong": 3191,
      "africa": 3192,
      "vict": 3193,
      "contr": 3194,
      "produced": 3195,
      "instead": 3196,
      "does": 3197,
      "services": 3198,
      "offer": 3199,
      "##asion": 3200,
      "christian": 3201,
      "##lo": 3202,
      "##ha": 3203,
      "##arily": 3204,
      "febru": 3205,
      "northern": 3206,
      "february": 3207,
      "black": 3208,
      "parts": 3209,
      "et": 3210,
      "##ecut": 3211,
      "points": 3212,
      "sam": 3213,
      "2017": 3214,
      "age": 3215,
      "##iate": 3216,
      "artic": 3217,
      "coast": 3218,
      "##hips": 3219,
      "structure": 3220,
      "##ising": 3221,
      "##enced": 3222,
      "##ults": 3223,
      "2011": 3224,
      "##gypt": 3225,
      "egypt": 3226,
      "hold": 3227,
      "##arian": 3228,
      "species": 3229,
      "industry": 3230,
      "billion": 3231,
      "desp": 3232,
      "consum": 3233,
      "vari": 3234,
      "interact": 3235,
      "lay": 3236,
      "turn": 3237,
      "behavior": 3238,
      "asia": 3239,
      "strateg": 3240,
      "##rict": 3241,
      "jews": 3242,
      "range": 3243,
      "growth": 3244,
      "##hi": 3245,
      "##omb": 3246,
      "higher": 3247,
      "discipl": 3248,
      "er": 3249,
      "nas": 3250,
      "chur": 3251,
      "##osition": 3252,
      "##ape": 3253,
      "21": 3254,
      "##son": 3255,
      "##ming": 3256,
      "##ke": 3257,
      "##izing": 3258,
      "contribut": 3259,
      "2015": 3260,
      "continu": 3261,
      "pun": 3262,
      "sciences": 3263,
      "face": 3264,
      "##omp": 3265,
      "constitution": 3266,
      "categ": 3267,
      "dav": 3268,
      "miss": 3269,
      "##arch": 3270,
      "diff": 3271,
      "##ecess": 3272,
      "russian": 3273,
      "nations": 3274,
      "sequ": 3275,
      "cultural": 3276,
      "pap": 3277,
      "##ruction": 3278,
      "summ": 3279,
      "cop": 3280,
      "##ilities": 3281,
      "scale": 3282,
      "norm": 3283,
      "schol": 3284,
      "continued": 3285,
      "##ength": 3286,
      "my": 3287,
      "##rial": 3288,
      "##isions": 3289,
      "events": 3290,
      "host": 3291,
      "map": 3292,
      "##ilt": 3293,
      "##ource": 3294,
      "squ": 3295,
      "##ych": 3296,
      "sport": 3297,
      "sev": 3298,
      "launched": 3299,
      "##we": 3300,
      "2018": 3301,
      "cam": 3302,
      "pak": 3303,
      "typically": 3304,
      "independent": 3305,
      "##har": 3306,
      "##by": 3307,
      "influence": 3308,
      "particularly": 3309,
      "2000": 3310,
      "2014": 3311,
      "available": 3312,
      "bce": 3313,
      "##ek": 3314,
      "##xic": 3315,
      "2020": 3316,
      "2021": 3317,
      "critic": 3318,
      "throughout": 3319,
      "examples": 3320,
      "bal": 3321,
      "##ged": 3322,
      "##ler": 3323,
      "2016": 3324,
      "parties": 3325,
      "chann": 3326,
      "tex": 3327,
      "provide": 3328,
      "##aign": 3329,
      "##isc": 3330,
      "big": 3331,
      "despite": 3332,
      "fig": 3333,
      "evidence": 3334,
      "pakistan": 3335,
      "gold": 3336,
      "sugg": 3337,
      "span": 3338,
      "division": 3339,
      "mit": 3340,
      "you": 3341,
      "football": 3342,
      "##atory": 3343,
      "quest": 3344,
      "campaign": 3345,
      "##ologies": 3346,
      "subs": 3347,
      "2022": 3348,
      "create": 3349,
      "consist": 3350,
      "rob": 3351,
      "respect": 3352,
      "confl": 3353,
      "formed": 3354,
      "portug": 3355,
      "hard": 3356,
      "wal": 3357,
      "southern": 3358,
      "institute": 3359,
      "sent": 3360,
      "##echan": 3361,
      "command": 3362,
      "britain": 3363,
      "communic": 3364,
      "express": 3365,
      "attempt": 3366,
      "ve": 3367,
      "##istics": 3368,
      "itself": 3369,
      "##yt": 3370,
      "online": 3371,
      "pay": 3372,
      "star": 3373,
      "22": 3374,
      "least": 3375,
      "ps": 3376,
      "subst": 3377,
      "minister": 3378,
      "college": 3379,
      "journal": 3380,
      "target": 3381,
      "##ush": 3382,
      "##och": 3383,
      "distin": 3384,
      "leading": 3385,
      "##itu": 3386,
      "viol": 3387,
      "gree": 3388,
      "2012": 3389,
      "transform": 3390,
      "future": 3391,
      "##book": 3392,
      "##aff": 3393,
      "##aries": 3394,
      "arts": 3395,
      "administ": 3396,
      "##inary": 3397,
      "2010": 3398,
      "accept": 3399,
      "associated": 3400,
      "tro": 3401,
      "chord": 3402,
      "center": 3403,
      "mechan": 3404,
      "rich": 3405,
      "##anced": 3406,
      "america": 3407,
      "association": 3408,
      "ball": 3409,
      "vector": 3410,
      "##anch": 3411,
      "##ened": 3412,
      "spaces": 3413,
      "nature": 3414,
      "programs": 3415,
      "mer": 3416,
      "20th": 3417,
      "action": 3418,
      "##ises": 3419,
      "depart": 3420,
      "##apt": 3421,
      "above": 3422,
      "financial": 3423,
      "allied": 3424,
      "pi": 3425,
      "##ee": 3426,
      "##rix": 3427,
      "sem": 3428,
      "##ren": 3429,
      "##ck": 3430,
      "##most": 3431,
      "find": 3432,
      "cells": 3433,
      "commerc": 3434,
      "##ography": 3435,
      "##cent": 3436,
      "##oms": 3437,
      "##iam": 3438,
      "##tt": 3439,
      "style": 3440,
      "lond": 3441,
      "19th": 3442,
      "upon": 3443,
      "archit": 3444,
      "muslim": 3445,
      "##ula": 3446,
      "seen": 3447,
      "2025": 3448,
      "##ana": 3449,
      "##ference": 3450,
      "2013": 3451,
      "liter": 3452,
      "london": 3453,
      "ban": 3454,
      "commit": 3455,
      "founded": 3456,
      "cities": 3457,
      "ens": 3458,
      "internet": 3459,
      "##ps": 3460,
      "##ids": 3461,
      "##ford": 3462,
      "2009": 3463,
      "nb": 3464,
      "##ested": 3465,
      "##ought": 3466,
      "labor": 3467,
      "##akes": 3468,
      "instr": 3469,
      "office": 3470,
      "review": 3471,
      "thought": 3472,
      "religious": 3473,
      "followed": 3474,
      "increased": 3475,
      "bene": 3476,
      "step": 3477,
      "white": 3478,
      "techniques": 3479,
      "creat": 3480,
      "ul": 3481,
      "historical": 3482,
      "half": 3483,
      "jud": 3484,
      "##port": 3485,
      "mac": 3486,
      "##onst": 3487,
      "##aged": 3488,
      "defe": 3489,
      "##orm": 3490,
      "beginning": 3491,
      "##ees": 3492,
      "##ta": 3493,
      "##lement": 3494,
      "able": 3495,
      "linear": 3496,
      "software": 3497,
      "##ges": 3498,
      "read": 3499,
      "##ript": 3500,
      "mo": 3501,
      "players": 3502,
      "community": 3503,
      "started": 3504,
      "##olic": 3505,
      "##amm": 3506,
      "next": 3507,
      "numer": 3508,
      "successful": 3509,
      "23": 3510,
      "results": 3511,
      "independence": 3512,
      "congr": 3513,
      "predict": 3514,
      "heav": 3515,
      "geomet": 3516,
      "fight": 3517,
      "sea": 3518,
      "transl": 3519,
      "synth": 3520,
      "##ership": 3521,
      "##hol": 3522,
      "outs": 3523,
      "##lin": 3524,
      "##bit": 3525,
      "version": 3526,
      "resources": 3527,
      "multiple": 3528,
      "aud": 3529,
      "naz": 3530,
      "respons": 3531,
      "court": 3532,
      "##yr": 3533,
      "##iation": 3534,
      "##50": 3535,
      "learn": 3536,
      "cit": 3537,
      "emb": 3538,
      "church": 3539,
      "##ban": 3540,
      "attention": 3541,
      "tur": 3542,
      "content": 3543,
      "final": 3544,
      "italy": 3545,
      "foreign": 3546,
      "##raw": 3547,
      "operation": 3548,
      "entire": 3549,
      "broadc": 3550,
      "##inent": 3551,
      "##imate": 3552,
      "agr": 3553,
      "divid": 3554,
      "rap": 3555,
      "tre": 3556,
      "club": 3557,
      "full": 3558,
      "pen": 3559,
      "##ky": 3560,
      "##uments": 3561,
      "types": 3562,
      "##hib": 3563,
      "##rote": 3564,
      "phot": 3565,
      "limited": 3566,
      "neural": 3567,
      "cup": 3568,
      "##inal": 3569,
      "prime": 3570,
      "built": 3571,
      "songs": 3572,
      "provided": 3573,
      "changes": 3574,
      "don": 3575,
      "##tain": 3576,
      "industrial": 3577,
      "palest": 3578,
      "allies": 3579,
      "2006": 3580,
      "professional": 3581,
      "psych": 3582,
      "let": 3583,
      "sil": 3584,
      "tas": 3585,
      "uses": 3586,
      "never": 3587,
      "24": 3588,
      "##lex": 3589,
      "##ips": 3590,
      "powers": 3591,
      "fields": 3592,
      "architect": 3593,
      "##mp": 3594,
      "evolution": 3595,
      "assist": 3596,
      "50": 3597,
      "doc": 3598,
      "##ingu": 3599,
      "prob": 3600,
      "##oted": 3601,
      "##asc": 3602,
      "digital": 3603,
      "wrote": 3604,
      "plant": 3605,
      "applications": 3606,
      "##ox": 3607,
      "##urity": 3608,
      "environmental": 3609,
      "saw": 3610,
      "##isation": 3611,
      "mexic": 3612,
      "majority": 3613,
      "features": 3614,
      "##icient": 3615,
      "##ides": 3616,
      "2007": 3617,
      "type": 3618,
      "ire": 3619,
      "mob": 3620,
      "##istry": 3621,
      "humans": 3622,
      "adop": 3623,
      "hin": 3624,
      "allowed": 3625,
      "approxim": 3626,
      "##ucle": 3627,
      "david": 3628,
      "ireland": 3629,
      "users": 3630,
      "bord": 3631,
      "price": 3632,
      "increase": 3633,
      "saf": 3634,
      "benef": 3635,
      "river": 3636,
      "toget": 3637,
      "together": 3638,
      "whether": 3639,
      "acqu": 3640,
      "side": 3641,
      "necess": 3642,
      "##cil": 3643,
      "researchers": 3644,
      "reported": 3645,
      "nar": 3646,
      "##duct": 3647,
      "cross": 3648,
      "190": 3649,
      "creation": 3650,
      "alternative": 3651,
      "greek": 3652,
      "##ria": 3653,
      "##less": 3654,
      "plat": 3655,
      "parli": 3656,
      "algorithm": 3657,
      "live": 3658,
      "##oring": 3659,
      "definition": 3660,
      "commercial": 3661,
      "lost": 3662,
      "imm": 3663,
      "##iev": 3664,
      "lik": 3665,
      "rate": 3666,
      "money": 3667,
      "electron": 3668,
      "reason": 3669,
      "bill": 3670,
      "fall": 3671,
      "companies": 3672,
      "green": 3673,
      "##uries": 3674,
      "identity": 3675,
      "referred": 3676,
      "1945": 3677,
      "##usion": 3678,
      "chall": 3679,
      "whose": 3680,
      "conserv": 3681,
      "private": 3682,
      "##enth": 3683,
      "##osp": 3684,
      "mich": 3685,
      "subsequ": 3686,
      "1941": 3687,
      "provin": 3688,
      "designed": 3689,
      "parliament": 3690,
      "kh": 3691,
      "##cle": 3692,
      "##wh": 3693,
      "##fact": 3694,
      "##ony": 3695,
      "##omm": 3696,
      "emph": 3697,
      "troops": 3698,
      "roy": 3699,
      "era": 3700,
      "living": 3701,
      "##rated": 3702,
      "asp": 3703,
      "aver": 3704,
      "bur": 3705,
      "basis": 3706,
      "mi": 3707,
      "##emb": 3708,
      "##abor": 3709,
      "mathbf": 3710,
      "ess": 3711,
      "nucle": 3712,
      "##ibility": 3713,
      "assum": 3714,
      "##ulated": 3715,
      "multi": 3716,
      "emphas": 3717,
      "##onic": 3718,
      "2001": 3719,
      "issues": 3720,
      "risk": 3721,
      "##esis": 3722,
      "chief": 3723,
      "minor": 3724,
      "consider": 3725,
      "taken": 3726,
      "##fl": 3727,
      "election": 3728,
      "##lymp": 3729,
      "sets": 3730,
      "##ique": 3731,
      "deal": 3732,
      "prison": 3733,
      "plants": 3734,
      "received": 3735,
      "council": 3736,
      "russia": 3737,
      "agricult": 3738,
      "mole": 3739,
      "##iest": 3740,
      "effects": 3741,
      "meaning": 3742,
      "olymp": 3743,
      "teach": 3744,
      "disease": 3745,
      "##ients": 3746,
      "hit": 3747,
      "ver": 3748,
      "purp": 3749,
      "female": 3750,
      "mill": 3751,
      "##iance": 3752,
      "image": 3753,
      "biological": 3754,
      "##urs": 3755,
      "equival": 3756,
      "tradition": 3757,
      "collect": 3758,
      "rank": 3759,
      "##vision": 3760,
      "almost": 3761,
      "indic": 3762,
      "cann": 3763,
      "positive": 3764,
      "processes": 3765,
      "pattern": 3766,
      "required": 3767,
      "lower": 3768,
      "operations": 3769,
      "outside": 3770,
      "jer": 3771,
      "rock": 3772,
      "##ying": 3773,
      "clos": 3774,
      "require": 3775,
      "doctor": 3776,
      "##elves": 3777,
      "regular": 3778,
      "little": 3779,
      "##astic": 3780,
      "##ieve": 3781,
      "better": 3782,
      "shar": 3783,
      "##gen": 3784,
      "mission": 3785,
      "##isl": 3786,
      "past": 3787,
      "##ways": 3788,
      "##bra": 3789,
      "##int": 3790,
      "##ece": 3791,
      "feature": 3792,
      "anti": 3793,
      "management": 3794,
      "band": 3795,
      "today": 3796,
      "incor": 3797,
      "becom": 3798,
      "england": 3799,
      "airc": 3800,
      "frequ": 3801,
      "##onse": 3802,
      "mark": 3803,
      "lack": 3804,
      "difficult": 3805,
      "values": 3806,
      "labour": 3807,
      "canada": 3808,
      "islamic": 3809,
      "formal": 3810,
      "autom": 3811,
      "killed": 3812,
      "gar": 3813,
      "##uate": 3814,
      "26": 3815,
      "dam": 3816,
      "warhol": 3817,
      "response": 3818,
      "proposed": 3819,
      "involved": 3820,
      "##ables": 3821,
      "2005": 3822,
      "matrix": 3823,
      "##brid": 3824,
      "italian": 3825,
      "nasa": 3826,
      "##of": 3827,
      "bound": 3828,
      "##off": 3829,
      "might": 3830,
      "towards": 3831,
      "##ott": 3832,
      "exch": 3833,
      "regions": 3834,
      "produce": 3835,
      "optim": 3836,
      "named": 3837,
      "conver": 3838,
      "spanish": 3839,
      "cases": 3840,
      "##ya": 3841,
      "interp": 3842,
      "##go": 3843,
      "conce": 3844,
      "security": 3845,
      "laws": 3846,
      "san": 3847,
      "##ards": 3848,
      "progress": 3849,
      "conditions": 3850,
      "graph": 3851,
      "rang": 3852,
      "sen": 3853,
      "##ii": 3854,
      "threat": 3855,
      "##elling": 3856,
      "materials": 3857,
      "fiction": 3858,
      "prec": 3859,
      "remained": 3860,
      "algorithms": 3861,
      "dou": 3862,
      "widely": 3863,
      "children": 3864,
      "aircraft": 3865,
      "##ute": 3866,
      "observ": 3867,
      "kar": 3868,
      "##mas": 3869,
      "##ided": 3870,
      "sky": 3871,
      "musical": 3872,
      "player": 3873,
      "invasion": 3874,
      "recorded": 3875,
      "##af": 3876,
      "##ze": 3877,
      "prior": 3878,
      "folk": 3879,
      "path": 3880,
      "source": 3881,
      "##ribution": 3882,
      "channel": 3883,
      "implement": 3884,
      "bra": 3885,
      "working": 3886,
      "commonly": 3887,
      "objects": 3888,
      "application": 3889,
      "primary": 3890,
      "thems": 3891,
      "##atively": 3892,
      "##rew": 3893,
      "##anded": 3894,
      "units": 3895,
      "technologies": 3896,
      "bud": 3897,
      "days": 3898,
      "##eria": 3899,
      "imper": 3900,
      "individuals": 3901,
      "building": 3902,
      "themselves": 3903,
      "fif": 3904,
      "stated": 3905,
      "technical": 3906,
      "ground": 3907,
      "william": 3908,
      "pac": 3909,
      "legisl": 3910,
      "##jab": 3911,
      "except": 3912,
      "potential": 3913,
      "ath": 3914,
      "rise": 3915,
      "ten": 3916,
      "exc": 3917,
      "manu": 3918,
      "put": 3919,
      "189": 3920,
      "ult": 3921,
      "cat": 3922,
      "##agn": 3923,
      "##izations": 3924,
      "directly": 3925,
      "##ger": 3926,
      "academic": 3927,
      "broadcast": 3928,
      "food": 3929,
      "cast": 3930,
      "##ev": 3931,
      "##ires": 3932,
      "abs": 3933,
      "basic": 3934,
      "punjab": 3935,
      "divers": 3936,
      "##work": 3937,
      "##ician": 3938,
      "languages": 3939,
      "products": 3940,
      "unc": 3941,
      "centuries": 3942,
      "schools": 3943,
      "sun": 3944,
      "spain": 3945,
      "position": 3946,
      "surv": 3947,
      "idea": 3948,
      "temper": 3949,
      "eventually": 3950,
      "current": 3951,
      "television": 3952,
      "select": 3953,
      "discuss": 3954,
      "##ceed": 3955,
      "##otes": 3956,
      "recent": 3957,
      "internal": 3958,
      "hear": 3959,
      "light": 3960,
      "theories": 3961,
      "##ivity": 3962,
      "quality": 3963,
      "bc": 3964,
      "##lying": 3965,
      "tim": 3966,
      "once": 3967,
      "trav": 3968,
      "output": 3969,
      "rules": 3970,
      "royal": 3971,
      "500": 3972,
      "dut": 3973,
      "died": 3974,
      "situ": 3975,
      "##hing": 3976,
      "##der": 3977,
      "##atives": 3978,
      "##reg": 3979,
      "legal": 3980,
      "activity": 3981,
      "goods": 3982,
      "via": 3983,
      "conflict": 3984,
      "alge": 3985,
      "2003": 3986,
      "prem": 3987,
      "scholars": 3988,
      "##ope": 3989,
      "account": 3990,
      "complete": 3991,
      "prevent": 3992,
      "gender": 3993,
      "thin": 3994,
      "calcul": 3995,
      "male": 3996,
      "execut": 3997,
      "franc": 3998,
      "impact": 3999,
      "peace": 4000,
      "islands": 4001,
      "##orph": 4002,
      "inn": 4003,
      "ability": 4004,
      "ox": 4005,
      "size": 4006,
      "##anted": 4007,
      "percent": 4008,
      "blood": 4009,
      "##ixed": 4010,
      "##den": 4011,
      "tal": 4012,
      "##amb": 4013,
      "reform": 4014,
      "theorem": 4015,
      "##ror": 4016,
      "conqu": 4017,
      "ideas": 4018,
      "fav": 4019,
      "organisms": 4020,
      "congress": 4021,
      "rol": 4022,
      "##ulations": 4023,
      "dead": 4024,
      "conduct": 4025,
      "clin": 4026,
      "##ours": 4027,
      "##anned": 4028,
      "##porary": 4029,
      "tools": 4030,
      "additional": 4031,
      "bow": 4032,
      "##eal": 4033,
      "##iated": 4034,
      "spread": 4035,
      "invad": 4036,
      "greater": 4037,
      "treatment": 4038,
      "collabor": 4039,
      "cas": 4040,
      "rh": 4041,
      "##ael": 4042,
      "hung": 4043,
      "##umb": 4044,
      "##aves": 4045,
      "element": 4046,
      "teams": 4047,
      "wars": 4048,
      "advanced": 4049,
      "factors": 4050,
      "institutions": 4051,
      "activities": 4052,
      "draft": 4053,
      "mart": 4054,
      "##ext": 4055,
      "##igned": 4056,
      "largely": 4057,
      "28": 4058,
      "bit": 4059,
      "youn": 4060,
      "personal": 4061,
      "gal": 4062,
      "philosophy": 4063,
      "sens": 4064,
      "measure": 4065,
      "separate": 4066,
      "27": 4067,
      "##ama": 4068,
      "analy": 4069,
      "experiment": 4070,
      "connected": 4071,
      "nazi": 4072,
      "vo": 4073,
      "##ried": 4074,
      "understanding": 4075,
      "pan": 4076,
      "minim": 4077,
      "radio": 4078,
      "ukraine": 4079,
      "kind": 4080,
      "shoot": 4081,
      "ethn": 4082,
      "mad": 4083,
      "wind": 4084,
      "christmas": 4085,
      "months": 4086,
      "divided": 4087,
      "incorpor": 4088,
      "manufact": 4089,
      "##aut": 4090,
      "images": 4091,
      "novel": 4092,
      "initially": 4093,
      "nation": 4094,
      "##used": 4095,
      "##usal": 4096,
      "contem": 4097,
      "distinct": 4098,
      "tatt": 4099,
      "wide": 4100,
      "##ero": 4101,
      "release": 4102,
      "destro": 4103,
      "cric": 4104,
      "##otic": 4105,
      "article": 4106,
      "unit": 4107,
      "commission": 4108,
      "variety": 4109,
      "extre": 4110,
      "##nes": 4111,
      "##ari": 4112,
      "context": 4113,
      "equal": 4114,
      "##face": 4115,
      "##oses": 4116,
      "2004": 4117,
      "films": 4118,
      "dimension": 4119,
      "od": 4120,
      "discover": 4121,
      "dynast": 4122,
      "sense": 4123,
      "secret": 4124,
      "classification": 4125,
      "soldiers": 4126,
      "get": 4127,
      "our": 4128,
      "##aps": 4129,
      "true": 4130,
      "emerged": 4131,
      "territory": 4132,
      "caused": 4133,
      "urban": 4134,
      "tatto": 4135,
      "stem": 4136,
      "goal": 4137,
      "artist": 4138,
      "contrast": 4139,
      "cd": 4140,
      "reb": 4141,
      "##ump": 4142,
      "hindu": 4143,
      "km": 4144,
      "ott": 4145,
      "insp": 4146,
      "resid": 4147,
      "1970s": 4148,
      "policies": 4149,
      "citiz": 4150,
      "flow": 4151,
      "member": 4152,
      "oil": 4153,
      "oce": 4154,
      "##osc": 4155,
      "properties": 4156,
      "algebra": 4157,
      "bomb": 4158,
      "##ara": 4159,
      "##ously": 4160,
      "organization": 4161,
      "records": 4162,
      "fundament": 4163,
      "facebook": 4164,
      "average": 4165,
      "40": 4166,
      "compon": 4167,
      "frac": 4168,
      "address": 4169,
      "investig": 4170,
      "2002": 4171,
      "##back": 4172,
      "resist": 4173,
      "##resp": 4174,
      "clear": 4175,
      "earlier": 4176,
      "larger": 4177,
      "counter": 4178,
      "declared": 4179,
      "platform": 4180,
      "cred": 4181,
      "neal": 4182,
      "shown": 4183,
      "##ishing": 4184,
      "1944": 4185,
      "##ening": 4186,
      "transport": 4187,
      "fa": 4188,
      "##ective": 4189,
      "compar": 4190,
      "say": 4191,
      "##ne": 4192,
      "##mar": 4193,
      "##rought": 4194,
      "highest": 4195,
      "cricket": 4196,
      "29": 4197,
      "beng": 4198,
      "supply": 4199,
      "flag": 4200,
      "demonst": 4201,
      "george": 4202,
      "gave": 4203,
      "construct": 4204,
      "treaty": 4205,
      "mathbb": 4206,
      "##itted": 4207,
      "soil": 4208,
      "sus": 4209,
      "##hic": 4210,
      "##inated": 4211,
      "##ores": 4212,
      "##rect": 4213,
      "station": 4214,
      "signed": 4215,
      "logic": 4216,
      "##rm": 4217,
      "track": 4218,
      "therefore": 4219,
      "infin": 4220,
      "australia": 4221,
      "ever": 4222,
      "hyp": 4223,
      "convention": 4224,
      "property": 4225,
      "chemical": 4226,
      "architecture": 4227,
      "sources": 4228,
      "too": 4229,
      "phen": 4230,
      "books": 4231,
      "federal": 4232,
      "likely": 4233,
      "##orial": 4234,
      "##iting": 4235,
      "numerous": 4236,
      "cust": 4237,
      "rout": 4238,
      "news": 4239,
      "hu": 4240,
      "ram": 4241,
      "##equ": 4242,
      "##izes": 4243,
      "economists": 4244,
      "robert": 4245,
      "course": 4246,
      "appeared": 4247,
      "lu": 4248,
      "went": 4249,
      "##20": 4250,
      "animals": 4251,
      "equivalent": 4252,
      "search": 4253,
      "##itch": 4254,
      "##osing": 4255,
      "harm": 4256,
      "status": 4257,
      "transfer": 4258,
      "writing": 4259,
      "department": 4260,
      "rapid": 4261,
      "eight": 4262,
      "##field": 4263,
      "##itation": 4264,
      "##aging": 4265,
      "##lands": 4266,
      "eucl": 4267,
      "##rown": 4268,
      "scientists": 4269,
      "fire": 4270,
      "hall": 4271,
      "hosp": 4272,
      "##iology": 4273,
      "##ining": 4274,
      "react": 4275,
      "user": 4276,
      "palestine": 4277,
      "imperial": 4278,
      "fu": 4279,
      "##ls": 4280,
      "##ani": 4281,
      "comment": 4282,
      "##rug": 4283,
      "universities": 4284,
      "match": 4285,
      "recognition": 4286,
      "jerusal": 4287,
      "exchange": 4288,
      "jerusalem": 4289,
      "##antic": 4290,
      "board": 4291,
      "paul": 4292,
      "##asons": 4293,
      "##ands": 4294,
      "1998": 4295,
      "##augh": 4296,
      "primarily": 4297,
      "agreement": 4298,
      "paper": 4299,
      "seven": 4300,
      "amount": 4301,
      "##onomy": 4302,
      "added": 4303,
      "master": 4304,
      "shif": 4305,
      "visual": 4306,
      "bm": 4307,
      "##east": 4308,
      "##cer": 4309,
      "##acts": 4310,
      "corresp": 4311,
      "experience": 4312,
      "concepts": 4313,
      "correspond": 4314,
      "ways": 4315,
      "##itz": 4316,
      "below": 4317,
      "believed": 4318,
      "issue": 4319,
      "title": 4320,
      "mexico": 4321,
      "alex": 4322,
      "bach": 4323,
      "##atch": 4324,
      "meet": 4325,
      "administration": 4326,
      "brought": 4327,
      "##bre": 4328,
      "climate": 4329,
      "1960s": 4330,
      "supported": 4331,
      "##iples": 4332,
      "hind": 4333,
      "lines": 4334,
      "length": 4335,
      "##ca": 4336,
      "germ": 4337,
      "##leg": 4338,
      "##plies": 4339,
      "generated": 4340,
      "satell": 4341,
      "texas": 4342,
      "document": 4343,
      "je": 4344,
      "param": 4345,
      "surg": 4346,
      "practices": 4347,
      "previously": 4348,
      "virt": 4349,
      "creating": 4350,
      "dna": 4351,
      "##ills": 4352,
      "active": 4353,
      "resulting": 4354,
      "estimated": 4355,
      "pacific": 4356,
      "ocean": 4357,
      "31": 4358,
      "du": 4359,
      "accur": 4360,
      "mind": 4361,
      "allows": 4362,
      "look": 4363,
      "bab": 4364,
      "##ata": 4365,
      "polish": 4366,
      "workers": 4367,
      "originally": 4368,
      "1939": 4369,
      "pet": 4370,
      "##rian": 4371,
      "##akers": 4372,
      "##ready": 4373,
      "bengal": 4374,
      "gh": 4375,
      "ll": 4376,
      "##hold": 4377,
      "story": 4378,
      "come": 4379,
      "discipline": 4380,
      "summer": 4381,
      "##com": 4382,
      "maxim": 4383,
      "philipp": 4384,
      "colonial": 4385,
      "prisoners": 4386,
      "##apore": 4387,
      "experi": 4388,
      "argued": 4389,
      "branch": 4390,
      "territories": 4391,
      "electronic": 4392,
      "cause": 4393,
      "forced": 4394,
      "rein": 4395,
      "already": 4396,
      "negative": 4397,
      "challeng": 4398,
      "rac": 4399,
      "taking": 4400,
      "##kn": 4401,
      "therap": 4402,
      "webs": 4403,
      "surve": 4404,
      "located": 4405,
      "replaced": 4406,
      "##etical": 4407,
      "abst": 4408,
      "hor": 4409,
      "##esp": 4410,
      "trib": 4411,
      "##aker": 4412,
      "basket": 4413,
      "expression": 4414,
      "axis": 4415,
      "increasingly": 4416,
      "approximately": 4417,
      "destroy": 4418,
      "god": 4419,
      "gaz": 4420,
      "##war": 4421,
      "input": 4422,
      "trained": 4423,
      "simple": 4424,
      "singapore": 4425,
      "african": 4426,
      "devices": 4427,
      "cannot": 4428,
      "done": 4429,
      "anth": 4430,
      "contract": 4431,
      "cogn": 4432,
      "##itude": 4433,
      "eval": 4434,
      "mostly": 4435,
      "1999": 4436,
      "sn": 4437,
      "unl": 4438,
      "student": 4439,
      "sett": 4440,
      "critical": 4441,
      "reached": 4442,
      "whole": 4443,
      "ended": 4444,
      "machines": 4445,
      "korea": 4446,
      "contemporary": 4447,
      "notable": 4448,
      "##ription": 4449,
      "##olved": 4450,
      "##ows": 4451,
      "noted": 4452,
      "distribution": 4453,
      "detail": 4454,
      "influenced": 4455,
      "innov": 4456,
      "frame": 4457,
      "highly": 4458,
      "distance": 4459,
      "represented": 4460,
      "fundamental": 4461,
      "james": 4462,
      "##ental": 4463,
      "1942": 4464,
      "grand": 4465,
      "avoid": 4466,
      "##airs": 4467,
      "fri": 4468,
      "instance": 4469,
      "earliest": 4470,
      "cand": 4471,
      "ef": 4472,
      "lic": 4473,
      "nom": 4474,
      "tech": 4475,
      "##ius": 4476,
      "##ica": 4477,
      "compos": 4478,
      "notes": 4479,
      "1980s": 4480,
      "michael": 4481,
      "dynasty": 4482,
      "thous": 4483,
      "##otion": 4484,
      "scre": 4485,
      "foundation": 4486,
      "expanded": 4487,
      "physicians": 4488,
      "growing": 4489,
      "cut": 4490,
      "round": 4491,
      "suit": 4492,
      "chat": 4493,
      "share": 4494,
      "served": 4495,
      "words": 4496,
      "##ef": 4497,
      "##osph": 4498,
      "##ortun": 4499,
      "immed": 4500,
      "corpor": 4501,
      "regional": 4502,
      "##adesh": 4503,
      "##edic": 4504,
      "prote": 4505,
      "technological": 4506,
      "refers": 4507,
      "principles": 4508,
      "##ki": 4509,
      "##ici": 4510,
      "maint": 4511,
      "1914": 4512,
      "muslims": 4513,
      "drug": 4514,
      "site": 4515,
      "##gar": 4516,
      "##ffer": 4517,
      "##ters": 4518,
      "##urg": 4519,
      "genetic": 4520,
      "remov": 4521,
      "approaches": 4522,
      "latin": 4523,
      "question": 4524,
      "haw": 4525,
      "leaders": 4526,
      "famil": 4527,
      "levels": 4528,
      "300": 4529,
      "draw": 4530,
      "wall": 4531,
      "occupied": 4532,
      "##la": 4533,
      "##ads": 4534,
      "percept": 4535,
      "apple": 4536,
      "web": 4537,
      "attacks": 4538,
      "expans": 4539,
      "mainly": 4540,
      "geometry": 4541,
      "##ifically": 4542,
      "186": 4543,
      "provides": 4544,
      "claimed": 4545,
      "card": 4546,
      "ful": 4547,
      "##grad": 4548,
      "metric": 4549,
      "break": 4550,
      "young": 4551,
      "ber": 4552,
      "cou": 4553,
      "##overy": 4554,
      "##ker": 4555,
      "box": 4556,
      "overall": 4557,
      "collection": 4558,
      "citizens": 4559,
      "income": 4560,
      "etc": 4561,
      "communication": 4562,
      "abstract": 4563,
      "cov": 4564,
      "conference": 4565,
      "neut": 4566,
      "crew": 4567,
      "shows": 4568,
      "##su": 4569,
      "exhib": 4570,
      "##pper": 4571,
      "starting": 4572,
      "##ifying": 4573,
      "code": 4574,
      "##yth": 4575,
      "##ania": 4576,
      "neigh": 4577,
      "##forts": 4578,
      "wealth": 4579,
      "sequence": 4580,
      "neighb": 4581,
      "fle": 4582,
      "wear": 4583,
      "##erved": 4584,
      "##ogle": 4585,
      "note": 4586,
      "soon": 4587,
      "##encies": 4588,
      "smaller": 4589,
      "efforts": 4590,
      "consequ": 4591,
      "square": 4592,
      "fell": 4593,
      "##eum": 4594,
      "##ety": 4595,
      "stal": 4596,
      "developing": 4597,
      "jose": 4598,
      "google": 4599,
      "cris": 4600,
      "longer": 4601,
      "interpret": 4602,
      "##ino": 4603,
      "excl": 4604,
      "structures": 4605,
      "initial": 4606,
      "concerns": 4607,
      "mel": 4608,
      "##odes": 4609,
      "##ounts": 4610,
      "partition": 4611,
      "##idean": 4612,
      "governments": 4613,
      "domain": 4614,
      "figures": 4615,
      "ut": 4616,
      "##cular": 4617,
      "1990s": 4618,
      "raj": 4619,
      "axi": 4620,
      "euclidean": 4621,
      "mur": 4622,
      "##onal": 4623,
      "##erse": 4624,
      "performed": 4625,
      "competition": 4626,
      "circum": 4627,
      "wood": 4628,
      "always": 4629,
      "compared": 4630,
      "##que": 4631,
      "distingu": 4632,
      "advoc": 4633,
      "introduction": 4634,
      "pressure": 4635,
      "existing": 4636,
      "magaz": 4637,
      "georg": 4638,
      "sexual": 4639,
      "athlet": 4640,
      "hen": 4641,
      "##ram": 4642,
      "##uation": 4643,
      "orth": 4644,
      "resulted": 4645,
      "animal": 4646,
      "aspects": 4647,
      "basketball": 4648,
      "perm": 4649,
      "thom": 4650,
      "stru": 4651,
      "alt": 4652,
      "adapt": 4653,
      "188": 4654,
      "joint": 4655,
      "championship": 4656,
      "necessary": 4657,
      "ethnic": 4658,
      "##head": 4659,
      "##igen": 4660,
      "weap": 4661,
      "187": 4662,
      "retr": 4663,
      "tiss": 4664,
      "town": 4665,
      "monit": 4666,
      "label": 4667,
      "religion": 4668,
      "border": 4669,
      "nuclear": 4670,
      "tend": 4671,
      "##hood": 4672,
      "remains": 4673,
      "computational": 4674,
      "opportun": 4675,
      "bay": 4676,
      "##co": 4677,
      "##wide": 4678,
      "##osis": 4679,
      "##ectors": 4680,
      "close": 4681,
      "week": 4682,
      "societ": 4683,
      "playing": 4684,
      "1997": 4685,
      "richard": 4686,
      "rand": 4687,
      "vill": 4688,
      "studio": 4689,
      "moved": 4690,
      "claim": 4691,
      "relationship": 4692,
      "awarded": 4693,
      "adopted": 4694,
      "casual": 4695,
      "tens": 4696,
      "table": 4697,
      "wr": 4698,
      "##oe": 4699,
      "extern": 4700,
      "compact": 4701,
      "decisions": 4702,
      "actions": 4703,
      "democratic": 4704,
      "literature": 4705,
      "germans": 4706,
      "give": 4707,
      "ali": 4708,
      "bey": 4709,
      "marx": 4710,
      "marked": 4711,
      "##rolog": 4712,
      "physics": 4713,
      "speech": 4714,
      "son": 4715,
      "##asts": 4716,
      "##entially": 4717,
      "##thing": 4718,
      "communities": 4719,
      "baseball": 4720,
      "fair": 4721,
      "poland": 4722,
      "occurred": 4723,
      "tasks": 4724,
      "candid": 4725,
      "60": 4726,
      "bul": 4727,
      "##dh": 4728,
      "##eth": 4729,
      "scul": 4730,
      "charles": 4731,
      "##plicit": 4732,
      "diagn": 4733,
      "continuous": 4734,
      "becoming": 4735,
      "phenomen": 4736,
      "yank": 4737,
      "##uese": 4738,
      "##ken": 4739,
      "suff": 4740,
      "patients": 4741,
      "describe": 4742,
      "dynam": 4743,
      "portuguese": 4744,
      "nba": 4745,
      "rom": 4746,
      "##rees": 4747,
      "##ections": 4748,
      "complet": 4749,
      "focused": 4750,
      "makes": 4751,
      "##eless": 4752,
      "matter": 4753,
      "cart": 4754,
      "race": 4755,
      "##rete": 4756,
      "arist": 4757,
      "##elled": 4758,
      "settle": 4759,
      "organized": 4760,
      "belief": 4761,
      "elections": 4762,
      "portugal": 4763,
      "neutral": 4764,
      "job": 4765,
      "##oting": 4766,
      "##vert": 4767,
      "universal": 4768,
      "distribut": 4769,
      "trop": 4770,
      "##wise": 4771,
      "##jan": 4772,
      "##ros": 4773,
      "##lection": 4774,
      "persp": 4775,
      "navy": 4776,
      "layer": 4777,
      "hab": 4778,
      "##uch": 4779,
      "ben": 4780,
      "fal": 4781,
      "rain": 4782,
      "orbit": 4783,
      "openai": 4784,
      "committe": 4785,
      "dipl": 4786,
      "diss": 4787,
      "generation": 4788,
      "nearly": 4789,
      "deaths": 4790,
      "instrument": 4791,
      "safety": 4792,
      "expansion": 4793,
      "lou": 4794,
      "mig": 4795,
      "pp": 4796,
      "police": 4797,
      "controlled": 4798,
      "theoretical": 4799,
      "poor": 4800,
      "##to": 4801,
      "reject": 4802,
      "specifically": 4803,
      "1940": 4804,
      "quick": 4805,
      "remain": 4806,
      "prominent": 4807,
      "markets": 4808,
      "away": 4809,
      "names": 4810,
      "##ensus": 4811,
      "defense": 4812,
      "programming": 4813,
      "1918": 4814,
      "crisis": 4815,
      "cath": 4816,
      "hund": 4817,
      "mis": 4818,
      "upper": 4819,
      "##oration": 4820,
      "spac": 4821,
      "processing": 4822,
      "sculpt": 4823,
      "##erate": 4824,
      "##elt": 4825,
      "symbol": 4826,
      "victory": 4827,
      "patterns": 4828,
      "bell": 4829,
      "woman": 4830,
      "##ented": 4831,
      "##ulate": 4832,
      "historians": 4833,
      "keynes": 4834,
      "gam": 4835,
      "gun": 4836,
      "##bon": 4837,
      "impr": 4838,
      "weak": 4839,
      "movements": 4840,
      "archived": 4841,
      "claims": 4842,
      "hundred": 4843,
      "rational": 4844,
      "##ney": 4845,
      "##gn": 4846,
      "tom": 4847,
      "partn": 4848,
      "museum": 4849,
      "consists": 4850,
      "flight": 4851,
      "investment": 4852,
      "failed": 4853,
      "heavy": 4854,
      "##inate": 4855,
      "smith": 4856,
      "encour": 4857,
      "ukrainian": 4858,
      "banks": 4859,
      "32": 4860,
      "##olf": 4861,
      "atl": 4862,
      "alliance": 4863,
      "paral": 4864,
      "paris": 4865,
      "depend": 4866,
      "freed": 4867,
      "cos": 4868,
      "mut": 4869,
      "##ply": 4870,
      "tour": 4871,
      "stage": 4872,
      "poll": 4873,
      "americans": 4874,
      "quantum": 4875,
      "category": 4876,
      "travel": 4877,
      "##estic": 4878,
      "contain": 4879,
      "##berg": 4880,
      "opposed": 4881,
      "vehic": 4882,
      "beyond": 4883,
      "things": 4884,
      "##osl": 4885,
      "prefer": 4886,
      "degrees": 4887,
      "gaza": 4888,
      "##rovers": 4889,
      "##etics": 4890,
      "useful": 4891,
      "construction": 4892,
      "involves": 4893,
      "effective": 4894,
      "understand": 4895,
      "thomas": 4896,
      "33": 4897,
      "hon": 4898,
      "hil": 4899,
      "que": 4900,
      "tun": 4901,
      "##puts": 4902,
      "stra": 4903,
      "##utions": 4904,
      "assess": 4905,
      "assemb": 4906,
      "1943": 4907,
      "changed": 4908,
      "night": 4909,
      "wing": 4910,
      "##ras": 4911,
      "##light": 4912,
      "##ago": 4913,
      "contains": 4914,
      "block": 4915,
      "joined": 4916,
      "bir": 4917,
      "mand": 4918,
      "pict": 4919,
      "##erve": 4920,
      "##aling": 4921,
      "hypoth": 4922,
      "mes": 4923,
      "overs": 4924,
      "##rative": 4925,
      "##oll": 4926,
      "constant": 4927,
      "fourth": 4928,
      "occupation": 4929,
      "reprodu": 4930,
      "extended": 4931,
      "esc": 4932,
      "##uit": 4933,
      "##vant": 4934,
      "##hab": 4935,
      "##edd": 4936,
      "asian": 4937,
      "controvers": 4938,
      "color": 4939,
      "1996": 4940,
      "purch": 4941,
      "latter": 4942,
      "irish": 4943,
      "concerned": 4944,
      "choice": 4945,
      "shooting": 4946,
      "custom": 4947,
      "##arter": 4948,
      "decades": 4949,
      "computing": 4950,
      "patient": 4951,
      "takes": 4952,
      "korean": 4953,
      "respectively": 4954,
      "mobile": 4955,
      "nob": 4956,
      "##iat": 4957,
      "##cing": 4958,
      "##hen": 4959,
      "##da": 4960,
      "suffer": 4961,
      "relatively": 4962,
      "surface": 4963,
      "fighting": 4964,
      "gained": 4965,
      "expected": 4966,
      "effort": 4967,
      "director": 4968,
      "presented": 4969,
      "70": 4970,
      "dar": 4971,
      "##10": 4972,
      "##omorph": 4973,
      "goals": 4974,
      "studied": 4975,
      "doi": 4976,
      "bring": 4977,
      "profit": 4978,
      "clinical": 4979,
      "##ground": 4980,
      "##rel": 4981,
      "##abilities": 4982,
      "1947": 4983,
      "annual": 4984,
      "speed": 4985,
      "funding": 4986,
      "captured": 4987,
      "sab": 4988,
      "##60": 4989,
      "##ille": 4990,
      "staff": 4991,
      "seem": 4992,
      "random": 4993,
      "##stream": 4994,
      "brain": 4995,
      "reven": 4996,
      "leader": 4997,
      "profess": 4998,
      "epis": 4999,
      "penins": 5000,
      "diplom": 5001,
      "bacter": 5002,
      "happ": 5003,
      "scen": 5004,
      "margin": 5005,
      "appoin": 5006,
      "stress": 5007,
      "combined": 5008,
      "interval": 5009,
      "princip": 5010,
      "instruments": 5011,
      "resistance": 5012,
      "##vised": 5013,
      "##ij": 5014,
      "##40": 5015,
      "adj": 5016,
      "##ikh": 5017,
      "domestic": 5018,
      "achieved": 5019,
      "keep": 5020,
      "##bridge": 5021,
      "80": 5022,
      "ven": 5023,
      "##issance": 5024,
      "organizations": 5025,
      "concent": 5026,
      "widesp": 5027,
      "improve": 5028,
      "strategic": 5029,
      "external": 5030,
      "widespread": 5031,
      "mas": 5032,
      "##err": 5033,
      "##iforn": 5034,
      "behind": 5035,
      "californ": 5036,
      "volum": 5037,
      "reduce": 5038,
      "native": 5039,
      "yet": 5040,
      "##cement": 5041,
      "exerc": 5042,
      "composed": 5043,
      "coal": 5044,
      "armed": 5045,
      "allowing": 5046,
      "website": 5047,
      "theat": 5048,
      "##acters": 5049,
      "coord": 5050,
      "computers": 5051,
      "characters": 5052,
      "directed": 5053,
      "needed": 5054,
      "losses": 5055,
      "##era": 5056,
      "offensive": 5057,
      "socialist": 5058,
      "move": 5059,
      "authority": 5060,
      "normal": 5061,
      "fifth": 5062,
      "##ecraft": 5063,
      "spl": 5064,
      "cold": 5065,
      "coop": 5066,
      "feed": 5067,
      "1995": 5068,
      "powerful": 5069,
      "liberal": 5070,
      "accepted": 5071,
      "agricultural": 5072,
      "slow": 5073,
      "##sen": 5074,
      "stream": 5075,
      "##ocket": 5076,
      "district": 5077,
      "famous": 5078,
      "supre": 5079,
      "subset": 5080,
      "ottoman": 5081,
      "yankees": 5082,
      "##rary": 5083,
      "##etry": 5084,
      "enough": 5085,
      "frank": 5086,
      "agency": 5087,
      "weight": 5088,
      "1991": 5089,
      "advant": 5090,
      "significantly": 5091,
      "california": 5092,
      "inequ": 5093,
      "##ster": 5094,
      "##etary": 5095,
      "shap": 5096,
      "combat": 5097,
      "australian": 5098,
      "exclus": 5099,
      "##ham": 5100,
      "##ati": 5101,
      "emper": 5102,
      "road": 5103,
      "simply": 5104,
      "elected": 5105,
      "opposition": 5106,
      "career": 5107,
      "pse": 5108,
      "##side": 5109,
      "winter": 5110,
      "tattoo": 5111,
      "magazine": 5112,
      "ey": 5113,
      "here": 5114,
      "mess": 5115,
      "tool": 5116,
      "unique": 5117,
      "##ologists": 5118,
      "reflect": 5119,
      "astron": 5120,
      "molecular": 5121,
      "hop": 5122,
      "wil": 5123,
      "##ka": 5124,
      "manip": 5125,
      "derived": 5126,
      "committee": 5127,
      "pseud": 5128,
      "pure": 5129,
      "push": 5130,
      "##men": 5131,
      "subc": 5132,
      "generative": 5133,
      "finite": 5134,
      "strength": 5135,
      "1917": 5136,
      "factor": 5137,
      "austria": 5138,
      "limit": 5139,
      "winning": 5140,
      "cambridge": 5141,
      "alexand": 5142,
      "dominant": 5143,
      "purpose": 5144,
      "reinfor": 5145,
      "##70": 5146,
      "enh": 5147,
      "seg": 5148,
      "agent": 5149,
      "carried": 5150,
      "helped": 5151,
      "coverage": 5152,
      "hyper": 5153,
      "##80": 5154,
      "notation": 5155,
      "worldwide": 5156,
      "worked": 5157,
      "equations": 5158,
      "correct": 5159,
      "practical": 5160,
      "owned": 5161,
      "similarly": 5162,
      "expressed": 5163,
      "peter": 5164,
      "##eas": 5165,
      "##esth": 5166,
      "amb": 5167,
      "importance": 5168,
      "cele": 5169,
      "inspired": 5170,
      "surgery": 5171,
      "mc": 5172,
      "##arm": 5173,
      "##ste": 5174,
      "sty": 5175,
      "intended": 5176,
      "1994": 5177,
      "classes": 5178,
      "magn": 5179,
      "hawai": 5180,
      "cru": 5181,
      "pil": 5182,
      "##coin": 5183,
      "##anks": 5184,
      "proof": 5185,
      "spring": 5186,
      "requires": 5187,
      "influential": 5188,
      "educational": 5189,
      "delhi": 5190,
      "costs": 5191,
      "##ieval": 5192,
      "subsequently": 5193,
      "##iciency": 5194,
      "casualties": 5195,
      "paralle": 5196,
      "bad": 5197,
      "##con": 5198,
      "whe": 5199,
      "neu": 5200,
      "prepar": 5201,
      "difference": 5202,
      "planning": 5203,
      "recognized": 5204,
      "passed": 5205,
      "diseases": 5206,
      "nbc": 5207,
      "frequently": 5208,
      "selected": 5209,
      "35": 5210,
      "rail": 5211,
      "sector": 5212,
      "##aj": 5213,
      "##ilit": 5214,
      "##rick": 5215,
      "convers": 5216,
      "satis": 5217,
      "bmw": 5218,
      "spacecraft": 5219,
      "voc": 5220,
      "##iring": 5221,
      "##utes": 5222,
      "presence": 5223,
      "blue": 5224,
      "valley": 5225,
      "championships": 5226,
      "##icts": 5227,
      "##iff": 5228,
      "plans": 5229,
      "centre": 5230,
      "surround": 5231,
      "um": 5232,
      "tourn": 5233,
      "entered": 5234,
      "ultim": 5235,
      "bitcoin": 5236,
      "thousands": 5237,
      "fought": 5238,
      "##lass": 5239,
      "##can": 5240,
      "##inations": 5241,
      "stock": 5242,
      "sust": 5243,
      "placed": 5244,
      "institution": 5245,
      "statist": 5246,
      "behavi": 5247,
      "offered": 5248,
      "defeat": 5249,
      "responsible": 5250,
      "dur": 5251,
      "##15": 5252,
      "inj": 5253,
      "ans": 5254,
      "flu": 5255,
      "grew": 5256,
      "measures": 5257,
      "naval": 5258,
      "defeated": 5259,
      "prices": 5260,
      "18th": 5261,
      "respond": 5262,
      "astr": 5263,
      "olympic": 5264,
      "dutch": 5265,
      "fully": 5266,
      "cod": 5267,
      "ol": 5268,
      "##ned": 5269,
      "communist": 5270,
      "agreed": 5271,
      "conservation": 5272,
      "conducted": 5273,
      "freedom": 5274,
      "gro": 5275,
      "gir": 5276,
      "tv": 5277,
      "zero": 5278,
      "spok": 5279,
      "1990": 5280,
      "practition": 5281,
      "interview": 5282,
      "interactions": 5283,
      "subsequent": 5284,
      "45": 5285,
      "fit": 5286,
      "##bal": 5287,
      "violence": 5288,
      "susp": 5289,
      "dial": 5290,
      "stre": 5291,
      "spect": 5292,
      "elev": 5293,
      "archae": 5294,
      "returned": 5295,
      "disciplines": 5296,
      "awards": 5297,
      "born": 5298,
      "##rim": 5299,
      "##cial": 5300,
      "##wer": 5301,
      "##30": 5302,
      "repe": 5303,
      "1992": 5304,
      "efficient": 5305,
      "identified": 5306,
      "questions": 5307,
      "hilbert": 5308,
      "date": 5309,
      "jac": 5310,
      "##hu": 5311,
      "##ini": 5312,
      "##leck": 5313,
      "notably": 5314,
      "recomm": 5315,
      "transm": 5316,
      "follows": 5317,
      "issued": 5318,
      "canadian": 5319,
      "illust": 5320,
      "closely": 5321,
      "oxford": 5322,
      "cognitive": 5323,
      "bond": 5324,
      "sought": 5325,
      "asc": 5326,
      "closed": 5327,
      "providing": 5328,
      "##iang": 5329,
      "##ibly": 5330,
      "traditions": 5331,
      "##board": 5332,
      "statistics": 5333,
      "banking": 5334,
      "mountain": 5335,
      "diverse": 5336,
      "##ds": 5337,
      "##16": 5338,
      "score": 5339,
      "1993": 5340,
      "explan": 5341,
      "officially": 5342,
      "featured": 5343,
      "chemistry": 5344,
      "strugg": 5345,
      "thr": 5346,
      "beg": 5347,
      "places": 5348,
      "surr": 5349,
      "democracy": 5350,
      "weapons": 5351,
      "retrieved": 5352,
      "iv": 5353,
      "rates": 5354,
      "##iments": 5355,
      "##ube": 5356,
      "continue": 5357,
      "probability": 5358,
      "solution": 5359,
      "##win": 5360,
      "##umn": 5361,
      "arsen": 5362,
      "recently": 5363,
      "##ordan": 5364,
      "setting": 5365,
      "differences": 5366,
      "mainstream": 5367,
      "physician": 5368,
      "1930s": 5369,
      "ruled": 5370,
      "currently": 5371,
      "consumer": 5372,
      "substant": 5373,
      "synthetic": 5374,
      "400": 5375,
      "tor": 5376,
      "##ga": 5377,
      "orient": 5378,
      "overt": 5379,
      "quad": 5380,
      "discovery": 5381,
      "location": 5382,
      "ordered": 5383,
      "protection": 5384,
      "textstyle": 5385,
      "henry": 5386,
      "van": 5387,
      "##entions": 5388,
      "shared": 5389,
      "twent": 5390,
      "remaining": 5391,
      "memory": 5392,
      "empir": 5393,
      "reality": 5394,
      "affleck": 5395,
      "maps": 5396,
      "util": 5397,
      "explicit": 5398,
      "compr": 5399,
      "bron": 5400,
      "capac": 5401,
      "conclud": 5402,
      "protect": 5403,
      "raised": 5404,
      "painting": 5405,
      "rena": 5406,
      "turk": 5407,
      "##fect": 5408,
      "##kary": 5409,
      "##itative": 5410,
      "##econom": 5411,
      "stop": 5412,
      "regulation": 5413,
      "finance": 5414,
      "popularity": 5415,
      "videos": 5416,
      "declar": 5417,
      "determine": 5418,
      "attempted": 5419,
      "screen": 5420,
      "emperor": 5421,
      "hous": 5422,
      "love": 5423,
      "section": 5424,
      "toward": 5425,
      "shot": 5426,
      "intel": 5427,
      "equip": 5428,
      "discovered": 5429,
      "rig": 5430,
      "##osen": 5431,
      "shape": 5432,
      "revol": 5433,
      "civilians": 5434,
      "morph": 5435,
      "##archy": 5436,
      "acquired": 5437,
      "quickly": 5438,
      "styles": 5439,
      "90": 5440,
      "fasc": 5441,
      "##rical": 5442,
      "##ycl": 5443,
      "##lor": 5444,
      "##erated": 5445,
      "##use": 5446,
      "enem": 5447,
      "advert": 5448,
      "attract": 5449,
      "belg": 5450,
      "authors": 5451,
      "viewed": 5452,
      "##istered": 5453,
      "situation": 5454,
      "anthrop": 5455,
      "hat": 5456,
      "nine": 5457,
      "nike": 5458,
      "##tr": 5459,
      "##eles": 5460,
      "##amil": 5461,
      "chess": 5462,
      "disput": 5463,
      "agents": 5464,
      "spacex": 5465,
      "meant": 5466,
      "recording": 5467,
      "representation": 5468,
      "affect": 5469,
      "malays": 5470,
      "components": 5471,
      "vary": 5472,
      "##care": 5473,
      "##ett": 5474,
      "proced": 5475,
      "bias": 5476,
      "datas": 5477,
      "depending": 5478,
      "##plication": 5479,
      "relationships": 5480,
      "attempts": 5481,
      "regarding": 5482,
      "texts": 5483,
      "hospital": 5484,
      "georgia": 5485,
      "##he": 5486,
      "##xual": 5487,
      "##iles": 5488,
      "##ife": 5489,
      "pradesh": 5490,
      "selection": 5491,
      "185": 5492,
      "populations": 5493,
      "matric": 5494,
      "functional": 5495,
      "entry": 5496,
      "running": 5497,
      "agriculture": 5498,
      "aid": 5499,
      "fixed": 5500,
      "proved": 5501,
      "genre": 5502,
      "generate": 5503,
      "obt": 5504,
      "employed": 5505,
      "suggest": 5506,
      "philippines": 5507,
      "kil": 5508,
      "##atures": 5509,
      "##tery": 5510,
      "projects": 5511,
      "electric": 5512,
      "solutions": 5513,
      "civilian": 5514,
      "criticized": 5515,
      "destroyed": 5516,
      "joseph": 5517,
      "societies": 5518,
      "fest": 5519,
      "##ray": 5520,
      "##ging": 5521,
      "##iced": 5522,
      "##eces": 5523,
      "align": 5524,
      "spir": 5525,
      "planned": 5526,
      "critics": 5527,
      "volun": 5528,
      "debate": 5529,
      "reasoning": 5530,
      "##inet": 5531,
      "##ada": 5532,
      "chrom": 5533,
      "spat": 5534,
      "debr": 5535,
      "##ogen": 5536,
      "enab": 5537,
      "decline": 5538,
      "matches": 5539,
      "periods": 5540,
      "crime": 5541,
      "opened": 5542,
      "topological": 5543,
      "iii": 5544,
      "autonom": 5545,
      "improv": 5546,
      "teaching": 5547,
      "hungary": 5548,
      "ultimately": 5549,
      "##eters": 5550,
      "cloth": 5551,
      "consc": 5552,
      "symbols": 5553,
      "variables": 5554,
      "province": 5555,
      "families": 5556,
      "equipment": 5557,
      "mention": 5558,
      "##21": 5559,
      "##entral": 5560,
      "##ura": 5561,
      "annex": 5562,
      "topology": 5563,
      "1950s": 5564,
      "achieve": 5565,
      "purposes": 5566,
      "extrem": 5567,
      "framework": 5568,
      "debris": 5569,
      "cer": 5570,
      "ha": 5571,
      "net": 5572,
      "nfl": 5573,
      "##erson": 5574,
      "##tered": 5575,
      "neoc": 5576,
      "medieval": 5577,
      "serb": 5578,
      "developments": 5579,
      "extensive": 5580,
      "depict": 5581,
      "believe": 5582,
      "campus": 5583,
      "standards": 5584,
      "paint": 5585,
      "suggested": 5586,
      "parallel": 5587,
      "ca": 5588,
      "perman": 5589,
      "##ses": 5590,
      "fort": 5591,
      "orb": 5592,
      "##ody": 5593,
      "decided": 5594,
      "##rupt": 5595,
      "appropr": 5596,
      "crimes": 5597,
      "causes": 5598,
      "moon": 5599,
      "executive": 5600,
      "unlike": 5601,
      "sides": 5602,
      "anat": 5603,
      "##opol": 5604,
      "edition": 5605,
      "needs": 5606,
      "cycle": 5607,
      "paid": 5608,
      "behavioral": 5609,
      "piece": 5610,
      "renaissance": 5611,
      "bost": 5612,
      "core": 5613,
      "gives": 5614,
      "von": 5615,
      "vote": 5616,
      "##uk": 5617,
      "##nel": 5618,
      "##iately": 5619,
      "##omy": 5620,
      "alle": 5621,
      "plate": 5622,
      "ecological": 5623,
      "involving": 5624,
      "existence": 5625,
      "matrices": 5626,
      "artistic": 5627,
      "positions": 5628,
      "belong": 5629,
      "topics": 5630,
      "satellite": 5631,
      "statistical": 5632,
      "fash": 5633,
      "hot": 5634,
      "wound": 5635,
      "stone": 5636,
      "reve": 5637,
      "train": 5638,
      "##anta": 5639,
      "partial": 5640,
      "parad": 5641,
      "historian": 5642,
      "identify": 5643,
      "combination": 5644,
      "determined": 5645,
      "condition": 5646,
      "strategy": 5647,
      "hours": 5648,
      "vac": 5649,
      "##hm": 5650,
      "##wan": 5651,
      "org": 5652,
      "unp": 5653,
      "trial": 5654,
      "formula": 5655,
      "decentral": 5656,
      "root": 5657,
      "governor": 5658,
      "carry": 5659,
      "complexity": 5660,
      "characteristics": 5661,
      "motion": 5662,
      "contributed": 5663,
      "immig": 5664,
      "cry": 5665,
      "wild": 5666,
      "firm": 5667,
      "formation": 5668,
      "subjects": 5669,
      "differential": 5670,
      "leadership": 5671,
      "cultures": 5672,
      "initi": 5673,
      "restrict": 5674,
      "bol": 5675,
      "gain": 5676,
      "hims": 5677,
      "merg": 5678,
      "##unk": 5679,
      "infr": 5680,
      "smart": 5681,
      "describes": 5682,
      "bodies": 5683,
      "##ompan": 5684,
      "essential": 5685,
      "himself": 5686,
      "dance": 5687,
      "father": 5688,
      "##oes": 5689,
      "##fare": 5690,
      "guard": 5691,
      "showed": 5692,
      "greatest": 5693,
      "colonies": 5694,
      "authorities": 5695,
      "regarded": 5696,
      "figure": 5697,
      "fine": 5698,
      "os": 5699,
      "inher": 5700,
      "##aya": 5701,
      "disp": 5702,
      "serve": 5703,
      "feel": 5704,
      "actual": 5705,
      "edit": 5706,
      "dominated": 5707,
      "categories": 5708,
      "hitler": 5709,
      "celebr": 5710,
      "arsenal": 5711,
      "bh": 5712,
      "gall": 5713,
      "tree": 5714,
      "##eck": 5715,
      "indo": 5716,
      "serious": 5717,
      "accompan": 5718,
      "completed": 5719,
      "greece": 5720,
      "explain": 5721,
      "divisions": 5722,
      "temple": 5723,
      "receive": 5724,
      "massac": 5725,
      "occurs": 5726,
      "egyptian": 5727,
      "split": 5728,
      "##rd": 5729,
      "##iable": 5730,
      "forens": 5731,
      "##ithm": 5732,
      "##ota": 5733,
      "newsp": 5734,
      "attribut": 5735,
      "skin": 5736,
      "alongside": 5737,
      "arrang": 5738,
      "technique": 5739,
      "reduced": 5740,
      "turned": 5741,
      "fashion": 5742,
      "newspap": 5743,
      "bor": 5744,
      "gas": 5745,
      "rat": 5746,
      "reasons": 5747,
      "finally": 5748,
      "integrated": 5749,
      "variable": 5750,
      "evolutionary": 5751,
      "infinite": 5752,
      "louis": 5753,
      "catholic": 5754,
      "peninsula": 5755,
      "spatial": 5756,
      "wa": 5757,
      "##rate": 5758,
      "##cal": 5759,
      "##come": 5760,
      "##ald": 5761,
      "##anches": 5762,
      "##pped": 5763,
      "upd": 5764,
      "crim": 5765,
      "christians": 5766,
      "##anujan": 5767,
      "heart": 5768,
      "ramanujan": 5769,
      "survey": 5770,
      "satisf": 5771,
      "capacity": 5772,
      "neoclass": 5773,
      "rough": 5774,
      "##bc": 5775,
      "imag": 5776,
      "##gression": 5777,
      "##ographic": 5778,
      "mountains": 5779,
      "dimensional": 5780,
      "birth": 5781,
      "supreme": 5782,
      "fear": 5783,
      "##my": 5784,
      "washing": 5785,
      "exact": 5786,
      "##aph": 5787,
      "atm": 5788,
      "cancer": 5789,
      "constitut": 5790,
      "##ructure": 5791,
      "1969": 5792,
      "deliv": 5793,
      "participation": 5794,
      "merch": 5795,
      "pieces": 5796,
      "##aught": 5797,
      "stalin": 5798,
      "##rics": 5799,
      "##ystem": 5800,
      "##ales": 5801,
      "##agues": 5802,
      "evolved": 5803,
      "maintain": 5804,
      "promote": 5805,
      "reference": 5806,
      "radical": 5807,
      "missions": 5808,
      "aristot": 5809,
      "cab": 5810,
      "dro": 5811,
      "##ris": 5812,
      "stim": 5813,
      "ones": 5814,
      "##ortion": 5815,
      "##osexual": 5816,
      "espn": 5817,
      "characterized": 5818,
      "benefits": 5819,
      "favor": 5820,
      "pack": 5821,
      "vast": 5822,
      "##wood": 5823,
      "pros": 5824,
      "##agon": 5825,
      "##anda": 5826,
      "tra": 5827,
      "marsh": 5828,
      "relation": 5829,
      "explo": 5830,
      "##ontinent": 5831,
      "##ployment": 5832,
      "inside": 5833,
      "negot": 5834,
      "renew": 5835,
      "perspective": 5836,
      "advantage": 5837,
      "2nd": 5838,
      "##roid": 5839,
      "##acing": 5840,
      "isol": 5841,
      "usage": 5842,
      "indigen": 5843,
      "install": 5844,
      "classif": 5845,
      "17th": 5846,
      "camps": 5847,
      "feminist": 5848,
      "voice": 5849,
      "aim": 5850,
      "mother": 5851,
      "ped": 5852,
      "rif": 5853,
      "sikh": 5854,
      "##atically": 5855,
      "##akh": 5856,
      "##illed": 5857,
      "define": 5858,
      "establishment": 5859,
      "criticism": 5860,
      "double": 5861,
      "indigenous": 5862,
      "aer": 5863,
      "aesth": 5864,
      "bang": 5865,
      "##fall": 5866,
      "##be": 5867,
      "##bi": 5868,
      "##ogue": 5869,
      "indu": 5870,
      "polyt": 5871,
      "decor": 5872,
      "operating": 5873,
      "listed": 5874,
      "virtual": 5875,
      "##stein": 5876,
      "neoclassical": 5877,
      "bot": 5878,
      "giving": 5879,
      "iron": 5880,
      "jordan": 5881,
      "##iary": 5882,
      "##ita": 5883,
      "stars": 5884,
      "index": 5885,
      "minutes": 5886,
      "buildings": 5887,
      "republican": 5888,
      "covered": 5889,
      "academy": 5890,
      "##cules": 5891,
      "commander": 5892,
      "ranked": 5893,
      "invaded": 5894,
      "cdot": 5895,
      "##rology": 5896,
      "az": 5897,
      "dail": 5898,
      "ga": 5899,
      "welf": 5900,
      "##ione": 5901,
      "chile": 5902,
      "unif": 5903,
      "going": 5904,
      "1975": 5905,
      "descript": 5906,
      "protest": 5907,
      "producing": 5908,
      "failure": 5909,
      "intellect": 5910,
      "malaysia": 5911,
      "ft": 5912,
      "##inant": 5913,
      "chap": 5914,
      "park": 5915,
      "brand": 5916,
      "equality": 5917,
      "1980": 5918,
      "direction": 5919,
      "buddh": 5920,
      "revenue": 5921,
      "washington": 5922,
      "welfare": 5923,
      "ring": 5924,
      "##ship": 5925,
      "##ba": 5926,
      "##65": 5927,
      "##90": 5928,
      "##esh": 5929,
      "inject": 5930,
      "subsp": 5931,
      "regul": 5932,
      "expect": 5933,
      "risks": 5934,
      "roles": 5935,
      "34": 5936,
      "las": 5937,
      "ta": 5938,
      "##eed": 5939,
      "##zant": 5940,
      "##aled": 5941,
      "##itual": 5942,
      "##iled": 5943,
      "stan": 5944,
      "trump": 5945,
      "ago": 5946,
      "branches": 5947,
      "mathematicians": 5948,
      "austrian": 5949,
      "propos": 5950,
      "oldest": 5951,
      "volume": 5952,
      "autonomous": 5953,
      "sites": 5954,
      "##itarian": 5955,
      "##urance": 5956,
      "composition": 5957,
      "sched": 5958,
      "complement": 5959,
      "analyt": 5960,
      "##ylon": 5961,
      "hybrid": 5962,
      "olympics": 5963,
      "think": 5964,
      "professor": 5965,
      "polytechn": 5966,
      "dedic": 5967,
      "sq": 5968,
      "##11": 5969,
      "##ala": 5970,
      "why": 5971,
      "byzant": 5972,
      "publish": 5973,
      "simpl": 5974,
      "elim": 5975,
      "argue": 5976,
      "improved": 5977,
      "##ceeded": 5978,
      "shift": 5979,
      "atmosph": 5980,
      "zeal": 5981,
      "##west": 5982,
      "##25": 5983,
      "##any": 5984,
      "chic": 5985,
      "notion": 5986,
      "columb": 5987,
      "regime": 5988,
      "184": 5989,
      "1948": 5990,
      "brief": 5991,
      "granted": 5992,
      "carbon": 5993,
      "industries": 5994,
      "ensure": 5995,
      "embedd": 5996,
      "letter": 5997,
      "38": 5998,
      "600": 5999,
      "cin": 6000,
      "##uan": 6001,
      "##vin": 6002,
      "##zz": 6003,
      "##mer": 6004,
      "##mark": 6005,
      "unkn": 6006,
      "neur": 6007,
      "decre": 6008,
      "decade": 6009,
      "accounts": 6010,
      "metal": 6011,
      "valid": 6012,
      "organism": 6013,
      "trading": 6014,
      "plane": 6015,
      "views": 6016,
      "mun": 6017,
      "ray": 6018,
      "beat": 6019,
      "##otyp": 6020,
      "##aint": 6021,
      "##ocks": 6022,
      "actually": 6023,
      "healthcare": 6024,
      "encycl": 6025,
      "massive": 6026,
      "dan": 6027,
      "dra": 6028,
      "##sr": 6029,
      "##edy": 6030,
      "spons": 6031,
      "worst": 6032,
      "gene": 6033,
      "roots": 6034,
      "capable": 6035,
      "classic": 6036,
      "quarter": 6037,
      "discrete": 6038,
      "commonwe": 6039,
      "something": 6040,
      "connect": 6041,
      "gradually": 6042,
      "robot": 6043,
      "heavily": 6044,
      "learned": 6045,
      "##graduate": 6046,
      "assembly": 6047,
      "encyclop": 6048,
      "commonwealth": 6049,
      "##oral": 6050,
      "##uman": 6051,
      "trig": 6052,
      "compound": 6053,
      "##irect": 6054,
      "apply": 6055,
      "##awa": 6056,
      "1984": 6057,
      "skills": 6058,
      "device": 6059,
      "additionally": 6060,
      "objective": 6061,
      "semi": 6062,
      "removed": 6063,
      "completely": 6064,
      "zealand": 6065,
      "##dp": 6066,
      "##itt": 6067,
      "##idden": 6068,
      "whom": 6069,
      "alone": 6070,
      "depr": 6071,
      "containing": 6072,
      "transition": 6073,
      "efficiency": 6074,
      "exploration": 6075,
      "geographical": 6076,
      "officers": 6077,
      "library": 6078,
      "principle": 6079,
      "albums": 6080,
      "capture": 6081,
      "doctors": 6082,
      "entirely": 6083,
      "experimental": 6084,
      "penn": 6085,
      "##nam": 6086,
      "che": 6087,
      "perce": 6088,
      "max": 6089,
      "180": 6090,
      "advance": 6091,
      "damage": 6092,
      "fast": 6093,
      "##val": 6094,
      "##greg": 6095,
      "##osystem": 6096,
      "perfect": 6097,
      "advances": 6098,
      "effectively": 6099,
      "entertain": 6100,
      "homosexual": 6101,
      "articles": 6102,
      "conventional": 6103,
      "immediately": 6104,
      "principal": 6105,
      "infrast": 6106,
      "daily": 6107,
      "mixed": 6108,
      "vision": 6109,
      "##uel": 6110,
      "##eline": 6111,
      "chron": 6112,
      "ships": 6113,
      "manif": 6114,
      "boy": 6115,
      "##ifications": 6116,
      "classified": 6117,
      "discrim": 6118,
      "1989": 6119,
      "expert": 6120,
      "solve": 6121,
      "choose": 6122,
      "missing": 6123,
      "golden": 6124,
      "chords": 6125,
      "provinces": 6126,
      "collaboration": 6127,
      "babylon": 6128,
      "experienced": 6129,
      "practitioners": 6130,
      "unknown": 6131,
      "pu": 6132,
      "sar": 6133,
      "##zil": 6134,
      "##14": 6135,
      "##elor": 6136,
      "##una": 6137,
      "##ultane": 6138,
      "nationalist": 6139,
      "simultane": 6140,
      "southeast": 6141,
      "ownership": 6142,
      "courses": 6143,
      "sales": 6144,
      "atlantic": 6145,
      "lived": 6146,
      "vectors": 6147,
      "##tic": 6148,
      "##⣿⣿": 6149,
      "##aka": 6150,
      "presid": 6151,
      "creative": 6152,
      "drive": 6153,
      "else": 6154,
      "16th": 6155,
      "successfully": 6156,
      "marginal": 6157,
      "forensic": 6158,
      "cub": 6159,
      "jacks": 6160,
      "rural": 6161,
      "##ios": 6162,
      "##oon": 6163,
      "deco": 6164,
      "appar": 6165,
      "acts": 6166,
      "peak": 6167,
      "movie": 6168,
      "natu": 6169,
      "1920s": 6170,
      "facilit": 6171,
      "benefit": 6172,
      "senior": 6173,
      "premier": 6174,
      "extreme": 6175,
      "sufficient": 6176,
      "inequality": 6177,
      "jackson": 6178,
      "los": 6179,
      "lingu": 6180,
      "nh": 6181,
      "nam": 6182,
      "pul": 6183,
      "##kin": 6184,
      "suc": 6185,
      "##odox": 6186,
      "##udes": 6187,
      "ship": 6188,
      "##oint": 6189,
      "1981": 6190,
      "1979": 6191,
      "##ancing": 6192,
      "titles": 6193,
      "consumption": 6194,
      "interaction": 6195,
      "emphasis": 6196,
      "utility": 6197,
      "36": 6198,
      "43": 6199,
      "75": 6200,
      "gard": 6201,
      "mir": 6202,
      "tai": 6203,
      "##lers": 6204,
      "##df": 6205,
      "##etric": 6206,
      "##ulf": 6207,
      "trust": 6208,
      "script": 6209,
      "contained": 6210,
      "warfare": 6211,
      "##ropath": 6212,
      "whereas": 6213,
      "1986": 6214,
      "1968": 6215,
      "officer": 6216,
      "affairs": 6217,
      "denotes": 6218,
      "calculus": 6219,
      "residency": 6220,
      "da": 6221,
      "sav": 6222,
      "##rons": 6223,
      "##uge": 6224,
      "##more": 6225,
      "##ilib": 6226,
      "forest": 6227,
      "peoples": 6228,
      "extra": 6229,
      "driven": 6230,
      "experiments": 6231,
      "versions": 6232,
      "observed": 6233,
      "macro": 6234,
      "challenges": 6235,
      "cz": 6236,
      "rely": 6237,
      "##ny": 6238,
      "##99": 6239,
      "##ano": 6240,
      "ash": 6241,
      "183": 6242,
      "1967": 6243,
      "solar": 6244,
      "targets": 6245,
      "task": 6246,
      "brazil": 6247,
      "covers": 6248,
      "suffered": 6249,
      "aristotle": 6250,
      "hun": 6251,
      "pin": 6252,
      "pione": 6253,
      "##lusion": 6254,
      "stories": 6255,
      "alph": 6256,
      "##ghal": 6257,
      "clim": 6258,
      "1919": 6259,
      "competitive": 6260,
      "graduate": 6261,
      "integration": 6262,
      "revolutionary": 6263,
      "manufacturing": 6264,
      "dedicated": 6265,
      "naturopath": 6266,
      "au": 6267,
      "hill": 6268,
      "pt": 6269,
      "##iar": 6270,
      "##chan": 6271,
      "comics": 6272,
      "chart": 6273,
      "##iant": 6274,
      "ecosystem": 6275,
      "relative": 6276,
      "flor": 6277,
      "1985": 6278,
      "1972": 6279,
      "greatly": 6280,
      "encomp": 6281,
      "translation": 6282,
      "implemented": 6283,
      "phenomena": 6284,
      "boston": 6285,
      "encompass": 6286,
      "rot": 6287,
      "vent": 6288,
      "wanted": 6289,
      "##reh": 6290,
      "marine": 6291,
      "libert": 6292,
      "intervals": 6293,
      "enterpr": 6294,
      "employment": 6295,
      "silver": 6296,
      "reaction": 6297,
      "appointed": 6298,
      "infrastructure": 6299,
      "64": 6300,
      "ho": 6301,
      "ic": 6302,
      "##erland": 6303,
      "##edia": 6304,
      "##igation": 6305,
      "withd": 6306,
      "1982": 6307,
      "psychology": 6308,
      "bacteria": 6309,
      "wheel": 6310,
      "empirical": 6311,
      "37": 6312,
      "faced": 6313,
      "##eff": 6314,
      "##min": 6315,
      "chosen": 6316,
      "neo": 6317,
      "##ovak": 6318,
      "sole": 6319,
      "reports": 6320,
      "opening": 6321,
      "rhyth": 6322,
      "licens": 6323,
      "tissue": 6324,
      "distributed": 6325,
      "##oslav": 6326,
      "intellectual": 6327,
      "lake": 6328,
      "##yan": 6329,
      "##icing": 6330,
      "asked": 6331,
      "scene": 6332,
      "otherwise": 6333,
      "mathrm": 6334,
      "datab": 6335,
      "equilib": 6336,
      "##ockey": 6337,
      "prompt": 6338,
      "##auts": 6339,
      "kingdoms": 6340,
      "focuses": 6341,
      "moral": 6342,
      "manager": 6343,
      "managed": 6344,
      "hyd": 6345,
      "israeli": 6346,
      "becomes": 6347,
      "berlin": 6348,
      "luc": 6349,
      "rivers": 6350,
      "##icial": 6351,
      "##emic": 6352,
      "##opher": 6353,
      "arithm": 6354,
      "seats": 6355,
      "medal": 6356,
      "biom": 6357,
      "carl": 6358,
      "1973": 6359,
      "occasion": 6360,
      "presidential": 6361,
      "justice": 6362,
      "definitions": 6363,
      "seventh": 6364,
      "##where": 6365,
      "legislative": 6366,
      "monitoring": 6367,
      "repeated": 6368,
      "permanent": 6369,
      "fert": 6370,
      "mos": 6371,
      "nig": 6372,
      "nether": 6373,
      "selling": 6374,
      "inner": 6375,
      "aligned": 6376,
      "clust": 6377,
      "medium": 6378,
      "wee": 6379,
      "county": 6380,
      "moving": 6381,
      "advent": 6382,
      "calc": 6383,
      "doub": 6384,
      "bachelor": 6385,
      "tournament": 6386,
      "bronze": 6387,
      "entertainment": 6388,
      "nic": 6389,
      "rocket": 6390,
      "vice": 6391,
      "°c": 6392,
      "##iro": 6393,
      "##here": 6394,
      "##gers": 6395,
      "##bed": 6396,
      "inhab": 6397,
      "##rium": 6398,
      "1987": 6399,
      "1970": 6400,
      "designs": 6401,
      "lands": 6402,
      "swed": 6403,
      "possess": 6404,
      "balance": 6405,
      "suggests": 6406,
      "ign": 6407,
      "mcc": 6408,
      "nag": 6409,
      "##writ": 6410,
      "contact": 6411,
      "alloc": 6412,
      "interests": 6413,
      "systematic": 6414,
      "mont": 6415,
      "1988": 6416,
      "refuge": 6417,
      "causing": 6418,
      "victor": 6419,
      "consisting": 6420,
      "conflicts": 6421,
      "reforms": 6422,
      "distinguish": 6423,
      "aimed": 6424,
      "na": 6425,
      "sle": 6426,
      "inputs": 6427,
      "##emble": 6428,
      "comes": 6429,
      "newly": 6430,
      "format": 6431,
      "ages": 6432,
      "capabilities": 6433,
      "##azz": 6434,
      "secondary": 6435,
      "##ucing": 6436,
      "1920": 6437,
      "testing": 6438,
      "traditionally": 6439,
      "secretary": 6440,
      "roughly": 6441,
      "mom": 6442,
      "ple": 6443,
      "##uing": 6444,
      "##eness": 6445,
      "##enge": 6446,
      "##orter": 6447,
      "prize": 6448,
      "resource": 6449,
      "promotion": 6450,
      "geographic": 6451,
      "specialty": 6452,
      "speaking": 6453,
      "coastal": 6454,
      "layers": 6455,
      "hardware": 6456,
      "analyz": 6457,
      "saying": 6458,
      "rapidly": 6459,
      "alexander": 6460,
      "appropriate": 6461,
      "fish": 6462,
      "##rich": 6463,
      "##ped": 6464,
      "exists": 6465,
      "arc": 6466,
      "##oca": 6467,
      "tried": 6468,
      "inters": 6469,
      "formally": 6470,
      "foundations": 6471,
      "pows": 6472,
      "dress": 6473,
      "publication": 6474,
      "broke": 6475,
      "solid": 6476,
      "contributions": 6477,
      "##going": 6478,
      "invaders": 6479,
      "episode": 6480,
      "enemy": 6481,
      "chicago": 6482,
      "cro": 6483,
      "dang": 6484,
      "felt": 6485,
      "kr": 6486,
      "li": 6487,
      "lse": 6488,
      "sir": 6489,
      "##gi": 6490,
      "##orth": 6491,
      "unem": 6492,
      "supporting": 6493,
      "delta": 6494,
      "appearance": 6495,
      "attacked": 6496,
      "estimates": 6497,
      "conservative": 6498,
      "molecules": 6499,
      "temperature": 6500,
      "friend": 6501,
      "census": 6502,
      "hockey": 6503,
      "pick": 6504,
      "want": 6505,
      "##rey": 6506,
      "##ette": 6507,
      "##urr": 6508,
      "stor": 6509,
      "shut": 6510,
      "centers": 6511,
      "subsc": 6512,
      "infl": 6513,
      "##ancy": 6514,
      "iran": 6515,
      "destruction": 6516,
      "audio": 6517,
      "catal": 6518,
      "component": 6519,
      "opportunity": 6520,
      "jobs": 6521,
      "organs": 6522,
      "jack": 6523,
      "rid": 6524,
      "##rations": 6525,
      "strict": 6526,
      "##isted": 6527,
      "##oder": 6528,
      "preced": 6529,
      "1983": 6530,
      "persian": 6531,
      "opin": 6532,
      "relevant": 6533,
      "landsc": 6534,
      "linked": 6535,
      "ethical": 6536,
      "palestin": 6537,
      "exception": 6538,
      "parameters": 6539,
      "44": 6540,
      "800": 6541,
      "fat": 6542,
      "##12": 6543,
      "##83": 6544,
      "##esian": 6545,
      "##omic": 6546,
      "##opl": 6547,
      "mars": 6548,
      "grant": 6549,
      "headqu": 6550,
      "federation": 6551,
      "rejected": 6552,
      "weeks": 6553,
      "gang": 6554,
      "lord": 6555,
      "nut": 6556,
      "rose": 6557,
      "°f": 6558,
      "##uls": 6559,
      "##ensions": 6560,
      "agi": 6561,
      "apart": 6562,
      "1965": 6563,
      "affected": 6564,
      "21st": 6565,
      "translated": 6566,
      "borders": 6567,
      "jacob": 6568,
      "netherlands": 6569,
      "##itar": 6570,
      "##ules": 6571,
      "abd": 6572,
      "monetary": 6573,
      "1962": 6574,
      "corps": 6575,
      "refused": 6576,
      "liber": 6577,
      "achiev": 6578,
      "adopt": 6579,
      "investigation": 6580,
      "subcontinent": 6581,
      "kilomet": 6582,
      "byzantine": 6583,
      "equilibrium": 6584,
      "ba": 6585,
      "heter": 6586,
      "ice": 6587,
      "rome": 6588,
      "rival": 6589,
      "tests": 6590,
      "vital": 6591,
      "##za": 6592,
      "##ems": 6593,
      "##ulum": 6594,
      "indians": 6595,
      "compreh": 6596,
      "instruct": 6597,
      "1946": 6598,
      "ending": 6599,
      "description": 6600,
      "1916": 6601,
      "##inson": 6602,
      "confir": 6603,
      "##iveness": 6604,
      "background": 6605,
      "##apping": 6606,
      "channels": 6607,
      "audience": 6608,
      "martin": 6609,
      "incorporated": 6610,
      "sustain": 6611,
      "obtained": 6612,
      "festival": 6613,
      "czech": 6614,
      "hier": 6615,
      "lot": 6616,
      "lie": 6617,
      "##isters": 6618,
      "offers": 6619,
      "brid": 6620,
      "terror": 6621,
      "##ipped": 6622,
      "temperatures": 6623,
      "accuracy": 6624,
      "innovation": 6625,
      "brown": 6626,
      "##ctive": 6627,
      "doing": 6628,
      "continues": 6629,
      "purs": 6630,
      "personnel": 6631,
      "existed": 6632,
      "holds": 6633,
      "challenge": 6634,
      "conquered": 6635,
      "coup": 6636,
      "circumc": 6637,
      "candidate": 6638,
      "straight": 6639,
      "taiwan": 6640,
      "pitch": 6641,
      "##nn": 6642,
      "##col": 6643,
      "##burg": 6644,
      "##ida": 6645,
      "enj": 6646,
      "clark": 6647,
      "commod": 6648,
      "consecut": 6649,
      "1966": 6650,
      "guid": 6651,
      "geographers": 6652,
      "understood": 6653,
      "denoted": 6654,
      "romania": 6655,
      "officials": 6656,
      "illness": 6657,
      "##iscipl": 6658,
      "distinction": 6659,
      "faith": 6660,
      "maintained": 6661,
      "pseudosc": 6662,
      "concluded": 6663,
      "nan": 6664,
      "##eg": 6665,
      "##kh": 6666,
      "##95": 6667,
      "##itals": 6668,
      "##ston": 6669,
      "##oud": 6670,
      "##vereign": 6671,
      "chair": 6672,
      "worn": 6673,
      "sovereign": 6674,
      "1949": 6675,
      "eukary": 6676,
      "1971": 6677,
      "1915": 6678,
      "150": 6679,
      "##ennis": 6680,
      "household": 6681,
      "communications": 6682,
      "optimization": 6683,
      "budget": 6684,
      "exclud": 6685,
      "fuel": 6686,
      "protein": 6687,
      "fleet": 6688,
      "axiom": 6689,
      "false": 6690,
      "bass": 6691,
      "banned": 6692,
      "bbc": 6693,
      "matt": 6694,
      "zone": 6695,
      "coming": 6696,
      "##abad": 6697,
      "##agan": 6698,
      "##iber": 6699,
      "heat": 6700,
      "##iph": 6701,
      "muscle": 6702,
      "worlds": 6703,
      "equation": 6704,
      "typical": 6705,
      "origins": 6706,
      "historically": 6707,
      "switz": 6708,
      "intervention": 6709,
      "debut": 6710,
      "christianity": 6711,
      "2000s": 6712,
      "hypothesis": 6713,
      "gand": 6714,
      "jur": 6715,
      "sult": 6716,
      "tamil": 6717,
      "##onents": 6718,
      "compl": 6719,
      "arms": 6720,
      "##andon": 6721,
      "unf": 6722,
      "##antir": 6723,
      "musicians": 6724,
      "extent": 6725,
      "1974": 6726,
      "membr": 6727,
      "liberia": 6728,
      "easily": 6729,
      "examination": 6730,
      "palantir": 6731,
      "clean": 6732,
      "anglo": 6733,
      "diversity": 6734,
      "astronauts": 6735,
      "tc": 6736,
      "##bor": 6737,
      "##ko": 6738,
      "##onym": 6739,
      "seasons": 6740,
      "leaving": 6741,
      "manner": 6742,
      "phase": 6743,
      "outer": 6744,
      "actors": 6745,
      "nationalism": 6746,
      "cars": 6747,
      "ideal": 6748,
      "statement": 6749,
      "ethics": 6750,
      "runs": 6751,
      "facult": 6752,
      "administrative": 6753,
      "laboratory": 6754,
      "sabha": 6755,
      "crown": 6756,
      "fab": 6757,
      "mr": 6758,
      "##98": 6759,
      "##onia": 6760,
      "##arial": 6761,
      "tol": 6762,
      "store": 6763,
      "prohib": 6764,
      "sud": 6765,
      "abandon": 6766,
      "aggreg": 6767,
      "schem": 6768,
      "ancest": 6769,
      "older": 6770,
      "motiv": 6771,
      "deriv": 6772,
      "symbolic": 6773,
      "scholar": 6774,
      "mechanism": 6775,
      "mobil": 6776,
      "meeting": 6777,
      "unemployment": 6778,
      "switzerland": 6779,
      "1st": 6780,
      "3rd": 6781,
      "55": 6782,
      "forward": 6783,
      "economies": 6784,
      "desert": 6785,
      "mathcal": 6786,
      "actor": 6787,
      "exped": 6788,
      "humanity": 6789,
      "armies": 6790,
      "1978": 6791,
      "guide": 6792,
      "argues": 6793,
      "farm": 6794,
      "changing": 6795,
      "quantitative": 6796,
      "angeles": 6797,
      "corresponding": 6798,
      "friends": 6799,
      "axioms": 6800,
      "instrumental": 6801,
      "sculpture": 6802,
      "volunte": 6803,
      "om": 6804,
      "pear": 6805,
      "veter": 6806,
      "yug": 6807,
      "##nat": 6808,
      "##75": 6809,
      "##itting": 6810,
      "##osom": 6811,
      "submar": 6812,
      "publishing": 6813,
      "founder": 6814,
      "dram": 6815,
      "northeast": 6816,
      "protoc": 6817,
      "independently": 6818,
      "possibly": 6819,
      "sixth": 6820,
      "multiplication": 6821,
      "thinking": 6822,
      "composers": 6823,
      "interpretation": 6824,
      "behaviour": 6825,
      "street": 6826,
      "gpt": 6827,
      "kern": 6828,
      "les": 6829,
      "lith": 6830,
      "##lus": 6831,
      "##ias": 6832,
      "##24": 6833,
      "##93": 6834,
      "truth": 6835,
      "dism": 6836,
      "lee": 6837,
      "##endered": 6838,
      "modeling": 6839,
      "orders": 6840,
      "symm": 6841,
      "ceo": 6842,
      "constitutional": 6843,
      "bachchan": 6844,
      "settlement": 6845,
      "cosm": 6846,
      "adjust": 6847,
      "ptole": 6848,
      "bat": 6849,
      "cbs": 6850,
      "gdp": 6851,
      "lives": 6852,
      "mist": 6853,
      "pand": 6854,
      "sand": 6855,
      "leagues": 6856,
      "metab": 6857,
      "##rier": 6858,
      "1964": 6859,
      "glass": 6860,
      "propag": 6861,
      "seek": 6862,
      "logical": 6863,
      "facilities": 6864,
      "potentially": 6865,
      "motor": 6866,
      "subsid": 6867,
      "mechanisms": 6868,
      "narrow": 6869,
      "minority": 6870,
      "algebraic": 6871,
      "substantial": 6872,
      "consecutive": 6873,
      "yugoslav": 6874,
      "4th": 6875,
      "jon": 6876,
      "jim": 6877,
      "jun": 6878,
      "kash": 6879,
      "mental": 6880,
      "##pa": 6881,
      "android": 6882,
      "touch": 6883,
      "beaut": 6884,
      "pron": 6885,
      "leon": 6886,
      "monso": 6887,
      "strik": 6888,
      "singles": 6889,
      "detect": 6890,
      "elastic": 6891,
      "1950": 6892,
      "predom": 6893,
      "connection": 6894,
      "gradient": 6895,
      "treated": 6896,
      "conquest": 6897,
      "sultan": 6898,
      "78": 6899,
      "aims": 6900,
      "ger": 6901,
      "nap": 6902,
      "ot": 6903,
      "tact": 6904,
      "##rest": 6905,
      "##ept": 6906,
      "albert": 6907,
      "##mented": 6908,
      "structural": 6909,
      "seeking": 6910,
      "supervised": 6911,
      "restric": 6912,
      "reduction": 6913,
      "rebell": 6914,
      "platforms": 6915,
      "coalition": 6916,
      "arithmetic": 6917,
      "enjoy": 6918,
      "48": 6919,
      "hack": 6920,
      "mary": 6921,
      "mong": 6922,
      "rog": 6923,
      "##ault": 6924,
      "##ners": 6925,
      "##mann": 6926,
      "##icip": 6927,
      "tok": 6928,
      "phr": 6929,
      "phyl": 6930,
      "inverse": 6931,
      "highlight": 6932,
      "simon": 6933,
      "founding": 6934,
      "1976": 6935,
      "studying": 6936,
      "planet": 6937,
      "wayback": 6938,
      "battles": 6939,
      "trees": 6940,
      "documents": 6941,
      "ranges": 6942,
      "credit": 6943,
      "jean": 6944,
      "exercise": 6945,
      "reinforcement": 6946,
      "spoken": 6947,
      "uniform": 6948,
      "perceived": 6949,
      "doll": 6950,
      "sed": 6951,
      "sac": 6952,
      "##hy": 6953,
      "##13": 6954,
      "stad": 6955,
      "alc": 6956,
      "sund": 6957,
      "orch": 6958,
      "##agu": 6959,
      "##soft": 6960,
      "ministry": 6961,
      "plays": 6962,
      "playoff": 6963,
      "flo": 6964,
      "patri": 6965,
      "labels": 6966,
      "capitalism": 6967,
      "mexican": 6968,
      "ranging": 6969,
      "observation": 6970,
      "racing": 6971,
      "athletes": 6972,
      "neuro": 6973,
      "drawn": 6974,
      "burn": 6975,
      "binary": 6976,
      "jan": 6977,
      "md": 6978,
      "merc": 6979,
      "sell": 6980,
      "##92": 6981,
      "thir": 6982,
      "##ola": 6983,
      "arbit": 6984,
      "enfor": 6985,
      "genes": 6986,
      "firms": 6987,
      "##ensity": 6988,
      "coach": 6989,
      "eds": 6990,
      "emerging": 6991,
      "emergency": 6992,
      "separated": 6993,
      "reaching": 6994,
      "categor": 6995,
      "francisc": 6996,
      "habit": 6997,
      "theatre": 6998,
      "declaration": 6999,
      "rhythm": 7000,
      "53": 7001,
      "gur": 7002,
      "ka": 7003,
      "yout": 7004,
      "##iations": 7005,
      "##ooth": 7006,
      "##cid": 7007,
      "##haps": 7008,
      "chain": 7009,
      "deals": 7010,
      "syria": 7011,
      "pharm": 7012,
      "marc": 7013,
      "bob": 7014,
      "boost": 7015,
      "forming": 7016,
      "##ightly": 7017,
      "bases": 7018,
      "adding": 7019,
      "operated": 7020,
      "advers": 7021,
      "represents": 7022,
      "funds": 7023,
      "emergence": 7024,
      "employees": 7025,
      "sharing": 7026,
      "favour": 7027,
      "hindus": 7028,
      "satellites": 7029,
      "evaluation": 7030,
      "proteins": 7031,
      "overtime": 7032,
      "mentioned": 7033,
      "paintings": 7034,
      "jazz": 7035,
      "pact": 7036,
      "ss": 7037,
      "##18": 7038,
      "##atics": 7039,
      "##ena": 7040,
      "##imal": 7041,
      "worth": 7042,
      "perhaps": 7043,
      "accel": 7044,
      "reducing": 7045,
      "showing": 7046,
      "treatments": 7047,
      "possibility": 7048,
      "specialized": 7049,
      "link": 7050,
      "synthes": 7051,
      "demonstrated": 7052,
      "700": 7053,
      "dry": 7054,
      "kur": 7055,
      "pdf": 7056,
      "wat": 7057,
      "##arant": 7058,
      "##icks": 7059,
      "##urally": 7060,
      "prol": 7061,
      "##ower": 7062,
      "##ieving": 7063,
      "emotion": 7064,
      "universe": 7065,
      "leads": 7066,
      "1963": 7067,
      "analog": 7068,
      "proportion": 7069,
      "intelligent": 7070,
      "250": 7071,
      "geometric": 7072,
      "immediate": 7073,
      "vehicle": 7074,
      "47": 7075,
      "bott": 7076,
      "pier": 7077,
      "wave": 7078,
      "##ih": 7079,
      "##dy": 7080,
      "##acement": 7081,
      "preserv": 7082,
      "computation": 7083,
      "##encing": 7084,
      "guitar": 7085,
      "mughal": 7086,
      "experts": 7087,
      "insurance": 7088,
      "formerly": 7089,
      "error": 7090,
      "synthesis": 7091,
      "photograph": 7092,
      "##comes": 7093,
      "##know": 7094,
      "grok": 7095,
      "extremely": 7096,
      "stadium": 7097,
      "00": 7098,
      "says": 7099,
      "tay": 7100,
      "##uff": 7101,
      "##human": 7102,
      "##mir": 7103,
      "thail": 7104,
      "deploy": 7105,
      "##abil": 7106,
      "shall": 7107,
      "column": 7108,
      "##oke": 7109,
      "performing": 7110,
      "representing": 7111,
      "solving": 7112,
      "defining": 7113,
      "##ochem": 7114,
      "millenn": 7115,
      "crucial": 7116,
      "thailand": 7117,
      "dark": 7118,
      "fans": 7119,
      "your": 7120,
      "##ois": 7121,
      "told": 7122,
      "spent": 7123,
      "outcome": 7124,
      "flat": 7125,
      "cellular": 7126,
      "limits": 7127,
      "sympt": 7128,
      "hands": 7129,
      "animation": 7130,
      "dimin": 7131,
      "diagnosis": 7132,
      "controversial": 7133,
      "es": 7134,
      "nad": 7135,
      "taught": 7136,
      "anton": 7137,
      "##uses": 7138,
      "##opath": 7139,
      "try": 7140,
      "##ologist": 7141,
      "poly": 7142,
      "consol": 7143,
      "carol": 7144,
      "extin": 7145,
      "##plications": 7146,
      "soviets": 7147,
      "##bots": 7148,
      "curric": 7149,
      "illeg": 7150,
      "hosted": 7151,
      "probably": 7152,
      "khan": 7153,
      "burma": 7154,
      "keynesian": 7155,
      "hundreds": 7156,
      "vehicles": 7157,
      "initiative": 7158,
      "criminal": 7159,
      "orchest": 7160,
      "hidden": 7161,
      "jam": 7162,
      "keral": 7163,
      "##rad": 7164,
      "##uates": 7165,
      "##gpt": 7166,
      "##discipl": 7167,
      "##rogen": 7168,
      "##omial": 7169,
      "##aments": 7170,
      "##igm": 7171,
      "##apse": 7172,
      "triang": 7173,
      "indones": 7174,
      "##illa": 7175,
      "scott": 7176,
      "##ptions": 7177,
      "genres": 7178,
      "recru": 7179,
      "weights": 7180,
      "outcomes": 7181,
      "increases": 7182,
      "writers": 7183,
      "memorial": 7184,
      "120": 7185,
      "winner": 7186,
      "captain": 7187,
      "requirements": 7188,
      "tropical": 7189,
      "struggle": 7190,
      "orbital": 7191,
      "kerala": 7192,
      "fer": 7193,
      "ml": 7194,
      "pit": 7195,
      "rod": 7196,
      "##well": 7197,
      "##68": 7198,
      "##rec": 7199,
      "##olith": 7200,
      "stations": 7201,
      "stages": 7202,
      "reign": 7203,
      "##action": 7204,
      "subm": 7205,
      "overl": 7206,
      "assigned": 7207,
      "attach": 7208,
      "write": 7209,
      "involve": 7210,
      "arrived": 7211,
      "committed": 7212,
      "millions": 7213,
      "tattoos": 7214,
      "constructed": 7215,
      "therapy": 7216,
      "exhibition": 7217,
      "opportunities": 7218,
      "candidates": 7219,
      "partnership": 7220,
      "cooperation": 7221,
      "alleged": 7222,
      "cul": 7223,
      "hong": 7224,
      "wik": 7225,
      "##iy": 7226,
      "ongoing": 7227,
      "##oto": 7228,
      "neither": 7229,
      "implies": 7230,
      "polyn": 7231,
      "fried": 7232,
      "##ruption": 7233,
      "##ertain": 7234,
      "guarant": 7235,
      "influences": 7236,
      "appears": 7237,
      "furthermore": 7238,
      "colony": 7239,
      "stephen": 7240,
      "considerable": 7241,
      "drugs": 7242,
      "recommend": 7243,
      "gulf": 7244,
      "nick": 7245,
      "pool": 7246,
      "vin": 7247,
      "##cles": 7248,
      "##23": 7249,
      "##ecution": 7250,
      "##thur": 7251,
      "unsu": 7252,
      "##arters": 7253,
      "resolution": 7254,
      "appeal": 7255,
      "defence": 7256,
      "acting": 7257,
      "attend": 7258,
      "##ails": 7259,
      "depos": 7260,
      "buy": 7261,
      "concer": 7262,
      "publicly": 7263,
      "improving": 7264,
      "participants": 7265,
      "holoca": 7266,
      "steel": 7267,
      "clubs": 7268,
      "absol": 7269,
      "scenes": 7270,
      "hawaii": 7271,
      "holocaust": 7272,
      "bom": 7273,
      "bird": 7274,
      "ea": 7275,
      "hay": 7276,
      "hence": 7277,
      "vul": 7278,
      "##uous": 7279,
      "##zo": 7280,
      "unable": 7281,
      "ecology": 7282,
      "empt": 7283,
      "gramm": 7284,
      "operate": 7285,
      "operator": 7286,
      "operators": 7287,
      "extension": 7288,
      "topic": 7289,
      "1936": 7290,
      "featuring": 7291,
      "swiss": 7292,
      "affil": 7293,
      "quantity": 7294,
      "necessarily": 7295,
      "accurate": 7296,
      "tissues": 7297,
      "serbia": 7298,
      "columbia": 7299,
      "youtube": 7300,
      "kal": 7301,
      "kub": 7302,
      "lists": 7303,
      "yield": 7304,
      "##cts": 7305,
      "andy": 7306,
      "stable": 7307,
      "seed": 7308,
      "seag": 7309,
      "incident": 7310,
      "assam": 7311,
      "transc": 7312,
      "governance": 7313,
      "singer": 7314,
      "drum": 7315,
      "detection": 7316,
      "originated": 7317,
      "civilization": 7318,
      "speakers": 7319,
      "lasted": 7320,
      "corporation": 7321,
      "surrounding": 7322,
      "descriptions": 7323,
      "chronic": 7324,
      "simultaneously": 7325,
      "kashmir": 7326,
      "lyr": 7327,
      "saint": 7328,
      "viet": 7329,
      "andrew": 7330,
      "disord": 7331,
      "plus": 7332,
      "adam": 7333,
      "economist": 7334,
      "mah": 7335,
      "engaged": 7336,
      "##riers": 7337,
      "surge": 7338,
      "locations": 7339,
      "describing": 7340,
      "harv": 7341,
      "switch": 7342,
      "oppos": 7343,
      "titled": 7344,
      "microsoft": 7345,
      "explicitly": 7346,
      "ratio": 7347,
      "encyclopedia": 7348,
      "cm": 7349,
      "pair": 7350,
      "##ville": 7351,
      "##94": 7352,
      "##theless": 7353,
      "cha": 7354,
      "underlying": 7355,
      "1977": 7356,
      "1961": 7357,
      "nevertheless": 7358,
      "bowie": 7359,
      "hospitals": 7360,
      "experiences": 7361,
      "assessment": 7362,
      "exclusive": 7363,
      "eye": 7364,
      "explanation": 7365,
      "58": 7366,
      "bure": 7367,
      "cited": 7368,
      "diction": 7369,
      "jo": 7370,
      "kong": 7371,
      "nca": 7372,
      "rib": 7373,
      "##sis": 7374,
      "##de": 7375,
      "##bur": 7376,
      "##alities": 7377,
      "##ompl": 7378,
      "##che": 7379,
      "reward": 7380,
      "sphere": 7381,
      "invented": 7382,
      "finished": 7383,
      "ministers": 7384,
      "extract": 7385,
      "elite": 7386,
      "1937": 7387,
      "barb": 7388,
      "admin": 7389,
      "##lama": 7390,
      "alternate": 7391,
      "strongly": 7392,
      "strategies": 7393,
      "penal": 7394,
      "neighbour": 7395,
      "rainfall": 7396,
      "queen": 7397,
      "membrane": 7398,
      "fox": 7399,
      "ip": 7400,
      "nerv": 7401,
      "option": 7402,
      "si": 7403,
      "tel": 7404,
      "##right": 7405,
      "##ua": 7406,
      "inqu": 7407,
      "##inger": 7408,
      "stability": 7409,
      "##iration": 7410,
      "conve": 7411,
      "spot": 7412,
      "pra": 7413,
      "uns": 7414,
      "disapp": 7415,
      "intr": 7416,
      "frag": 7417,
      "accompl": 7418,
      "constitu": 7419,
      "entities": 7420,
      "superior": 7421,
      "uncertain": 7422,
      "percentage": 7423,
      "maximum": 7424,
      "astronomy": 7425,
      "polytechnic": 7426,
      "storage": 7427,
      "taylor": 7428,
      "page": 7429,
      "ru": 7430,
      "##di": 7431,
      "##down": 7432,
      "##bl": 7433,
      "##lets": 7434,
      "bein": 7435,
      "leave": 7436,
      "scar": 7437,
      "consensus": 7438,
      "regulations": 7439,
      "assert": 7440,
      "colleges": 7441,
      "herbal": 7442,
      "##uck": 7443,
      "cycl": 7444,
      "##ammad": 7445,
      "assumptions": 7446,
      "converg": 7447,
      "snow": 7448,
      "belgium": 7449,
      "enabled": 7450,
      "landscape": 7451,
      "francisco": 7452,
      "ncaa": 7453,
      "49": 7454,
      "74": 7455,
      "ak": 7456,
      "cash": 7457,
      "hell": 7458,
      "ira": 7459,
      "ow": 7460,
      "rio": 7461,
      "##28": 7462,
      "##organ": 7463,
      "##itan": 7464,
      "seat": 7465,
      "plain": 7466,
      "polym": 7467,
      "1960": 7468,
      "johnson": 7469,
      "##anean": 7470,
      "replace": 7471,
      "squad": 7472,
      "balk": 7473,
      "chatgpt": 7474,
      "feedback": 7475,
      "twenty": 7476,
      "revealed": 7477,
      "gandhi": 7478,
      "ham": 7479,
      "iter": 7480,
      "soph": 7481,
      "##rid": 7482,
      "##set": 7483,
      "##77": 7484,
      "##itable": 7485,
      "regression": 7486,
      "##ifies": 7487,
      "incent": 7488,
      "##orted": 7489,
      "scr": 7490,
      "musk": 7491,
      "meta": 7492,
      "promoting": 7493,
      "representative": 7494,
      "funded": 7495,
      "conceptual": 7496,
      "poetry": 7497,
      "supplies": 7498,
      "senate": 7499,
      "residents": 7500,
      "settled": 7501,
      "surrender": 7502,
      "conscious": 7503,
      "tcm": 7504,
      "predominant": 7505,
      "seagate": 7506,
      "bes": 7507,
      "fan": 7508,
      "fly": 7509,
      "golf": 7510,
      "lies": 7511,
      "llama": 7512,
      "oh": 7513,
      "##kins": 7514,
      "##arked": 7515,
      "##ayan": 7516,
      "##osh": 7517,
      "medit": 7518,
      "governing": 7519,
      "cape": 7520,
      "calls": 7521,
      "valued": 7522,
      "liberation": 7523,
      "prediction": 7524,
      "tempor": 7525,
      "13th": 7526,
      "broader": 7527,
      "territorial": 7528,
      "arabic": 7529,
      "copies": 7530,
      "aspect": 7531,
      "kinds": 7532,
      "dynamic": 7533,
      "wounded": 7534,
      "63": 7535,
      "85": 7536,
      "bib": 7537,
      "tanks": 7538,
      "voting": 7539,
      "##uits": 7540,
      "##eing": 7541,
      "##sky": 7542,
      "##63": 7543,
      "theater": 7544,
      "##asions": 7545,
      "stay": 7546,
      "onto": 7547,
      "comic": 7548,
      "excess": 7549,
      "##abh": 7550,
      "##ift": 7551,
      "adap": 7552,
      "##asters": 7553,
      "healing": 7554,
      "##velt": 7555,
      "registered": 7556,
      "mining": 7557,
      "string": 7558,
      "opera": 7559,
      "shortly": 7560,
      "philosophical": 7561,
      "offering": 7562,
      "copper": 7563,
      "indicate": 7564,
      "succeeded": 7565,
      "danger": 7566,
      "bil": 7567,
      "bern": 7568,
      "cav": 7569,
      "crop": 7570,
      "dual": 7571,
      "gross": 7572,
      "jul": 7573,
      "ran": 7574,
      "rar": 7575,
      "rug": 7576,
      "s2": 7577,
      "tennis": 7578,
      "##iac": 7579,
      "##iny": 7580,
      "##ato": 7581,
      "##otam": 7582,
      "##essive": 7583,
      "##opotam": 7584,
      "trend": 7585,
      "##ighter": 7586,
      "amaz": 7587,
      "marri": 7588,
      "modified": 7589,
      "transg": 7590,
      "continental": 7591,
      "edward": 7592,
      "environments": 7593,
      "renamed": 7594,
      "transformation": 7595,
      "departments": 7596,
      "psychological": 7597,
      "letters": 7598,
      "parliamentary": 7599,
      "##while": 7600,
      "graphic": 7601,
      "hungarian": 7602,
      "bonds": 7603,
      "datasets": 7604,
      "massacre": 7605,
      "cabinet": 7606,
      "stimul": 7607,
      "classifier": 7608,
      "900": 7609,
      "fra": 7610,
      "nude": 7611,
      "##rants": 7612,
      "##uv": 7613,
      "##uated": 7614,
      "infer": 7615,
      "##isition": 7616,
      "##uri": 7617,
      "tri": 7618,
      "intention": 7619,
      "recon": 7620,
      "##osevelt": 7621,
      "roosevelt": 7622,
      "flood": 7623,
      "socialism": 7624,
      "operational": 7625,
      "programme": 7626,
      "consumers": 7627,
      "transportation": 7628,
      "looking": 7629,
      "detailed": 7630,
      "beliefs": 7631,
      "picture": 7632,
      "mesopotam": 7633,
      "concentration": 7634,
      "tattooing": 7635,
      "anatomy": 7636,
      "restrictions": 7637,
      "circumcision": 7638,
      "kernel": 7639,
      "mediterr": 7640,
      "7th": 7641,
      "bed": 7642,
      "cra": 7643,
      "cord": 7644,
      "dating": 7645,
      "sail": 7646,
      "##erce": 7647,
      "##itudes": 7648,
      "##iger": 7649,
      "alf": 7650,
      "canc": 7651,
      "commons": 7652,
      "finland": 7653,
      "infant": 7654,
      "publications": 7655,
      "establishing": 7656,
      "wider": 7657,
      "declined": 7658,
      "minimum": 7659,
      "consequences": 7660,
      "comprehensive": 7661,
      "faculty": 7662,
      "mediterranean": 7663,
      "95": 7664,
      "dates": 7665,
      "lamb": 7666,
      "mm": 7667,
      "row": 7668,
      "##19": 7669,
      "##jar": 7670,
      "thing": 7671,
      "##arrow": 7672,
      "##otechn": 7673,
      "cham": 7674,
      "##aki": 7675,
      "reserv": 7676,
      "minute": 7677,
      "obtain": 7678,
      "organic": 7679,
      "remote": 7680,
      "##fully": 7681,
      "writer": 7682,
      "institutes": 7683,
      "soundtr": 7684,
      "taxes": 7685,
      "steps": 7686,
      "predicted": 7687,
      "predictions": 7688,
      "essentially": 7689,
      "discussion": 7690,
      "analyze": 7691,
      "drawing": 7692,
      "wilson": 7693,
      "clothing": 7694,
      "decentralization": 7695,
      "atmosphere": 7696,
      "monsoon": 7697,
      "bon": 7698,
      "hd": 7699,
      "sv": 7700,
      "sid": 7701,
      "watch": 7702,
      "##cs": 7703,
      "##wa": 7704,
      "##gest": 7705,
      "##ji": 7706,
      "##iture": 7707,
      "##cher": 7708,
      "##ima": 7709,
      "invention": 7710,
      "acknow": 7711,
      "##issions": 7712,
      "concert": 7713,
      "recordings": 7714,
      "supporters": 7715,
      "landing": 7716,
      "explained": 7717,
      "autonomy": 7718,
      "rulers": 7719,
      "err": 7720,
      "sequences": 7721,
      "myth": 7722,
      "finding": 7723,
      "assumed": 7724,
      "optimal": 7725,
      "timeline": 7726,
      "bombing": 7727,
      "encouraged": 7728,
      "dependent": 7729,
      "dropped": 7730,
      "nhl": 7731,
      "consolid": 7732,
      "opposite": 7733,
      "6th": 7734,
      "ay": 7735,
      "dal": 7736,
      "dani": 7737,
      "haz": 7738,
      "##vement": 7739,
      "##oque": 7740,
      "##dots": 7741,
      "##orous": 7742,
      "##ema": 7743,
      "##agement": 7744,
      "trip": 7745,
      "##ipts": 7746,
      "##roph": 7747,
      "expensive": 7748,
      "expanding": 7749,
      "signal": 7750,
      "approved": 7751,
      "serving": 7752,
      "1951": 7753,
      "earthqu": 7754,
      "normally": 7755,
      "mechanical": 7756,
      "collective": 7757,
      "absor": 7758,
      "discussed": 7759,
      "phenomenon": 7760,
      "romantic": 7761,
      "migration": 7762,
      "pictures": 7763,
      "streaming": 7764,
      "palestinian": 7765,
      "symptoms": 7766,
      "dictionary": 7767,
      "transgender": 7768,
      "ah": 7769,
      "faster": 7770,
      "ku": 7771,
      "ly": 7772,
      "##ugh": 7773,
      "##eland": 7774,
      "stating": 7775,
      "##ira": 7776,
      "spending": 7777,
      "commerce": 7778,
      "phd": 7779,
      "##iversity": 7780,
      "governed": 7781,
      "secular": 7782,
      "edge": 7783,
      "1938": 7784,
      "representatives": 7785,
      "astrology": 7786,
      "privacy": 7787,
      "kept": 7788,
      "interpre": 7789,
      "karl": 7790,
      "implementation": 7791,
      "tribes": 7792,
      "shaped": 7793,
      "exclusively": 7794,
      "ascii": 7795,
      "revolt": 7796,
      "advertising": 7797,
      "##unkel": 7798,
      "prosper": 7799,
      "macroeconom": 7800,
      "lyrics": 7801,
      "bone": 7802,
      "gay": 7803,
      "moh": 7804,
      "pm": 7805,
      "tell": 7806,
      "tank": 7807,
      "##rum": 7808,
      "##ygen": 7809,
      "##sf": 7810,
      "##fts": 7811,
      "##26": 7812,
      "##ila": 7813,
      "plains": 7814,
      "scope": 7815,
      "assass": 7816,
      "room": 7817,
      "acid": 7818,
      "obl": 7819,
      "themes": 7820,
      "constrain": 7821,
      "severe": 7822,
      "portion": 7823,
      "marketing": 7824,
      "involvement": 7825,
      "argument": 7826,
      "diag": 7827,
      "circle": 7828,
      "##load": 7829,
      "samples": 7830,
      "reviews": 7831,
      "photos": 7832,
      "assistance": 7833,
      "dynamics": 7834,
      "oriented": 7835,
      "alignment": 7836,
      "annexed": 7837,
      "napole": 7838,
      "rebellion": 7839,
      "dog": 7840,
      "hul": 7841,
      "rub": 7842,
      "santa": 7843,
      "##iop": 7844,
      "##din": 7845,
      "##erted": 7846,
      "##atorn": 7847,
      "##real": 7848,
      "bear": 7849,
      "##plus": 7850,
      "##sey": 7851,
      "genome": 7852,
      "maria": 7853,
      "subt": 7854,
      "imposs": 7855,
      "grav": 7856,
      "flour": 7857,
      "operatorn": 7858,
      "promin": 7859,
      "protected": 7860,
      "links": 7861,
      "receiving": 7862,
      "himal": 7863,
      "cyt": 7864,
      "sounds": 7865,
      "participate": 7866,
      "consistent": 7867,
      "garf": 7868,
      "adaptation": 7869,
      "controversy": 7870,
      "neurons": 7871,
      "inhabit": 7872,
      "restricted": 7873,
      "operatorname": 7874,
      "crow": 7875,
      "dub": 7876,
      "mort": 7877,
      "sut": 7878,
      "sans": 7879,
      "vic": 7880,
      "##fort": 7881,
      "##tz": 7882,
      "##17": 7883,
      "##itage": 7884,
      "ussr": 7885,
      "mode": 7886,
      "outl": 7887,
      "peas": 7888,
      "secure": 7889,
      "advanc": 7890,
      "cultiv": 7891,
      "baroque": 7892,
      "measured": 7893,
      "collapse": 7894,
      "integral": 7895,
      "diplomatic": 7896,
      "venture": 7897,
      "pearl": 7898,
      "garfunkel": 7899,
      "die": 7900,
      "fib": 7901,
      "nu": 7902,
      "wage": 7903,
      "wife": 7904,
      "##ran": 7905,
      "##rates": 7906,
      "##rison": 7907,
      "thesis": 7908,
      "##anes": 7909,
      "##oters": 7910,
      "##iants": 7911,
      "atomic": 7912,
      "##acht": 7913,
      "##achus": 7914,
      "##nings": 7915,
      "undergraduate": 7916,
      "defines": 7917,
      "biod": 7918,
      "discour": 7919,
      "brother": 7920,
      "ideology": 7921,
      "engineers": 7922,
      "augmented": 7923,
      "killing": 7924,
      "virgin": 7925,
      "demands": 7926,
      "businesses": 7927,
      "holy": 7928,
      "responses": 7929,
      "towns": 7930,
      "alien": 7931,
      "institutional": 7932,
      "moment": 7933,
      "pronoun": 7934,
      "##disciplinary": 7935,
      "aqu": 7936,
      "got": 7937,
      "hur": 7938,
      "mix": 7939,
      "##pass": 7940,
      "##96": 7941,
      "##asm": 7942,
      "##ente": 7943,
      "forb": 7944,
      "stret": 7945,
      "alleg": 7946,
      "beach": 7947,
      "##iano": 7948,
      "enable": 7949,
      "evol": 7950,
      "colour": 7951,
      "moreover": 7952,
      "applying": 7953,
      "##ricts": 7954,
      "mahar": 7955,
      "instruction": 7956,
      "feet": 7957,
      "calling": 7958,
      "depends": 7959,
      "specialist": 7960,
      "1956": 7961,
      "easier": 7962,
      "focusing": 7963,
      "visit": 7964,
      "producer": 7965,
      "holding": 7966,
      "papers": 7967,
      "oxygen": 7968,
      "therapies": 7969,
      "details": 7970,
      "perceptron": 7971,
      "girls": 7972,
      "illustrated": 7973,
      "turkey": 7974,
      "cerem": 7975,
      "plateau": 7976,
      "newspaper": 7977,
      "aesthetic": 7978,
      "bangl": 7979,
      "schedul": 7980,
      "nigeria": 7981,
      "vulner": 7982,
      "kubrick": 7983,
      "biodiversity": 7984,
      "65": 7985,
      "nich": 7986,
      "##ven": 7987,
      "##works": 7988,
      "##do": 7989,
      "##45": 7990,
      "##etts": 7991,
      "stake": 7992,
      "cloud": 7993,
      "manch": 7994,
      "reconst": 7995,
      "consult": 7996,
      "1940s": 7997,
      "heritage": 7998,
      "confed": 7999,
      "portray": 8000,
      "solo": 8001,
      "easy": 8002,
      "massachus": 8003,
      "campaigns": 8004,
      "transformer": 8005,
      "responsibility": 8006,
      "williams": 8007,
      "mandate": 8008,
      "houses": 8009,
      "rifle": 8010,
      "refugees": 8011,
      "tokens": 8012,
      "vietnam": 8013,
      "massachusetts": 8014,
      "cors": 8015,
      "losing": 8016,
      "nodes": 8017,
      "rare": 8018,
      "tang": 8019,
      "wit": 8020,
      "##ni": 8021,
      "##pus": 8022,
      "##oo": 8023,
      "##gl": 8024,
      "##ja": 8025,
      "##ali": 8026,
      "token": 8027,
      "##char": 8028,
      "##iana": 8029,
      "tracks": 8030,
      "resident": 8031,
      "##ella": 8032,
      "interior": 8033,
      "phone": 8034,
      "boom": 8035,
      "coin": 8036,
      "strike": 8037,
      "extr": 8038,
      "depth": 8039,
      "15th": 8040,
      "empires": 8041,
      "statements": 8042,
      "cease": 8043,
      "irr": 8044,
      "determin": 8045,
      "copyr": 8046,
      "transformed": 8047,
      "audi": 8048,
      "shares": 8049,
      "rangle": 8050,
      "reactions": 8051,
      "##break": 8052,
      "documentary": 8053,
      "license": 8054,
      "overseas": 8055,
      "segment": 8056,
      "iraq": 8057,
      "46": 8058,
      "56": 8059,
      "kenn": 8060,
      "lad": 8061,
      "upr": 8062,
      "##bing": 8063,
      "##22": 8064,
      "##erative": 8065,
      "confer": 8066,
      "pricing": 8067,
      "marath": 8068,
      "desired": 8069,
      "defend": 8070,
      "districts": 8071,
      "considering": 8072,
      "langle": 8073,
      "standing": 8074,
      "slightly": 8075,
      "##enna": 8076,
      "judge": 8077,
      "numerical": 8078,
      "bounded": 8079,
      "progressive": 8080,
      "situations": 8081,
      "odd": 8082,
      "bombay": 8083,
      "perception": 8084,
      "orthodox": 8085,
      "begun": 8086,
      "procedure": 8087,
      "chapter": 8088,
      "kilometres": 8089,
      "ptolemy": 8090,
      "gath": 8091,
      "hus": 8092,
      "vess": 8093,
      "##gal": 8094,
      "##ona": 8095,
      "prove": 8096,
      "##usc": 8097,
      "##ava": 8098,
      "indeed": 8099,
      "decis": 8100,
      "desire": 8101,
      "assign": 8102,
      "weather": 8103,
      "thereby": 8104,
      "charge": 8105,
      "promoted": 8106,
      "competitions": 8107,
      "betting": 8108,
      "huge": 8109,
      "transferred": 8110,
      "##aughter": 8111,
      "ghost": 8112,
      "tensor": 8113,
      "settlements": 8114,
      "purchased": 8115,
      "##omorphism": 8116,
      "fascist": 8117,
      "regulatory": 8118,
      "proposal": 8119,
      "depression": 8120,
      "millennium": 8121,
      "s2cid": 8122,
      "flying": 8123,
      "ww": 8124,
      "zomb": 8125,
      "therm": 8126,
      "##ito": 8127,
      "forests": 8128,
      "##unct": 8129,
      "scal": 8130,
      "partially": 8131,
      "amounts": 8132,
      "strip": 8133,
      "programm": 8134,
      "persons": 8135,
      "1910": 8136,
      "scientist": 8137,
      "meanwhile": 8138,
      "camera": 8139,
      "ensemble": 8140,
      "boundary": 8141,
      "comparison": 8142,
      "partners": 8143,
      "railway": 8144,
      "begins": 8145,
      "discrimination": 8146,
      "##ovakia": 8147,
      "aro": 8148,
      "bag": 8149,
      "mol": 8150,
      "mike": 8151,
      "nit": 8152,
      "pages": 8153,
      "raw": 8154,
      "vs": 8155,
      "##ink": 8156,
      "##asi": 8157,
      "##oul": 8158,
      "##ils": 8159,
      "sha": 8160,
      "amend": 8161,
      "agree": 8162,
      "assets": 8163,
      "cool": 8164,
      "coined": 8165,
      "soccer": 8166,
      "norway": 8167,
      "obst": 8168,
      "termin": 8169,
      "termed": 8170,
      "serves": 8171,
      "requiring": 8172,
      "philip": 8173,
      "##scop": 8174,
      "competing": 8175,
      "ethiop": 8176,
      "1000": 8177,
      "participated": 8178,
      "substances": 8179,
      "observations": 8180,
      "legislation": 8181,
      "consequence": 8182,
      "opinion": 8183,
      "juris": 8184,
      "##otechnology": 8185,
      "cow": 8186,
      "cot": 8187,
      "hills": 8188,
      "lig": 8189,
      "pover": 8190,
      "ties": 8191,
      "tied": 8192,
      "##ien": 8193,
      "##ado": 8194,
      "procl": 8195,
      "##udi": 8196,
      "enl": 8197,
      "clar": 8198,
      "##phone": 8199,
      "politicians": 8200,
      "nationalists": 8201,
      "##plicated": 8202,
      "speaker": 8203,
      "membership": 8204,
      "separation": 8205,
      "mechanics": 8206,
      "indicates": 8207,
      "boundaries": 8208,
      "absence": 8209,
      "credited": 8210,
      "pollution": 8211,
      "duration": 8212,
      "accompanied": 8213,
      "marshall": 8214,
      "czechosl": 8215,
      "absolute": 8216,
      "poverty": 8217,
      "3d": 8218,
      "5th": 8219,
      "ky": 8220,
      "lok": 8221,
      "liqu": 8222,
      "pod": 8223,
      "rus": 8224,
      "##worth": 8225,
      "##outh": 8226,
      "##amin": 8227,
      "##chron": 8228,
      "##ador": 8229,
      "##iday": 8230,
      "proceed": 8231,
      "##ellow": 8232,
      "imposed": 8233,
      "outputs": 8234,
      "outbreak": 8235,
      "transpar": 8236,
      "advis": 8237,
      "miles": 8238,
      "smooth": 8239,
      "singh": 8240,
      "muh": 8241,
      "factory": 8242,
      "diam": 8243,
      "covering": 8244,
      "passing": 8245,
      "victims": 8246,
      "embry": 8247,
      "frequency": 8248,
      "manufactur": 8249,
      "laser": 8250,
      "complementary": 8251,
      "headquarters": 8252,
      "expedition": 8253,
      "polynomial": 8254,
      "bhar": 8255,
      "ero": 8256,
      "lun": 8257,
      "ri": 8258,
      "wart": 8259,
      "##rine": 8260,
      "##vd": 8261,
      "##car": 8262,
      "##icon": 8263,
      "1900": 8264,
      "triple": 8265,
      "incom": 8266,
      "genetics": 8267,
      "marking": 8268,
      "accused": 8269,
      "valu": 8270,
      "theme": 8271,
      "indiana": 8272,
      "descent": 8273,
      "domains": 8274,
      "chris": 8275,
      "convin": 8276,
      "radiation": 8277,
      "dimensions": 8278,
      "madras": 8279,
      "##brev": 8280,
      "guns": 8281,
      "astronom": 8282,
      "withdraw": 8283,
      "bottom": 8284,
      "curriculum": 8285,
      "inhabitants": 8286,
      "copyright": 8287,
      "hem": 8288,
      "ib": 8289,
      "mosc": 8290,
      "##ez": 8291,
      "##oam": 8292,
      "##elines": 8293,
      "isa": 8294,
      "items": 8295,
      "usa": 8296,
      "##ibilities": 8297,
      "partis": 8298,
      "interdisciplinary": 8299,
      "abbrev": 8300,
      "monarchy": 8301,
      "quite": 8302,
      "ends": 8303,
      "gujar": 8304,
      "1931": 8305,
      "160": 8306,
      "caliph": 8307,
      "connections": 8308,
      "rising": 8309,
      "femin": 8310,
      "arrival": 8311,
      "narrative": 8312,
      "llms": 8313,
      "distinguished": 8314,
      "preferred": 8315,
      "immigration": 8316,
      "database": 8317,
      "adversarial": 8318,
      "bench": 8319,
      "pav": 8320,
      "vert": 8321,
      "wages": 8322,
      "##fr": 8323,
      "##kar": 8324,
      "##44": 8325,
      "##atrix": 8326,
      "toky": 8327,
      "##etically": 8328,
      "##ighth": 8329,
      "shog": 8330,
      "heb": 8331,
      "accum": 8332,
      "wei": 8333,
      "mathematician": 8334,
      "fled": 8335,
      "drama": 8336,
      "1912": 8337,
      "print": 8338,
      "printed": 8339,
      "12th": 8340,
      "breaking": 8341,
      "currency": 8342,
      "journals": 8343,
      "interested": 8344,
      "options": 8345,
      "consisted": 8346,
      "commentary": 8347,
      "gamma": 8348,
      "bringing": 8349,
      "astronaut": 8350,
      "quadr": 8351,
      "occasionally": 8352,
      "elasticity": 8353,
      "mongol": 8354,
      "bangladesh": 8355,
      "67": 8356,
      "73": 8357,
      "93": 8358,
      "98": 8359,
      "bru": 8360,
      "gamb": 8361,
      "hour": 8362,
      "kings": 8363,
      "sections": 8364,
      "tu": 8365,
      "voters": 8366,
      "wii": 8367,
      "##ares": 8368,
      "##izer": 8369,
      "agencies": 8370,
      "twice": 8371,
      "somewh": 8372,
      "parent": 8373,
      "presc": 8374,
      "biochem": 8375,
      "expand": 8376,
      "nothing": 8377,
      "brooks": 8378,
      "electrical": 8379,
      "crash": 8380,
      "austro": 8381,
      "courts": 8382,
      "needle": 8383,
      "characteristic": 8384,
      "veget": 8385,
      "balls": 8386,
      "collected": 8387,
      "hindi": 8388,
      "settings": 8389,
      "maintaining": 8390,
      "orthog": 8391,
      "purchase": 8392,
      "alcoh": 8393,
      "illegal": 8394,
      "wartime": 8395,
      "tokyo": 8396,
      "somewhat": 8397,
      "52": 8398,
      "gra": 8399,
      "kam": 8400,
      "lis": 8401,
      "ric": 8402,
      "##hou": 8403,
      "ina": 8404,
      "##ivals": 8405,
      "##urb": 8406,
      "waste": 8407,
      "exile": 8408,
      "traff": 8409,
      "##actions": 8410,
      "recre": 8411,
      "##enses": 8412,
      "##oked": 8413,
      "produces": 8414,
      "monarch": 8415,
      "continent": 8416,
      "significance": 8417,
      "productivity": 8418,
      "continuing": 8419,
      "ranking": 8420,
      "graphics": 8421,
      "advocated": 8422,
      "village": 8423,
      "completion": 8424,
      "responded": 8425,
      "confirmed": 8426,
      "propaganda": 8427,
      "rarely": 8428,
      "lambda": 8429,
      "9th": 8430,
      "##iological": 8431,
      "indus": 8432,
      "adult": 8433,
      "intermed": 8434,
      "##ensively": 8435,
      "generating": 8436,
      "defensive": 8437,
      "peer": 8438,
      "finals": 8439,
      "##rows": 8440,
      "concrete": 8441,
      "laid": 8442,
      "performances": 8443,
      "curve": 8444,
      "successor": 8445,
      "ruling": 8446,
      "professionals": 8447,
      "regardless": 8448,
      "demanded": 8449,
      "safe": 8450,
      "converted": 8451,
      "sensitive": 8452,
      "circumst": 8453,
      "adaptive": 8454,
      "##eastern": 8455,
      "prepared": 8456,
      "paradigm": 8457,
      "attributed": 8458,
      "exactly": 8459,
      "enterprise": 8460,
      "dismiss": 8461,
      "empty": 8462,
      "inquir": 8463,
      "adapted": 8464,
      "42": 8465,
      "57": 8466,
      "68": 8467,
      "dict": 8468,
      "han": 8469,
      "##rating": 8470,
      "##grou": 8471,
      "##krit": 8472,
      "##97": 8473,
      "##oles": 8474,
      "stoch": 8475,
      "stores": 8476,
      "conj": 8477,
      "alter": 8478,
      "indirect": 8479,
      "leq": 8480,
      "##athan": 8481,
      "implications": 8482,
      "goes": 8483,
      "genoc": 8484,
      "recip": 8485,
      "decomp": 8486,
      "##orship": 8487,
      "invarian": 8488,
      "monopol": 8489,
      "provision": 8490,
      "broken": 8491,
      "1958": 8492,
      "delay": 8493,
      "champion": 8494,
      "objectives": 8495,
      "epid": 8496,
      "variation": 8497,
      "youth": 8498,
      "robinson": 8499,
      "respective": 8500,
      "talk": 8501,
      "route": 8502,
      "corporate": 8503,
      "girl": 8504,
      "pandemic": 8505,
      "yugoslavia": 8506,
      "sanskrit": 8507,
      "muhammad": 8508,
      "moscow": 8509,
      "drew": 8510,
      "flex": 8511,
      "turing": 8512,
      "##lan": 8513,
      "##oys": 8514,
      "##etime": 8515,
      "##ilation": 8516,
      "comedy": 8517,
      "trying": 8518,
      "##ellular": 8519,
      "##ieth": 8520,
      "transhuman": 8521,
      "offices": 8522,
      "engage": 8523,
      "extends": 8524,
      "anything": 8525,
      "historic": 8526,
      "pursu": 8527,
      "slaves": 8528,
      "##imedia": 8529,
      "fewer": 8530,
      "photography": 8531,
      "acquisition": 8532,
      "executed": 8533,
      "altitude": 8534,
      "villages": 8535,
      "preferences": 8536,
      "bridge": 8537,
      "strikes": 8538,
      "##olithic": 8539,
      "concerning": 8540,
      "foss": 8541,
      "rab": 8542,
      "##cy": 8543,
      "##zy": 8544,
      "##oric": 8545,
      "##isations": 8546,
      "##ulating": 8547,
      "trick": 8548,
      "##aken": 8549,
      "allen": 8550,
      "accident": 8551,
      "popul": 8552,
      "varies": 8553,
      "exposed": 8554,
      "explored": 8555,
      "##books": 8556,
      "divide": 8557,
      "determining": 8558,
      "returns": 8559,
      "philosophers": 8560,
      "reading": 8561,
      "provincial": 8562,
      "assumption": 8563,
      "emphasized": 8564,
      "bowl": 8565,
      "jeff": 8566,
      "surgical": 8567,
      "athletic": 8568,
      "wrest": 8569,
      "neutrality": 8570,
      "mutual": 8571,
      "answ": 8572,
      "presidency": 8573,
      "convergence": 8574,
      "rugby": 8575,
      "soundtrack": 8576,
      "impossible": 8577,
      "08": 8578,
      "bos": 8579,
      "cel": 8580,
      "dy": 8581,
      "dated": 8582,
      "dream": 8583,
      "pyth": 8584,
      "sri": 8585,
      "sectors": 8586,
      "##ns": 8587,
      "##path": 8588,
      "##house": 8589,
      "##91": 8590,
      "##elle": 8591,
      "##ollo": 8592,
      "##amics": 8593,
      "##utation": 8594,
      "##osure": 8595,
      "arthur": 8596,
      "##seek": 8597,
      "leban": 8598,
      "intu": 8599,
      "recover": 8600,
      "earned": 8601,
      "transf": 8602,
      "operates": 8603,
      "1913": 8604,
      "designated": 8605,
      "crus": 8606,
      "writes": 8607,
      "legit": 8608,
      "posts": 8609,
      "harbor": 8610,
      "1953": 8611,
      "claude": 8612,
      "integer": 8613,
      "recognised": 8614,
      "##ylv": 8615,
      "dominance": 8616,
      "narr": 8617,
      "duty": 8618,
      "km2": 8619,
      "petro": 8620,
      "enhance": 8621,
      "pseudoscience": 8622,
      "scheme": 8623,
      "deployed": 8624,
      "diminished": 8625,
      "indonesia": 8626,
      "amazon": 8627,
      "isaac": 8628,
      "ded": 8629,
      "joe": 8630,
      "nurs": 8631,
      "ranks": 8632,
      "sie": 8633,
      "##net": 8634,
      "##pur": 8635,
      "##place": 8636,
      "spacefl": 8637,
      "mainland": 8638,
      "electoral": 8639,
      "greg": 8640,
      "ell": 8641,
      "famine": 8642,
      "1959": 8643,
      "grown": 8644,
      "compete": 8645,
      "deepseek": 8646,
      "taxonomy": 8647,
      "pakistani": 8648,
      "expressions": 8649,
      "threatened": 8650,
      "drafted": 8651,
      "lux": 8652,
      "racial": 8653,
      "murder": 8654,
      "customers": 8655,
      "nobel": 8656,
      "procedures": 8657,
      "administered": 8658,
      "orthogonal": 8659,
      "furn": 8660,
      "ton": 8661,
      "##iography": 8662,
      "##water": 8663,
      "thai": 8664,
      "##erb": 8665,
      "##inth": 8666,
      "##igible": 8667,
      "##ishment": 8668,
      "plural": 8669,
      "scores": 8670,
      "partly": 8671,
      "pref": 8672,
      "organised": 8673,
      "extend": 8674,
      "practiced": 8675,
      "releases": 8676,
      "explore": 8677,
      "entit": 8678,
      "prince": 8679,
      "identical": 8680,
      "speak": 8681,
      "heads": 8682,
      "estimate": 8683,
      "contribute": 8684,
      "bands": 8685,
      "neighbor": 8686,
      "answer": 8687,
      "spiritual": 8688,
      "delivery": 8689,
      "linguistic": 8690,
      "jurisd": 8691,
      "stochastic": 8692,
      "03": 8693,
      "66": 8694,
      "cant": 8695,
      "drop": 8696,
      "fant": 8697,
      "mt": 8698,
      "rna": 8699,
      "voted": 8700,
      "##rence": 8701,
      "##eenth": 8702,
      "##erts": 8703,
      "##ingly": 8704,
      "alan": 8705,
      "##pled": 8706,
      "trends": 8707,
      "leaves": 8708,
      "amate": 8709,
      "robots": 8710,
      "##ront": 8711,
      "10th": 8712,
      "retained": 8713,
      "electro": 8714,
      "ordinary": 8715,
      "entity": 8716,
      "skill": 8717,
      "1933": 8718,
      "everything": 8719,
      "capitalist": 8720,
      "ern": 8721,
      "sporting": 8722,
      "subsets": 8723,
      "substance": 8724,
      "broadcasting": 8725,
      "clearly": 8726,
      "horiz": 8727,
      "wearable": 8728,
      "bulgar": 8729,
      "vocal": 8730,
      "carrying": 8731,
      "crypt": 8732,
      "extinction": 8733,
      "nervous": 8734,
      "sophistic": 8735,
      "kid": 8736,
      "np": 8737,
      "none": 8738,
      "pale": 8739,
      "ritual": 8740,
      "som": 8741,
      "vel": 8742,
      "##va": 8743,
      "##hr": 8744,
      "##han": 8745,
      "##western": 8746,
      "##eries": 8747,
      "##anz": 8748,
      "##itter": 8749,
      "##iling": 8750,
      "##ading": 8751,
      "compens": 8752,
      "afford": 8753,
      "basin": 8754,
      "creates": 8755,
      "powered": 8756,
      "approval": 8757,
      "longest": 8758,
      "protests": 8759,
      "##asht": 8760,
      "russell": 8761,
      "barst": 8762,
      "14th": 8763,
      "antiqu": 8764,
      "receives": 8765,
      "superint": 8766,
      "facility": 8767,
      "cyber": 8768,
      "##exp": 8769,
      "graduates": 8770,
      "targeted": 8771,
      "theorems": 8772,
      "minimal": 8773,
      "llm": 8774,
      "familiar": 8775,
      "walls": 8776,
      "wrong": 8777,
      "perspect": 8778,
      "honor": 8779,
      "coordin": 8780,
      "injury": 8781,
      "surrendered": 8782,
      "twentieth": 8783,
      "dataset": 8784,
      "editor": 8785,
      "allocation": 8786,
      "shuttle": 8787,
      "acknowled": 8788,
      "circumstances": 8789,
      "spaceflight": 8790,
      "bah": 8791,
      "ibn": 8792,
      "loy": 8793,
      "pocket": 8794,
      "tape": 8795,
      "##iards": 8796,
      "##bot": 8797,
      "##35": 8798,
      "##onent": 8799,
      "ineff": 8800,
      "##standing": 8801,
      "##emed": 8802,
      "##ider": 8803,
      "anarch": 8804,
      "##abis": 8805,
      "##achal": 8806,
      "server": 8807,
      "##ropol": 8808,
      "engines": 8809,
      "brian": 8810,
      "surplus": 8811,
      "organisation": 8812,
      "advice": 8813,
      "##enger": 8814,
      "representations": 8815,
      "lowest": 8816,
      "references": 8817,
      "producers": 8818,
      "elementary": 8819,
      "analyst": 8820,
      "suitable": 8821,
      "murd": 8822,
      "romans": 8823,
      "reproduction": 8824,
      "spectrum": 8825,
      "merged": 8826,
      "negotiations": 8827,
      "installed": 8828,
      "namely": 8829,
      "chairman": 8830,
      "abandoned": 8831,
      "predominantly": 8832,
      "marriage": 8833,
      "daniel": 8834,
      "41": 8835,
      "54": 8836,
      "gains": 8837,
      "pad": 8838,
      "sig": 8839,
      "vich": 8840,
      "check": 8841,
      "regist": 8842,
      "prep": 8843,
      "parents": 8844,
      "export": 8845,
      "equipped": 8846,
      "planets": 8847,
      "controls": 8848,
      "identification": 8849,
      "specialties": 8850,
      "referring": 8851,
      "anticip": 8852,
      "effectiveness": 8853,
      "republicans": 8854,
      "painted": 8855,
      "agreements": 8856,
      "literary": 8857,
      "difficulty": 8858,
      "covid": 8859,
      "umg": 8860,
      "newspapers": 8861,
      "encompasses": 8862,
      "fabric": 8863,
      "protocol": 8864,
      "phrase": 8865,
      "nadu": 8866,
      "stretch": 8867,
      "barstool": 8868,
      "vichy": 8869,
      "bull": 8870,
      "eld": 8871,
      "fost": 8872,
      "sample": 8873,
      "tag": 8874,
      "tib": 8875,
      "inference": 8876,
      "##iter": 8877,
      "##itely": 8878,
      "andre": 8879,
      "##aded": 8880,
      "##igoth": 8881,
      "##idents": 8882,
      "suits": 8883,
      "spin": 8884,
      "polar": 8885,
      "abol": 8886,
      "cook": 8887,
      "##icted": 8888,
      "fungi": 8889,
      "applies": 8890,
      "apollo": 8891,
      "driving": 8892,
      "correl": 8893,
      "collections": 8894,
      "criteria": 8895,
      "amongst": 8896,
      "swe": 8897,
      "engineer": 8898,
      "11th": 8899,
      "predecess": 8900,
      "encoun": 8901,
      "battal": 8902,
      "investors": 8903,
      "visigoth": 8904,
      "recognize": 8905,
      "headed": 8906,
      "array": 8907,
      "##wei": 8908,
      "electronics": 8909,
      "surviving": 8910,
      "documented": 8911,
      "innovations": 8912,
      "falcon": 8913,
      "trials": 8914,
      "achievement": 8915,
      "pierre": 8916,
      "harvard": 8917,
      "napoleon": 8918,
      "witness": 8919,
      "valuable": 8920,
      "##ylvania": 8921,
      "awar": 8922,
      "craft": 8923,
      "hans": 8924,
      "rud": 8925,
      "tone": 8926,
      "##ml": 8927,
      "##teen": 8928,
      "##76": 8929,
      "##str": 8930,
      "oral": 8931,
      "chance": 8932,
      "indies": 8933,
      "##ika": 8934,
      "someone": 8935,
      "supports": 8936,
      "signs": 8937,
      "corruption": 8938,
      "patron": 8939,
      "southwest": 8940,
      "1500": 8941,
      "profile": 8942,
      "178": 8943,
      "identifying": 8944,
      "civilizations": 8945,
      "1955": 8946,
      "providers": 8947,
      "contracts": 8948,
      "findings": 8949,
      "karnat": 8950,
      "franco": 8951,
      "commentators": 8952,
      "enabling": 8953,
      "depicted": 8954,
      "borrow": 8955,
      "buddhist": 8956,
      "injection": 8957,
      "homosexuality": 8958,
      "roger": 8959,
      "scheduled": 8960,
      "bulgaria": 8961,
      "awareness": 8962,
      "ahead": 8963,
      "cs": 8964,
      "fi": 8965,
      "lob": 8966,
      "sale": 8967,
      "yang": 8968,
      "##vis": 8969,
      "##fire": 8970,
      "##kov": 8971,
      "##ams": 8972,
      "##adi": 8973,
      "##ersion": 8974,
      "##ayer": 8975,
      "##ques": 8976,
      "resemb": 8977,
      "reserve": 8978,
      "##ghan": 8979,
      "fred": 8980,
      "franch": 8981,
      "fresh": 8982,
      "centered": 8983,
      "subd": 8984,
      "underground": 8985,
      "politically": 8986,
      "posit": 8987,
      "suppress": 8988,
      "extensively": 8989,
      "armen": 8990,
      "bund": 8991,
      "writings": 8992,
      "175": 8993,
      "##box": 8994,
      "factories": 8995,
      "harsh": 8996,
      "1954": 8997,
      "1921": 8998,
      "philosopher": 8999,
      "accessible": 9000,
      "walk": 9001,
      "indicated": 9002,
      "regularly": 9003,
      "automated": 9004,
      "legislature": 9005,
      "getting": 9006,
      "episodes": 9007,
      "springer": 9008,
      "renewable": 9009,
      "subspace": 9010,
      "cinema": 9011,
      "manifold": 9012,
      "adoption": 9013,
      "matters": 9014,
      "lunar": 9015,
      "perspectives": 9016,
      "karnataka": 9017,
      "daughter": 9018,
      "mamm": 9019,
      "pc": 9020,
      "ts": 9021,
      "voy": 9022,
      "##rt": 9023,
      "##zon": 9024,
      "##gu": 9025,
      "thor": 9026,
      "##stor": 9027,
      "##ivism": 9028,
      "##emann": 9029,
      "styl": 9030,
      "shah": 9031,
      "scot": 9032,
      "height": 9033,
      "##rition": 9034,
      "canal": 9035,
      "embr": 9036,
      "module": 9037,
      "relating": 9038,
      "instances": 9039,
      "metres": 9040,
      "specified": 9041,
      "supposed": 9042,
      "signals": 9043,
      "airport": 9044,
      "singular": 9045,
      "profits": 9046,
      "solved": 9047,
      "combining": 9048,
      "initiated": 9049,
      "lasting": 9050,
      "availability": 9051,
      "choices": 9052,
      "robust": 9053,
      "judg": 9054,
      "citing": 9055,
      "assistive": 9056,
      "acquire": 9057,
      "exchang": 9058,
      "survived": 9059,
      "survival": 9060,
      "thousand": 9061,
      "permitted": 9062,
      "hypothes": 9063,
      "##omorphic": 9064,
      "pushed": 9065,
      "attracted": 9066,
      "electricity": 9067,
      "stanley": 9068,
      "subscrib": 9069,
      "##osomes": 9070,
      "dollars": 9071,
      "waters": 9072,
      "density": 9073,
      "send": 9074,
      "utt": 9075,
      "xai": 9076,
      "yellow": 9077,
      "##rin": 9078,
      "##lywood": 9079,
      "rear": 9080,
      "spher": 9081,
      "unified": 9082,
      "##unction": 9083,
      "artwork": 9084,
      "boeing": 9085,
      "relief": 9086,
      "metropol": 9087,
      "preserve": 9088,
      "revival": 9089,
      "argent": 9090,
      "ruler": 9091,
      "visible": 9092,
      "facts": 9093,
      "acceptance": 9094,
      "treas": 9095,
      "donald": 9096,
      "teachers": 9097,
      "verb": 9098,
      "virtually": 9099,
      "philippine": 9100,
      "challenged": 9101,
      "archaeological": 9102,
      "vacu": 9103,
      "embedding": 9104,
      "sleep": 9105,
      "intersection": 9106,
      "sudden": 9107,
      "sunday": 9108,
      "superintellig": 9109,
      "62": 9110,
      "83": 9111,
      "bones": 9112,
      "cort": 9113,
      "celt": 9114,
      "lect": 9115,
      "tail": 9116,
      "##aid": 9117,
      "##pal": 9118,
      "##zer": 9119,
      "chose": 9120,
      "exceed": 9121,
      "plot": 9122,
      "client": 9123,
      "recovery": 9124,
      "newton": 9125,
      "sociology": 9126,
      "americas": 9127,
      "proven": 9128,
      "charged": 9129,
      "physiology": 9130,
      "owner": 9131,
      "slav": 9132,
      "broadly": 9133,
      "##ipping": 9134,
      "arabia": 9135,
      "merely": 9136,
      "##ammu": 9137,
      "frequent": 9138,
      "threats": 9139,
      "shifted": 9140,
      "escal": 9141,
      "dialogue": 9142,
      "improvement": 9143,
      "merchant": 9144,
      "merchants": 9145,
      "##otype": 9146,
      "aux": 9147,
      "inflation": 9148,
      "mesopotamia": 9149,
      "decisive": 9150,
      "arose": 9151,
      "liquid": 9152,
      "entitled": 9153,
      "84": 9154,
      "batch": 9155,
      "dere": 9156,
      "diet": 9157,
      "kon": 9158,
      "kiz": 9159,
      "ninet": 9160,
      "rating": 9161,
      "ruth": 9162,
      "wise": 9163,
      "##ao": 9164,
      "##view": 9165,
      "##hist": 9166,
      "##hra": 9167,
      "##gb": 9168,
      "##icket": 9169,
      "##omon": 9170,
      "##emen": 9171,
      "whig": 9172,
      "really": 9173,
      "##oven": 9174,
      "##ardo": 9175,
      "artif": 9176,
      "studios": 9177,
      "##ieties": 9178,
      "##fty": 9179,
      "brad": 9180,
      "bihar": 9181,
      "conclusion": 9182,
      "locally": 9183,
      "designers": 9184,
      "methodology": 9185,
      "1935": 9186,
      "competit": 9187,
      "versa": 9188,
      "helping": 9189,
      "achieving": 9190,
      "projection": 9191,
      "payment": 9192,
      "mixt": 9193,
      "doctorate": 9194,
      "precise": 9195,
      "brahm": 9196,
      "francis": 9197,
      "incorporate": 9198,
      "##fields": 9199,
      "nominated": 9200,
      "tensions": 9201,
      "trophy": 9202,
      "impression": 9203,
      "##iatric": 9204,
      "transmission": 9205,
      "spirit": 9206,
      "mlb": 9207,
      "neighbourhood": 9208,
      "inquiry": 9209,
      "kizuna": 9210,
      "dh": 9211,
      "din": 9212,
      "hired": 9213,
      "jammu": 9214,
      "lud": 9215,
      "ry": 9216,
      "sick": 9217,
      "##uating": 9218,
      "##ping": 9219,
      "##mond": 9220,
      "##isely": 9221,
      "##acies": 9222,
      "##urning": 9223,
      "stead": 9224,
      "sugar": 9225,
      "inclusion": 9226,
      "lew": 9227,
      "scand": 9228,
      "contest": 9229,
      "syl": 9230,
      "afghan": 9231,
      "goth": 9232,
      "marks": 9233,
      "boys": 9234,
      "consp": 9235,
      "aggr": 9236,
      "regulated": 9237,
      "twel": 9238,
      "paras": 9239,
      "geology": 9240,
      "biases": 9241,
      "demographic": 9242,
      "deput": 9243,
      "##essional": 9244,
      "johann": 9245,
      "##elson": 9246,
      "1929": 9247,
      "thirds": 9248,
      "denied": 9249,
      "debt": 9250,
      "missile": 9251,
      "violent": 9252,
      "turning": 9253,
      "hinton": 9254,
      "dealing": 9255,
      "measurement": 9256,
      "winds": 9257,
      "horse": 9258,
      "merger": 9259,
      "buddhism": 9260,
      "penns": 9261,
      "licensed": 9262,
      "sweden": 9263,
      "##rightarrow": 9264,
      "sophisticated": 9265,
      "gate": 9266,
      "jones": 9267,
      "wish": 9268,
      "waves": 9269,
      "zo": 9270,
      "zones": 9271,
      "##rage": 9272,
      "##vi": 9273,
      "##73": 9274,
      "##inn": 9275,
      "##ario": 9276,
      "##ili": 9277,
      "##ersed": 9278,
      "exter": 9279,
      "##essions": 9280,
      "##iful": 9281,
      "arise": 9282,
      "trillion": 9283,
      "warm": 9284,
      "warner": 9285,
      "2010s": 9286,
      "assyr": 9287,
      "##oker": 9288,
      "undert": 9289,
      "actively": 9290,
      "quot": 9291,
      "surf": 9292,
      "valuation": 9293,
      "northwest": 9294,
      "archive": 9295,
      "explos": 9296,
      "seeks": 9297,
      "raid": 9298,
      "raise": 9299,
      "1922": 9300,
      "beta": 9301,
      "arrested": 9302,
      "frontier": 9303,
      "fifa": 9304,
      "grounds": 9305,
      "younger": 9306,
      "disputes": 9307,
      "improvements": 9308,
      "compounds": 9309,
      "elsewhere": 9310,
      "##burgh": 9311,
      "riots": 9312,
      "##oameric": 9313,
      "loyal": 9314,
      "uttar": 9315,
      "twelve": 9316,
      "04": 9317,
      "05": 9318,
      "99": 9319,
      "daw": 9320,
      "kit": 9321,
      "ok": 9322,
      "sort": 9323,
      "sons": 9324,
      "tab": 9325,
      "votes": 9326,
      "yam": 9327,
      "##hel": 9328,
      "##inals": 9329,
      "##oding": 9330,
      "##uma": 9331,
      "##ogene": 9332,
[...]
