[PAD]
[UNK]
[CLS]
[SEP]
[MASK]
!
"
#
$
%
&
'
(
)
*
+
,
-
.
/
0
1
2
3
4
5
6
7
8
9
:
;
<
=
>
?
@
[
\
]
^
_
`
a
b
c
d
e
f
g
h
i
j
k
l
m
n
o
p
q
r
s
t
u
v
w
x
y
z
{
|
}
~
£
¥
§
¨
«
¬
®
¯
°
±
²
´
·
º
»
½
¾
¿
×
ß
æ
ð
÷
ø
đ
ı
ł
ŋ
œ
ƒ
ƥ
ƹ
ƿ
ȡ
ɐ
ɑ
ɒ
ɔ
ɖ
ɗ
ə
ɚ
ɛ
ɜ
ɡ
ɪ
ɫ
ɭ
ɸ
ɽ
ɾ
ʁ
ʃ
ʊ
ʌ
ʍ
ʎ
ʒ
ʔ
ʰ
ʱ
ʲ
ʻ
ʼ
ʾ
ʿ
ˈ
ˌ
ː
ˑ
˙
˚
ˠ
α
β
γ
δ
ε
ζ
η
θ
ι
κ
λ
μ
ν
ξ
ο
π
ρ
ς
σ
τ
υ
φ
χ
ψ
ω
ϕ
ϵ
а
б
в
г
д
е
ж
з
и
к
л
м
н
о
п
р
с
т
у
ф
х
ц
ч
ш
щ
ъ
ы
ь
э
ю
я
і
ү
א
ג
ד
ה
ו
ח
י
ם
ן
נ
ע
ר
ש
ء
ا
ت
ج
خ
د
ر
س
ش
ص
ط
ع
ف
ق
ك
ل
م
ن
ه
و
ي
چ
ی
आ
क
ख
ग
घ
च
ज
ञ
ट
ठ
ड
ण
त
द
ध
न
प
ब
भ
म
य
र
ल
व
श
ष
स
ह
ा
ि
ी
ो
ং
অ
ক
খ
চ
ত
দ
ধ
ন
ব
ভ
ম
য
র
ল
স
া
ি
ী
ে
ৰ
ਗ
ਭ
ਾ
ੜ
ତ
ଧ
ନ
ବ
ଭ
ମ
ର
ସ
ା
இ
ந
ப
ம
ய
ல
ி
ு
ை
ം
ക
യ
റ
ല
ി
േ
ก
ค
ฆ
จ
ฉ
ณ
ท
น
ม
ย
ร
ษ
ส
ห
อ
า
โ
ไ
ᄀ
ᄃ
ᄅ
ᄆ
ᄇ
ᄉ
ᄊ
ᄋ
ᄌ
ᄎ
ᄏ
ᄒ
ᅡ
ᅢ
ᅥ
ᅦ
ᅧ
ᅨ
ᅩ
ᅪ
ᅫ
ᅭ
ᅮ
ᅳ
ᅵ
ᆨ
ᆫ
ᆯ
ᆷ
ᆸ
ᆼ
ក
ខ
ង
ច
ជ
ញ
ឌ
ណ
ត
ថ
ទ
ន
ប
ភ
យ
រ
ល
វ
ស
ឡ
ឬ
ា
េ
៖
ᴥ
ᵊ
ẚ
‐
‑
–
—
―
‖
‘
’
“
”
„
†
‡
•
…
′
″
‹
›
⁄
₃
€
₱
₹
₿
ℑ
ℓ
ℜ
™
ℵ
ℶ
←
→
↔
↦
↪
⇒
⇔
∀
∁
∂
∃
∅
∇
∈
∊
∋
∏
∐
∑
−
∓
∖
∗
∘
∙
√
∝
∞
∣
∥
∧
∨
∩
∪
∫
∬
∮
∴
∵
∼
≀
≃
≅
≈
≜
≝
≡
≤
≥
≦
≧
≪
≫
≻
≼
≽
⊂
⊃
⊆
⊇
⊊
⊋
⊔
⊕
⊖
⊗
⊙
⊤
⊥
⊲
⊴
⊻
⋂
⋃
⋅
⋆
⋉
⋊
⋔
⋮
⋯
⋱
⌈
⌉
⌊
⌋
⏞
⏟
─
┌
┐
╥
╨
▀
▄
█
░
▒
▓
■
□
△
○
◘
◻
☡
☺
☿
♂
♃
♄
♡
♥
♭
♯
➡
⟨
⟩
⟹
⟺
⠀
⠁
⠋
⠙
⠟
⠻
⠿
⡈
⡟
⡷
⡿
⢀
⢁
⢻
⢿
⣌
⣠
⣴
⣶
⣷
⣼
⣾
⣿
⨁
⨆
⩽
⩾
ⱷ
『
』
〜
い
け
つ
て
に
の
ひ
ま
ゃ
よ
る
ん
ア
イ
エ
オ
カ
キ
ク
コ
サ
シ
ス
ッ
テ
ト
ナ
ニ
ノ
ハ
ヒ
フ
ヘ
ホ
マ
ム
メ
ラ
リ
ル
ン
・
ー
一
三
上
不
中
丸
主
乃
之
乙
九
争
事
二
五
亜
京
人
代
仪
件
会
伝
伽
余
供
保
候
倭
傳
像
光
兜
全
八
公
六
内
切
初
利
刮
前
創
功
加
动
動
包
化
北
医
十
南
占
卫
印
发
史
叶
号
司
合
同
名
向
吳
周
商
問
啓
四
因
図
固
国
國
圓
土
地
報
塔
壁
士
変
大
天
太
夫
央
夷
奇
女
妇
婦
子
字
学
學
安
宋
实
宫
寒
将
小
少
山
岭
島
州
工
巻
帝
幕
平
年
府
度
康
廟
异
式
張
强
彌
影
征
徐
御
心
志
急
恋
愛
慈
慶
戒
戦
打
抱
抹
拔
拳
挡
推
摄
攝
改
政
整
數
文
断
新
方
日
旦
明
春
昭
時
智
暗
書
月
望
朝
期
木
未
本
李
東
松
校
株
根
桃
梅
棕
楓
楚
楠
業
概
欢
正
步
歸
死
毒
氏
民
气
氣
水
永
沢
治
沼
法
泥
洋
津
派
流
海
液
淫
淳
温
測
港
溫
漂
漢
潘
火
灸
炎
热
焦
煦
燕
營
燥
特
現
瑕
生
用
男
画
病
痧
療
皇
矢
硬
碑
社
祖
神
祠
福
科
称
積
空
立
竺
等
算
篤
精
索
紫
絆
統
經
縣
纲
经
结
络
维
编
罐
羂
羅
美
者
聞
肚
肝
肺
胃
胱
胸
脈
脉
脏
脾
腎
腑
腸
腹
膽
臟
舟
色
艾
若
草
萤
营
葛
董
蒙
蒲
薫
藤
虎
虚
虫
蛋
蟬
血
衆
術
衛
衢
表
袖
被
襟
襠
西
要
観
解
詳
護
证
诃
课
財
賢
贝
起
跌
身
軍
辩
農
進
運
道
邪
部
醫
里
金
針
録
鏡
門
開
関
防
阳
阿
院
陳
靈
青
面
音
響
顔
風
风
飞
骨
髀
鮮
鶏
鹰
麻
黄
龍
ꜣ
，
～
𝓛
𝔠
𝛿
𝜆
🌈
##a
##r
##u
##e
##v
##n
##y
##l
##i
##s
##p
##o
##c
##h
##w
##z
##m
##g
##f
##d
##b
##k
##0
##3
##t
##x
##q
##4
##7
##2
##1
##j
##6
##8
##5
##×
##9
##ι
##α
##ν
##η
##μ
##ق
##ه
##σ
##τ
##ρ
##ε
##°
##ο
##р
##о
##н
##т
##в
##и
##к
##ʿ
##ញ
##ា
##ប
##ត
##រ
##ɔ
##ː
##ɪ
##ŋ
##л
##ж
##ł
##♭
##∗
##э
##с
##व
##ि
##ध
##ा
##न
##म
##ʻ
##υ
##φ
##ᅡ
##ᆫ
##ᄒ
##ᅪ
##δ
##द
##ы
##а
##я
##ς
##া
##র
##ত
##ক
##ী
##у
##κ
##∞
##त
##र
##ग
##м
##п
##е
##æ
##θ
##ᅩ
##ᄃ
##ᅳ
##ᆼ
##ᆨ
##ᄀ
##ᅭ
##⣿
##⣷
##⣶
##ी
##क
##⊥
##ो
##ल
##য
##ন
##ি
##ମ
##ବ
##ଧ
##ା
##ନ
##ə
##®
##ス
##ナ
##ア
##イ
##の
##ク
##ラ
##ン
##フ
##ル
##ɛ
##い
##ᅵ
##ᆯ
##ᄌ
##ᅦ
##ᄋ
##ᆷ
##ɚ
##ð
##リ
##ー
##オ
##ト
##ニ
##ッ
##ホ
##ү
##ω
##γ
##ꜣ
##ᄉ
##ᅢ
##œ
##⁄
##ß
##ı
##²
##→
##خ
##ص
##ɭ
##λ
##¬
##χ
##і
##⠟
##⢁
##⣴
##⡿
##⠋
##⣠
##⣾
##ʾ
##ь
##♯
##ब
##प
##ξ
##ʰ
##ø
##א
##ו
##נ
##י
##ם
##य
##マ
##ヒ
##け
##る
##メ
##キ
##シ
##コ
##ष
##ण
##श
##स
##⊤
##−
##г
##ม
##ท
##ร
##โ
##ฆ
##ษ
##ค
##ฉ
##น
##ˑ
##カ
##™
##з
##ц
##ч
##ˈ
##ɾ
##ᅮ
##ᄏ
##ᄅ
##ᅥ
##ᆸ
##ʒ
##ע
##ש
##ר
##ן
##ड
##ח
##∩
##ਗ
##ੜ
##ਾ
##½
##つ
##て
##б
##ʊ
##⡷
##⢀
##⠀
##х
##ʲ
##ʃ
##⣌
##⠙
##⢿
##ʌ
##ⱷ
##ᴥ
##≼
##ت
##ر
##ن
##д
##ل
##ا
##د
##ट
##ɜ
##đ
##ي
##π
##ह
##ひ
##ま
##¥
##ج
##ᄇ
##⢻
##ञ
##ज
##´
##ʔ
##∈
##ю
##ର
##ତ
##ʼ
##റ
##ി
##യ
##ം
##ɡ
##ᵊ
##ᄆ
##ɗ
##ʱ
##េ
##ជ
##ណ
##ឌ
##♥
##⡈
##م
##ع
##و
##س
##₃
##វ
##ស
##ゃ
##ん
##ɖ
##ி
##ய
##ல
##ம
##ை
##ப
##ு
##ে
##ד
##□
##খ
##ল
##щ
##ф
##ʁ
##ʎ
##ɐ
##⠿
##ឡ
##ង
##ច
##ថ
##ន
##ក
##យ
##ខ
##ភ
##ល
##দ
##ৰ
##ɫ
##ᄎ
##ك
##ی
##ء
##ط
##ヘ
##ठ
##ং
##⠁
##ᄊ
##ᅧ
##⋊
##ទ
##േ
##ല
##⠻
##⡟
##⊴
##ъ
##√
##ɒ
##エ
##ˠ
##ব
##ধ
##ᅫ
##ᅨ
##ந
##⋅
##∇
##ห
##า
##อ
##ณ
##จ
##ก
##ไ
##ย
##ƥ
##ȡ
##˚
##⣼
##ẚ
th
the
##er
##on
##in
##at
##es
##ed
##en
##nd
##or
##al
in
##an
of
##ar
##ic
##it
##is
##ion
and
##ing
##as
##ro
to
##re
##ent
##le
##om
##st
##el
##ou
##ec
##ol
##ac
##et
##il
##ation
##th
##iv
##am
##ur
as
for
##ly
is
##em
##ts
st
##ch
on
##ad
##ers
##ce
##ig
##id
##ir
wh
con
re
##ut
##im
al
##ul
##ith
an
##ter
pro
be
##ay
##ow
##ct
##us
by
that
##ist
su
##ot
with
com
or
##ies
was
19
##os
##ver
ch
##ain
sp
ex
##od
de
##ap
##ical
20
##ab
##ess
##um
##og
##op
##if
##ag
##ial
##pl
ar
##and
##ity
##ate
##av
##ian
##ud
pr
are
##oc
##rom
##ia
##ear
un
##est
##ment
from
tr
it
##un
##ere
us
at
##ive
ind
##ich
ne
en
##ld
se
##ect
##art
##ated
dis
comp
##ions
##qu
##ine
##pp
##igh
##ence
wor
inc
sh
which
##ish
##ak
##all
##se
le
##ib
##ill
##iz
##ther
##ort
were
##ant
res
##ore
pl
##ary
int
##ell
##ost
sc
##pt
##olog
not
this
##rou
##ge
##ath
##ics
##ure
##ov
cont
##gh
cl
##act
ad
##erm
##ard
##ace
##ast
##ations
##our
##per
##cc
all
he
##ans
##ber
##ip
##du
##end
##ach
##oun
##ave
##ame
im
##ie
##ous
##ust
##rit
its
##ong
##ory
##ome
part
##so
##ual
##ition
war
inter
sy
man
##00
can
##ult
their
##lud
##ech
am
##ign
pol
also
have
##ue
##ass
##onom
af
##ra
comm
##fer
##for
go
ab
such
includ
##ction
201
has
ec
per
##ance
gen
fir
art
fr
rec
##ub
##ational
##ks
##ates
cent
##ry
ph
em
med
##ely
mar
##ord
mod
##ology
mus
new
##yle
bo
first
##ould
##gr
##ific
##vel
##ces
##etw
other
form
##ight
##age
##ang
##ire
econom
one
##ents
##ens
##play
##ied
dec
##able
##ide
##ru
they
##ism
##echn
sci
had
des
##ik
te
ev
display
##ack
his
##ime
bec
##pr
but
##style
##ount
##ound
##form
cons
col
ag
more
bas
##out
200
app
world
techn
##ced
displaystyle
##stem
##ile
##ice
##amp
sub
ser
india
##ater
##ning
system
over
##ree
und
reg
tw
##ular
##ff
##ors
##uring
##ric
space
been
some
acc
gener
used
rel
ass
pre
##ok
stud
##own
ear
##ited
inv
into
co
math
me
##gan
these
##ose
year
under
202
##een
##velop
##ative
most
##ys
develop
we
soc
imp
##ubl
##ond
hist
after
who
may
produ
ma
##ities
##rop
##are
two
##ough
ro
betw
between
##iet
inst
there
##tern
ele
##rap
##ivers
kn
##reat
##ists
fe
num
def
##ite
out
ac
during
##ade
many
##ft
##oin
trans
##ally
pe
met
act
so
par
##erman
music
##ious
att
nor
pres
##rough
##ution
how
spec
gover
##ict
ge
##ep
##eric
##land
off
##ten
time
##aw
set
##low
18
dif
pop
than
govern
count
##ail
do
##ural
##ury
##ines
fin
eng
##rib
rep
##ase
lar
##eld
194
##raph
min
br
##ern
when
german
work
##ph
states
play
##ement
americ
mon
grou
high
##iss
##ms
##ved
##les
##aus
199
polit
sec
fol
##te
##ve
cap
##ized
use
eu
##apan
model
hum
japan
##ri
through
would
up
publ
sch
ai
science
##ons
##als
##earch
##ob
id
bi
call
class
qu
var
##orts
intern
##ember
univers
##emat
##old
##ject
including
str
lear
only
ob
##ike
##ating
cre
century
inf
##ians
prov
while
government
mathemat
national
sim
disc
##ures
000
##ered
differ
pos
supp
##ility
##ograph
group
found
##hip
fun
bl
##ral
brit
pow
##ug
##lish
term
##ings
##0s
dist
##ward
##ket
united
sur
gr
##one
research
progr
end
exp
##ically
##ted
technology
ap
##xt
##ake
##yp
##illion
##row
follow
fil
if
sou
where
est
no
val
##ey
state
medic
history
about
dat
both
car
##ments
add
##ient
##ision
organ
maj
fl
sin
sign
well
social
##ork
air
rem
##cept
##ank
##ert
known
called
peop
##red
##ise
##ese
equ
based
oper
##ield
major
rev
eff
europ
##led
sports
##ever
ext
comput
comple
years
europe
number
##enc
char
human
learning
mov
dem
nat
arm
##ital
any
often
##ample
them
##its
##ization
const
partic
##cess
early
##sp
became
people
adv
medicine
##ind
##ale
##ood
##imes
however
american
##rol
##ially
##az
mil
main
##att
sm
198
##erg
trad
##ained
example
being
##ruct
##ually
will
##ier
dep
##ss
indian
program
##ily
appro
##iew
again
different
pers
##ects
##her
political
##ession
##ann
bel
##omen
sing
##ices
##ew
##plic
theory
##aining
##ild
197
##ble
general
##wn
##ays
##ues
##up
lead
##io
##uss
like
data
##ron
bu
made
resp
incre
##ulation
10
##ological
economic
##urn
##bers
conc
desc
contin
british
then
##ange
since
op
196
##ased
later
occ
##alth
sa
university
##ages
commun
##oy
dr
three
##ible
phys
##ix
##round
compan
##ined
process
##omet
##ool
anal
##anc
typ
##ences
ret
poin
dire
peri
loc
##ause
ed
mat
period
consid
economics
##und
each
public
##ior
##ful
det
cor
bro
##ery
elect
ann
record
##ames
##fore
##elf
pract
la
red
##ting
sever
gu
support
191
pat
##ivid
cult
million
##igin
south
##olution
##ai
lang
include
ord
##eng
##ident
origin
colle
design
cr
film
common
rele
study
serv
japanese
##aking
##ock
power
##ention
could
writ
plan
milit
gre
##ives
##osed
##ived
mu
##hod
second
systems
field
women
##ised
##lu
development
netw
lab
mem
king
modern
against
direct
##iqu
perform
method
el
##til
##ah
function
international
long
exper
dom
same
country
four
mach
15
inform
non
prof
sov
using
soviet
langu
##ries
repr
her
##itions
##uc
##very
control
chr
medical
north
several
##cl
fam
##rodu
##ently
emp
##ively
arch
large
mult
open
##br
real
##ipl
##ina
land
##ason
##ize
##oh
larg
##itional
expl
team
##ablish
military
##ued
##other
ent
##ories
allow
sk
began
own
##ency
17
within
gl
establish
prom
series
##itut
requ
school
geograph
##ins
led
cell
##ished
result
##ains
##uth
##bo
christ
crit
top
av
##ross
##erv
fact
##ball
import
prev
193
mid
scient
proble
repres
##par
cur
##get
##oci
##ering
game
prot
histor
accord
influ
##ty
phil
offic
jew
because
before
associ
prin
following
##oman
##ench
##ired
lif
##ick
leg
among
ident
12
until
germany
##por
##yn
conf
##iven
feat
##atic
health
##ague
around
though
those
port
indust
##ash
market
ref
##ont
law
particular
show
16
##estern
##iety
##epend
##au
ter
popular
mathematics
describ
##ton
##ases
party
according
post
##acter
succ
models
aust
prop
independ
ide
great
what
text
##ather
back
developed
##duc
company
information
civ
har
represent
beh
sw
russ
##ified
##ogn
cal
##ateg
army
##oot
nov
iss
region
treat
sol
bar
##air
song
opp
##man
env
##ilar
educ
##ected
##oph
##raft
poss
civil
stat
another
small
##thern
special
president
lib
cour
western
even
similar
low
camp
##itive
195
invol
introdu
uk
##etic
##ene
provid
success
union
##line
alth
##istic
level
although
lin
pur
##aces
##ner
##gin
forces
way
grow
right
##iron
league
due
##ament
start
##sc
##unch
environ
polic
div
various
refer
institut
central
##ability
struct
press
del
##oss
##ission
signific
east
##ights
population
see
much
lit
##ellig
ii
individ
french
##une
list
life
every
present
##ants
stand
##bn
empire
##acy
##dom
bod
language
##res
##ims
##ract
auth
##ribut
individual
##ird
need
countries
14
training
did
eas
##read
##ival
exam
comb
aff
natural
machine
lim
##ars
hel
sym
engine
aug
##ness
left
##ured
win
11
arg
##ium
activ
vide
##ately
alg
##ves
fur
##ploy
##ination
aut
conv
analys
along
ital
sum
important
##ctions
order
considered
person
##ential
##iving
deg
force
launch
applic
far
##ule
pred
joh
##ief
environment
men
sl
view
##ole
spe
pal
significant
care
##ead
france
##put
ant
city
fund
games
ra
point
english
##ense
##enn
capital
enc
##els
exist
##ended
init
computer
approach
##ax
kingdom
esp
european
foc
alb
##orn
isbn
##rain
##erc
appear
##uts
##lect
intellig
##ared
hand
cla
single
##aced
tem
##ret
included
given
good
effect
ins
##ets
13
adm
further
broad
analysis
now
##ister
rece
focus
afric
super
mass
##anu
report
day
just
log
dev
complex
ce
west
chang
times
value
##ances
production
batt
##eral
rest
rad
##ption
mathematical
##ification
prim
china
earth
compet
##ration
##icult
make
##tle
mor
somet
##ocr
invest
network
late
##ull
released
192
character
mater
##gg
fre
conn
established
vers
rul
anim
john
##ked
##ection
wid
##wards
algor
##itution
without
traditional
august
algorith
##ison
vis
##bert
tot
areas
members
third
created
##over
##thers
know
down
##xim
interv
manag
republ
##ector
##ove
glob
il
coun
island
groups
proper
expr
vi
##ane
relig
##ify
place
inte
##aving
defin
june
##oth
recogn
making
##bs
him
anc
##ling
##ensive
eth
education
di
book
##irc
home
##ources
colon
##78
scientific
help
material
vol
less
mal
##asing
behav
##ats
##ements
build
lo
key
still
society
##iction
musl
##jects
##plied
theor
ju
run
princ
##ols
march
old
emerg
former
##inese
near
ris
syn
##acks
impro
become
ast
cert
##yl
chinese
##ware
republic
last
cover
lat
##lam
cost
intelligence
fem
##ouse
methods
death
total
short
hy
usually
relations
mathb
##ley
##ieved
circ
meas
occur
related
body
test
season
geography
separ
territ
author
ir
artific
##ples
album
sat
##na
said
five
fac
oct
event
six
##app
caus
area
##ality
underst
den
join
##iple
video
##med
head
mean
others
##way
##ourn
bet
she
decl
roman
enter
tak
produc
sept
artificial
movement
##ests
economy
coll
determ
case
cond
##ument
bre
free
standard
##ipp
should
local
mic
##ots
##ither
role
word
domin
curr
rather
york
25
##ator
begin
attem
official
deep
september
mag
##sequ
december
bank
cy
numbers
very
##ties
##orks
bus
pass
arr
foot
##king
apr
##ites
sal
##inist
##ender
across
ach
champ
published
concept
announ
##ung
##ches
april
won
priv
##ple
##ades
##ledge
global
##ex
hal
occup
best
specific
addition
##eter
terms
generally
biology
family
pain
cle
##iness
capt
100
name
defined
##ience
##adem
works
policy
pot
##ark
##me
sometimes
qual
rule
grad
##iver
concern
2023
espec
product
po
july
especially
##ending
tele
2024
academ
##ma
##amed
techniqu
written
altern
journ
change
##ving
philos
##ones
978
employ
ancient
functions
problems
mot
geor
doct
janu
tit
students
sold
january
interest
november
project
media
##isms
introduced
integr
held
object
largest
neg
take
practice
ep
ukrain
##idence
quant
ax
##ergy
##li
dise
pa
played
der
canad
opt
##ober
##ether
studies
earl
service
soft
##ators
october
tar
##ature
took
access
reach
applied
##ote
degree
##gy
trade
culture
dyn
revolution
##anding
certain
profession
##dle
##cul
obs
performance
must
##ae
##ored
eastern
hom
##aster
classical
sound
democr
nav
ang
politics
previous
fed
return
##istan
original
agre
##imed
kill
##ode
month
avail
dest
child
elements
##ress
increasing
##sh
base
few
##ably
battle
came
##oid
particip
dig
house
physical
dim
attack
described
ur
##ends
sex
kore
cho
ke
##vers
islam
##ude
redu
##eign
energy
problem
knowledge
either
fut
symb
engineering
fail
micro
networks
deb
##iment
champions
water
##pts
##icians
includes
jewish
possible
announced
##day
isra
vir
##let
chem
##ream
line
##ring
thus
##ension
financ
having
ren
2008
israel
arab
regard
middle
##oks
##bru
estim
##iers
philosoph
tax
demand
business
##ym
##eration
30
repl
front
austral
rights
ill
sup
##ops
artists
hol
ste
means
award
loss
forms
decision
mount
self
2019
subject
strong
africa
vict
contr
produced
instead
does
services
offer
##asion
christian
##lo
##ha
##arily
febru
northern
february
black
parts
et
##ecut
points
sam
2017
age
##iate
artic
coast
##hips
structure
##ising
##enced
##ults
2011
##gypt
egypt
hold
##arian
species
industry
billion
desp
consum
vari
interact
lay
turn
behavior
asia
strateg
##rict
jews
range
growth
##hi
##omb
higher
discipl
er
nas
chur
##osition
##ape
21
##son
##ming
##ke
##izing
contribut
2015
continu
pun
sciences
face
##omp
constitution
categ
dav
miss
##arch
diff
##ecess
russian
nations
sequ
cultural
pap
##ruction
summ
cop
##ilities
scale
norm
schol
continued
##ength
my
##rial
##isions
events
host
map
##ilt
##ource
squ
##ych
sport
sev
launched
##we
2018
cam
pak
typically
independent
##har
##by
influence
particularly
2000
2014
available
bce
##ek
##xic
2020
2021
critic
throughout
examples
bal
##ged
##ler
2016
parties
chann
tex
provide
##aign
##isc
big
despite
fig
evidence
pakistan
gold
sugg
span
division
mit
you
football
##atory
quest
campaign
##ologies
subs
2022
create
consist
rob
respect
confl
formed
portug
hard
wal
southern
institute
sent
##echan
command
britain
communic
express
attempt
ve
##istics
itself
##yt
online
pay
star
22
least
ps
subst
minister
college
journal
target
##ush
##och
distin
leading
##itu
viol
gree
2012
transform
future
##book
##aff
##aries
arts
administ
##inary
2010
accept
associated
tro
chord
center
mechan
rich
##anced
america
association
ball
vector
##anch
##ened
spaces
nature
programs
mer
20th
action
##ises
depart
##apt
above
financial
allied
pi
##ee
##rix
sem
##ren
##ck
##most
find
cells
commerc
##ography
##cent
##oms
##iam
##tt
style
lond
19th
upon
archit
muslim
##ula
seen
2025
##ana
##ference
2013
liter
london
ban
commit
founded
cities
ens
internet
##ps
##ids
##ford
2009
nb
##ested
##ought
labor
##akes
instr
office
review
thought
religious
followed
increased
bene
step
white
techniques
creat
ul
historical
half
jud
##port
mac
##onst
##aged
defe
##orm
beginning
##ees
##ta
##lement
able
linear
software
##ges
read
##ript
mo
players
community
started
##olic
##amm
next
numer
successful
23
results
independence
congr
predict
heav
geomet
fight
sea
transl
synth
##ership
##hol
outs
##lin
##bit
version
resources
multiple
aud
naz
respons
court
##yr
##iation
##50
learn
cit
emb
church
##ban
attention
tur
content
final
italy
foreign
##raw
operation
entire
broadc
##inent
##imate
agr
divid
rap
tre
club
full
pen
##ky
##uments
types
##hib
##rote
phot
limited
neural
cup
##inal
prime
built
songs
provided
changes
don
##tain
industrial
palest
allies
2006
professional
psych
let
sil
tas
uses
never
24
##lex
##ips
powers
fields
architect
##mp
evolution
assist
50
doc
##ingu
prob
##oted
##asc
digital
wrote
plant
applications
##ox
##urity
environmental
saw
##isation
mexic
majority
features
##icient
##ides
2007
type
ire
mob
##istry
humans
adop
hin
allowed
approxim
##ucle
david
ireland
users
bord
price
increase
saf
benef
river
toget
together
whether
acqu
side
necess
##cil
researchers
reported
nar
##duct
cross
190
creation
alternative
greek
##ria
##less
plat
parli
algorithm
live
##oring
definition
commercial
lost
imm
##iev
lik
rate
money
electron
reason
bill
fall
companies
green
##uries
identity
referred
1945
##usion
chall
whose
conserv
private
##enth
##osp
mich
subsequ
1941
provin
designed
parliament
kh
##cle
##wh
##fact
##ony
##omm
emph
troops
roy
era
living
##rated
asp
aver
bur
basis
mi
##emb
##abor
mathbf
ess
nucle
##ibility
assum
##ulated
multi
emphas
##onic
2001
issues
risk
##esis
chief
minor
consider
taken
##fl
election
##lymp
sets
##ique
deal
prison
plants
received
council
russia
agricult
mole
##iest
effects
meaning
olymp
teach
disease
##ients
hit
ver
purp
female
mill
##iance
image
biological
##urs
equival
tradition
collect
rank
##vision
almost
indic
cann
positive
processes
pattern
required
lower
operations
outside
jer
rock
##ying
clos
require
doctor
##elves
regular
little
##astic
##ieve
better
shar
##gen
mission
##isl
past
##ways
##bra
##int
##ece
feature
anti
management
band
today
incor
becom
england
airc
frequ
##onse
mark
lack
difficult
values
labour
canada
islamic
formal
autom
killed
gar
##uate
26
dam
warhol
response
proposed
involved
##ables
2005
matrix
##brid
italian
nasa
##of
bound
##off
might
towards
##ott
exch
regions
produce
optim
named
conver
spanish
cases
##ya
interp
##go
conce
security
laws
san
##ards
progress
conditions
graph
rang
sen
##ii
threat
##elling
materials
fiction
prec
remained
algorithms
dou
widely
children
aircraft
##ute
observ
kar
##mas
##ided
sky
musical
player
invasion
recorded
##af
##ze
prior
folk
path
source
##ribution
channel
implement
bra
working
commonly
objects
application
primary
thems
##atively
##rew
##anded
units
technologies
bud
days
##eria
imper
individuals
building
themselves
fif
stated
technical
ground
william
pac
legisl
##jab
except
potential
ath
rise
ten
exc
manu
put
189
ult
cat
##agn
##izations
directly
##ger
academic
broadcast
food
cast
##ev
##ires
abs
basic
punjab
divers
##work
##ician
languages
products
unc
centuries
schools
sun
spain
position
surv
idea
temper
eventually
current
television
select
discuss
##ceed
##otes
recent
internal
hear
light
theories
##ivity
quality
bc
##lying
tim
once
trav
output
rules
royal
500
dut
died
situ
##hing
##der
##atives
##reg
legal
activity
goods
via
conflict
alge
2003
prem
scholars
##ope
account
complete
prevent
gender
thin
calcul
male
execut
franc
impact
peace
islands
##orph
inn
ability
ox
size
##anted
percent
blood
##ixed
##den
tal
##amb
reform
theorem
##ror
conqu
ideas
fav
organisms
congress
rol
##ulations
dead
conduct
clin
##ours
##anned
##porary
tools
additional
bow
##eal
##iated
spread
invad
greater
treatment
collabor
cas
rh
##ael
hung
##umb
##aves
element
teams
wars
advanced
factors
institutions
activities
draft
mart
##ext
##igned
largely
28
bit
youn
personal
gal
philosophy
sens
measure
separate
27
##ama
analy
experiment
connected
nazi
vo
##ried
understanding
pan
minim
radio
ukraine
kind
shoot
ethn
mad
wind
christmas
months
divided
incorpor
manufact
##aut
images
novel
initially
nation
##used
##usal
contem
distinct
tatt
wide
##ero
release
destro
cric
##otic
article
unit
commission
variety
extre
##nes
##ari
context
equal
##face
##oses
2004
films
dimension
od
discover
dynast
sense
secret
classification
soldiers
get
our
##aps
true
emerged
territory
caused
urban
tatto
stem
goal
artist
contrast
cd
reb
##ump
hindu
km
ott
insp
resid
1970s
policies
citiz
flow
member
oil
oce
##osc
properties
algebra
bomb
##ara
##ously
organization
records
fundament
facebook
average
40
compon
frac
address
investig
2002
##back
resist
##resp
clear
earlier
larger
counter
declared
platform
cred
neal
shown
##ishing
1944
##ening
transport
fa
##ective
compar
say
##ne
##mar
##rought
highest
cricket
29
beng
supply
flag
demonst
george
gave
construct
treaty
mathbb
##itted
soil
sus
##hic
##inated
##ores
##rect
station
signed
logic
##rm
track
therefore
infin
australia
ever
hyp
convention
property
chemical
architecture
sources
too
phen
books
federal
likely
##orial
##iting
numerous
cust
rout
news
hu
ram
##equ
##izes
economists
robert
course
appeared
lu
went
##20
animals
equivalent
search
##itch
##osing
harm
status
transfer
writing
department
rapid
eight
##field
##itation
##aging
##lands
eucl
##rown
scientists
fire
hall
hosp
##iology
##ining
react
user
palestine
imperial
fu
##ls
##ani
comment
##rug
universities
match
recognition
jerusal
exchange
jerusalem
##antic
board
paul
##asons
##ands
1998
##augh
primarily
agreement
paper
seven
amount
##onomy
added
master
shif
visual
bm
##east
##cer
##acts
corresp
experience
concepts
correspond
ways
##itz
below
believed
issue
title
mexico
alex
bach
##atch
meet
administration
brought
##bre
climate
1960s
supported
##iples
hind
lines
length
##ca
germ
##leg
##plies
generated
satell
texas
document
je
param
surg
practices
previously
virt
creating
dna
##ills
active
resulting
estimated
pacific
ocean
31
du
accur
mind
allows
look
bab
##ata
polish
workers
originally
1939
pet
##rian
##akers
##ready
bengal
gh
ll
##hold
story
come
discipline
summer
##com
maxim
philipp
colonial
prisoners
##apore
experi
argued
branch
territories
electronic
cause
forced
rein
already
negative
challeng
rac
taking
##kn
therap
webs
surve
located
replaced
##etical
abst
hor
##esp
trib
##aker
basket
expression
axis
increasingly
approximately
destroy
god
gaz
##war
input
trained
simple
singapore
african
devices
cannot
done
anth
contract
cogn
##itude
eval
mostly
1999
sn
unl
student
sett
critical
reached
whole
ended
machines
korea
contemporary
notable
##ription
##olved
##ows
noted
distribution
detail
influenced
innov
frame
highly
distance
represented
fundamental
james
##ental
1942
grand
avoid
##airs
fri
instance
earliest
cand
ef
lic
nom
tech
##ius
##ica
compos
notes
1980s
michael
dynasty
thous
##otion
scre
foundation
expanded
physicians
growing
cut
round
suit
chat
share
served
words
##ef
##osph
##ortun
immed
corpor
regional
##adesh
##edic
prote
technological
refers
principles
##ki
##ici
maint
1914
muslims
drug
site
##gar
##ffer
##ters
##urg
genetic
remov
approaches
latin
question
haw
leaders
famil
levels
300
draw
wall
occupied
##la
##ads
percept
apple
web
attacks
expans
mainly
geometry
##ifically
186
provides
claimed
card
ful
##grad
metric
break
young
ber
cou
##overy
##ker
box
overall
collection
citizens
income
etc
communication
abstract
cov
conference
neut
crew
shows
##su
exhib
##pper
starting
##ifying
code
##yth
##ania
neigh
##forts
wealth
sequence
neighb
fle
wear
##erved
##ogle
note
soon
##encies
smaller
efforts
consequ
square
fell
##eum
##ety
stal
developing
jose
google
cris
longer
interpret
##ino
excl
structures
initial
concerns
mel
##odes
##ounts
partition
##idean
governments
domain
figures
ut
##cular
1990s
raj
axi
euclidean
mur
##onal
##erse
performed
competition
circum
wood
always
compared
##que
distingu
advoc
introduction
pressure
existing
magaz
georg
sexual
athlet
hen
##ram
##uation
orth
resulted
animal
aspects
basketball
perm
thom
stru
alt
adapt
188
joint
championship
necessary
ethnic
##head
##igen
weap
187
retr
tiss
town
monit
label
religion
border
nuclear
tend
##hood
remains
computational
opportun
bay
##co
##wide
##osis
##ectors
close
week
societ
playing
1997
richard
rand
vill
studio
moved
claim
relationship
awarded
adopted
casual
tens
table
wr
##oe
extern
compact
decisions
actions
democratic
literature
germans
give
ali
bey
marx
marked
##rolog
physics
speech
son
##asts
##entially
##thing
communities
baseball
fair
poland
occurred
tasks
candid
60
bul
##dh
##eth
scul
charles
##plicit
diagn
continuous
becoming
phenomen
yank
##uese
##ken
suff
patients
describe
dynam
portuguese
nba
rom
##rees
##ections
complet
focused
makes
##eless
matter
cart
race
##rete
arist
##elled
settle
organized
belief
elections
portugal
neutral
job
##oting
##vert
universal
distribut
trop
##wise
##jan
##ros
##lection
persp
navy
layer
hab
##uch
ben
fal
rain
orbit
openai
committe
dipl
diss
generation
nearly
deaths
instrument
safety
expansion
lou
mig
pp
police
controlled
theoretical
poor
##to
reject
specifically
1940
quick
remain
prominent
markets
away
names
##ensus
defense
programming
1918
crisis
cath
hund
mis
upper
##oration
spac
processing
sculpt
##erate
##elt
symbol
victory
patterns
bell
woman
##ented
##ulate
historians
keynes
gam
gun
##bon
impr
weak
movements
archived
claims
hundred
rational
##ney
##gn
tom
partn
museum
consists
flight
investment
failed
heavy
##inate
smith
encour
ukrainian
banks
32
##olf
atl
alliance
paral
paris
depend
freed
cos
mut
##ply
tour
stage
poll
americans
quantum
category
travel
##estic
contain
##berg
opposed
vehic
beyond
things
##osl
prefer
degrees
gaza
##rovers
##etics
useful
construction
involves
effective
understand
thomas
33
hon
hil
que
tun
##puts
stra
##utions
assess
assemb
1943
changed
night
wing
##ras
##light
##ago
contains
block
joined
bir
mand
pict
##erve
##aling
hypoth
mes
overs
##rative
##oll
constant
fourth
occupation
reprodu
extended
esc
##uit
##vant
##hab
##edd
asian
controvers
color
1996
purch
latter
irish
concerned
choice
shooting
custom
##arter
decades
computing
patient
takes
korean
respectively
mobile
nob
##iat
##cing
##hen
##da
suffer
relatively
surface
fighting
gained
expected
effort
director
presented
70
dar
##10
##omorph
goals
studied
doi
bring
profit
clinical
##ground
##rel
##abilities
1947
annual
speed
funding
captured
sab
##60
##ille
staff
seem
random
##stream
brain
reven
leader
profess
epis
penins
diplom
bacter
happ
scen
margin
appoin
stress
combined
interval
princip
instruments
resistance
##vised
##ij
##40
adj
##ikh
domestic
achieved
keep
##bridge
80
ven
##issance
organizations
concent
widesp
improve
strategic
external
widespread
mas
##err
##iforn
behind
californ
volum
reduce
native
yet
##cement
exerc
composed
coal
armed
allowing
website
theat
##acters
coord
computers
characters
directed
needed
losses
##era
offensive
socialist
move
authority
normal
fifth
##ecraft
spl
cold
coop
feed
1995
powerful
liberal
accepted
agricultural
slow
##sen
stream
##ocket
district
famous
supre
subset
ottoman
yankees
##rary
##etry
enough
frank
agency
weight
1991
advant
significantly
california
inequ
##ster
##etary
shap
combat
australian
exclus
##ham
##ati
emper
road
simply
elected
opposition
career
pse
##side
winter
tattoo
magazine
ey
here
mess
tool
unique
##ologists
reflect
astron
molecular
hop
wil
##ka
manip
derived
committee
pseud
pure
push
##men
subc
generative
finite
strength
1917
factor
austria
limit
winning
cambridge
alexand
dominant
purpose
reinfor
##70
enh
seg
agent
carried
helped
coverage
hyper
##80
notation
worldwide
worked
equations
correct
practical
owned
similarly
expressed
peter
##eas
##esth
amb
importance
cele
inspired
surgery
mc
##arm
##ste
sty
intended
1994
classes
magn
hawai
cru
pil
##coin
##anks
proof
spring
requires
influential
educational
delhi
costs
##ieval
subsequently
##iciency
casualties
paralle
bad
##con
whe
neu
prepar
difference
planning
recognized
passed
diseases
nbc
frequently
selected
35
rail
sector
##aj
##ilit
##rick
convers
satis
bmw
spacecraft
voc
##iring
##utes
presence
blue
valley
championships
##icts
##iff
plans
centre
surround
um
tourn
entered
ultim
bitcoin
thousands
fought
##lass
##can
##inations
stock
sust
placed
institution
statist
behavi
offered
defeat
responsible
dur
##15
inj
ans
flu
grew
measures
naval
defeated
prices
18th
respond
astr
olympic
dutch
fully
cod
ol
##ned
communist
agreed
conservation
conducted
freedom
gro
gir
tv
zero
spok
1990
practition
interview
interactions
subsequent
45
fit
##bal
violence
susp
dial
stre
spect
elev
archae
returned
disciplines
awards
born
##rim
##cial
##wer
##30
repe
1992
efficient
identified
questions
hilbert
date
jac
##hu
##ini
##leck
notably
recomm
transm
follows
issued
canadian
illust
closely
oxford
cognitive
bond
sought
asc
closed
providing
##iang
##ibly
traditions
##board
statistics
banking
mountain
diverse
##ds
##16
score
1993
explan
officially
featured
chemistry
strugg
thr
beg
places
surr
democracy
weapons
retrieved
iv
rates
##iments
##ube
continue
probability
solution
##win
##umn
arsen
recently
##ordan
setting
differences
mainstream
physician
1930s
ruled
currently
consumer
substant
synthetic
400
tor
##ga
orient
overt
quad
discovery
location
ordered
protection
textstyle
henry
van
##entions
shared
twent
remaining
memory
empir
reality
affleck
maps
util
explicit
compr
bron
capac
conclud
protect
raised
painting
rena
turk
##fect
##kary
##itative
##econom
stop
regulation
finance
popularity
videos
declar
determine
attempted
screen
emperor
hous
love
section
toward
shot
intel
equip
discovered
rig
##osen
shape
revol
civilians
morph
##archy
acquired
quickly
styles
90
fasc
##rical
##ycl
##lor
##erated
##use
enem
advert
attract
belg
authors
viewed
##istered
situation
anthrop
hat
nine
nike
##tr
##eles
##amil
chess
disput
agents
spacex
meant
recording
representation
affect
malays
components
vary
##care
##ett
proced
bias
datas
depending
##plication
relationships
attempts
regarding
texts
hospital
georgia
##he
##xual
##iles
##ife
pradesh
selection
185
populations
matric
functional
entry
running
agriculture
aid
fixed
proved
genre
generate
obt
employed
suggest
philippines
kil
##atures
##tery
projects
electric
solutions
civilian
criticized
destroyed
joseph
societies
fest
##ray
##ging
##iced
##eces
align
spir
planned
critics
volun
debate
reasoning
##inet
##ada
chrom
spat
debr
##ogen
enab
decline
matches
periods
crime
opened
topological
iii
autonom
improv
teaching
hungary
ultimately
##eters
cloth
consc
symbols
variables
province
families
equipment
mention
##21
##entral
##ura
annex
topology
1950s
achieve
purposes
extrem
framework
debris
cer
ha
net
nfl
##erson
##tered
neoc
medieval
serb
developments
extensive
depict
believe
campus
standards
paint
suggested
parallel
ca
perman
##ses
fort
orb
##ody
decided
##rupt
appropr
crimes
causes
moon
executive
unlike
sides
anat
##opol
edition
needs
cycle
paid
behavioral
piece
renaissance
bost
core
gives
von
vote
##uk
##nel
##iately
##omy
alle
plate
ecological
involving
existence
matrices
artistic
positions
belong
topics
satellite
statistical
fash
hot
wound
stone
reve
train
##anta
partial
parad
historian
identify
combination
determined
condition
strategy
hours
vac
##hm
##wan
org
unp
trial
formula
decentral
root
governor
carry
complexity
characteristics
motion
contributed
immig
cry
wild
firm
formation
subjects
differential
leadership
cultures
initi
restrict
bol
gain
hims
merg
##unk
infr
smart
describes
bodies
##ompan
essential
himself
dance
father
##oes
##fare
guard
showed
greatest
colonies
authorities
regarded
figure
fine
os
inher
##aya
disp
serve
feel
actual
edit
dominated
categories
hitler
celebr
arsenal
bh
gall
tree
##eck
indo
serious
accompan
completed
greece
explain
divisions
temple
receive
massac
occurs
egyptian
split
##rd
##iable
forens
##ithm
##ota
newsp
attribut
skin
alongside
arrang
technique
reduced
turned
fashion
newspap
bor
gas
rat
reasons
finally
integrated
variable
evolutionary
infinite
louis
catholic
peninsula
spatial
wa
##rate
##cal
##come
##ald
##anches
##pped
upd
crim
christians
##anujan
heart
ramanujan
survey
satisf
capacity
neoclass
rough
##bc
imag
##gression
##ographic
mountains
dimensional
birth
supreme
fear
##my
washing
exact
##aph
atm
cancer
constitut
##ructure
1969
deliv
participation
merch
pieces
##aught
stalin
##rics
##ystem
##ales
##agues
evolved
maintain
promote
reference
radical
missions
aristot
cab
dro
##ris
stim
ones
##ortion
##osexual
espn
characterized
benefits
favor
pack
vast
##wood
pros
##agon
##anda
tra
marsh
relation
explo
##ontinent
##ployment
inside
negot
renew
perspective
advantage
2nd
##roid
##acing
isol
usage
indigen
install
classif
17th
camps
feminist
voice
aim
mother
ped
rif
sikh
##atically
##akh
##illed
define
establishment
criticism
double
indigenous
aer
aesth
bang
##fall
##be
##bi
##ogue
indu
polyt
decor
operating
listed
virtual
##stein
neoclassical
bot
giving
iron
jordan
##iary
##ita
stars
index
minutes
buildings
republican
covered
academy
##cules
commander
ranked
invaded
cdot
##rology
az
dail
ga
welf
##ione
chile
unif
going
1975
descript
protest
producing
failure
intellect
malaysia
ft
##inant
chap
park
brand
equality
1980
direction
buddh
revenue
washington
welfare
ring
##ship
##ba
##65
##90
##esh
inject
subsp
regul
expect
risks
roles
34
las
ta
##eed
##zant
##aled
##itual
##iled
stan
trump
ago
branches
mathematicians
austrian
propos
oldest
volume
autonomous
sites
##itarian
##urance
composition
sched
complement
analyt
##ylon
hybrid
olympics
think
professor
polytechn
dedic
sq
##11
##ala
why
byzant
publish
simpl
elim
argue
improved
##ceeded
shift
atmosph
zeal
##west
##25
##any
chic
notion
columb
regime
184
1948
brief
granted
carbon
industries
ensure
embedd
letter
38
600
cin
##uan
##vin
##zz
##mer
##mark
unkn
neur
decre
decade
accounts
metal
valid
organism
trading
plane
views
mun
ray
beat
##otyp
##aint
##ocks
actually
healthcare
encycl
massive
dan
dra
##sr
##edy
spons
worst
gene
roots
capable
classic
quarter
discrete
commonwe
something
connect
gradually
robot
heavily
learned
##graduate
assembly
encyclop
commonwealth
##oral
##uman
trig
compound
##irect
apply
##awa
1984
skills
device
additionally
objective
semi
removed
completely
zealand
##dp
##itt
##idden
whom
alone
depr
containing
transition
efficiency
exploration
geographical
officers
library
principle
albums
capture
doctors
entirely
experimental
penn
##nam
che
perce
max
180
advance
damage
fast
##val
##greg
##osystem
perfect
advances
effectively
entertain
homosexual
articles
conventional
immediately
principal
infrast
daily
mixed
vision
##uel
##eline
chron
ships
manif
boy
##ifications
classified
discrim
1989
expert
solve
choose
missing
golden
chords
provinces
collaboration
babylon
experienced
practitioners
unknown
pu
sar
##zil
##14
##elor
##una
##ultane
nationalist
simultane
southeast
ownership
courses
sales
atlantic
lived
vectors
##tic
##⣿⣿
##aka
presid
creative
drive
else
16th
successfully
marginal
forensic
cub
jacks
rural
##ios
##oon
deco
appar
acts
peak
movie
natu
1920s
facilit
benefit
senior
premier
extreme
sufficient
inequality
jackson
los
lingu
nh
nam
pul
##kin
suc
##odox
##udes
ship
##oint
1981
1979
##ancing
titles
consumption
interaction
emphasis
utility
36
43
75
gard
mir
tai
##lers
##df
##etric
##ulf
trust
script
contained
warfare
##ropath
whereas
1986
1968
officer
affairs
denotes
calculus
residency
da
sav
##rons
##uge
##more
##ilib
forest
peoples
extra
driven
experiments
versions
observed
macro
challenges
cz
rely
##ny
##99
##ano
ash
183
1967
solar
targets
task
brazil
covers
suffered
aristotle
hun
pin
pione
##lusion
stories
alph
##ghal
clim
1919
competitive
graduate
integration
revolutionary
manufacturing
dedicated
naturopath
au
hill
pt
##iar
##chan
comics
chart
##iant
ecosystem
relative
flor
1985
1972
greatly
encomp
translation
implemented
phenomena
boston
encompass
rot
vent
wanted
##reh
marine
libert
intervals
enterpr
employment
silver
reaction
appointed
infrastructure
64
ho
ic
##erland
##edia
##igation
withd
1982
psychology
bacteria
wheel
empirical
37
faced
##eff
##min
chosen
neo
##ovak
sole
reports
opening
rhyth
licens
tissue
distributed
##oslav
intellectual
lake
##yan
##icing
asked
scene
otherwise
mathrm
datab
equilib
##ockey
prompt
##auts
kingdoms
focuses
moral
manager
managed
hyd
israeli
becomes
berlin
luc
rivers
##icial
##emic
##opher
arithm
seats
medal
biom
carl
1973
occasion
presidential
justice
definitions
seventh
##where
legislative
monitoring
repeated
permanent
fert
mos
nig
nether
selling
inner
aligned
clust
medium
wee
county
moving
advent
calc
doub
bachelor
tournament
bronze
entertainment
nic
rocket
vice
°c
##iro
##here
##gers
##bed
inhab
##rium
1987
1970
designs
lands
swed
possess
balance
suggests
ign
mcc
nag
##writ
contact
alloc
interests
systematic
mont
1988
refuge
causing
victor
consisting
conflicts
reforms
distinguish
aimed
na
sle
inputs
##emble
comes
newly
format
ages
capabilities
##azz
secondary
##ucing
1920
testing
traditionally
secretary
roughly
mom
ple
##uing
##eness
##enge
##orter
prize
resource
promotion
geographic
specialty
speaking
coastal
layers
hardware
analyz
saying
rapidly
alexander
appropriate
fish
##rich
##ped
exists
arc
##oca
tried
inters
formally
foundations
pows
dress
publication
broke
solid
contributions
##going
invaders
episode
enemy
chicago
cro
dang
felt
kr
li
lse
sir
##gi
##orth
unem
supporting
delta
appearance
attacked
estimates
conservative
molecules
temperature
friend
census
hockey
pick
want
##rey
##ette
##urr
stor
shut
centers
subsc
infl
##ancy
iran
destruction
audio
catal
component
opportunity
jobs
organs
jack
rid
##rations
strict
##isted
##oder
preced
1983
persian
opin
relevant
landsc
linked
ethical
palestin
exception
parameters
44
800
fat
##12
##83
##esian
##omic
##opl
mars
grant
headqu
federation
rejected
weeks
gang
lord
nut
rose
°f
##uls
##ensions
agi
apart
1965
affected
21st
translated
borders
jacob
netherlands
##itar
##ules
abd
monetary
1962
corps
refused
liber
achiev
adopt
investigation
subcontinent
kilomet
byzantine
equilibrium
ba
heter
ice
rome
rival
tests
vital
##za
##ems
##ulum
indians
compreh
instruct
1946
ending
description
1916
##inson
confir
##iveness
background
##apping
channels
audience
martin
incorporated
sustain
obtained
festival
czech
hier
lot
lie
##isters
offers
brid
terror
##ipped
temperatures
accuracy
innovation
brown
##ctive
doing
continues
purs
personnel
existed
holds
challenge
conquered
coup
circumc
candidate
straight
taiwan
pitch
##nn
##col
##burg
##ida
enj
clark
commod
consecut
1966
guid
geographers
understood
denoted
romania
officials
illness
##iscipl
distinction
faith
maintained
pseudosc
concluded
nan
##eg
##kh
##95
##itals
##ston
##oud
##vereign
chair
worn
sovereign
1949
eukary
1971
1915
150
##ennis
household
communications
optimization
budget
exclud
fuel
protein
fleet
axiom
false
bass
banned
bbc
matt
zone
coming
##abad
##agan
##iber
heat
##iph
muscle
worlds
equation
typical
origins
historically
switz
intervention
debut
christianity
2000s
hypothesis
gand
jur
sult
tamil
##onents
compl
arms
##andon
unf
##antir
musicians
extent
1974
membr
liberia
easily
examination
palantir
clean
anglo
diversity
astronauts
tc
##bor
##ko
##onym
seasons
leaving
manner
phase
outer
actors
nationalism
cars
ideal
statement
ethics
runs
facult
administrative
laboratory
sabha
crown
fab
mr
##98
##onia
##arial
tol
store
prohib
sud
abandon
aggreg
schem
ancest
older
motiv
deriv
symbolic
scholar
mechanism
mobil
meeting
unemployment
switzerland
1st
3rd
55
forward
economies
desert
mathcal
actor
exped
humanity
armies
1978
guide
argues
farm
changing
quantitative
angeles
corresponding
friends
axioms
instrumental
sculpture
volunte
om
pear
veter
yug
##nat
##75
##itting
##osom
submar
publishing
founder
dram
northeast
protoc
independently
possibly
sixth
multiplication
thinking
composers
interpretation
behaviour
street
gpt
kern
les
lith
##lus
##ias
##24
##93
truth
dism
lee
##endered
modeling
orders
symm
ceo
constitutional
bachchan
settlement
cosm
adjust
ptole
bat
cbs
gdp
lives
mist
pand
sand
leagues
metab
##rier
1964
glass
propag
seek
logical
facilities
potentially
motor
subsid
mechanisms
narrow
minority
algebraic
substantial
consecutive
yugoslav
4th
jon
jim
jun
kash
mental
##pa
android
touch
beaut
pron
leon
monso
strik
singles
detect
elastic
1950
predom
connection
gradient
treated
conquest
sultan
78
aims
ger
nap
ot
tact
##rest
##ept
albert
##mented
structural
seeking
supervised
restric
reduction
rebell
platforms
coalition
arithmetic
enjoy
48
hack
mary
mong
rog
##ault
##ners
##mann
##icip
tok
phr
phyl
inverse
highlight
simon
founding
1976
studying
planet
wayback
battles
trees
documents
ranges
credit
jean
exercise
reinforcement
spoken
uniform
perceived
doll
sed
sac
##hy
##13
stad
alc
sund
orch
##agu
##soft
ministry
plays
playoff
flo
patri
labels
capitalism
mexican
ranging
observation
racing
athletes
neuro
drawn
burn
binary
jan
md
merc
sell
##92
thir
##ola
arbit
enfor
genes
firms
##ensity
coach
eds
emerging
emergency
separated
reaching
categor
francisc
habit
theatre
declaration
rhythm
53
gur
ka
yout
##iations
##ooth
##cid
##haps
chain
deals
syria
pharm
marc
bob
boost
forming
##ightly
bases
adding
operated
advers
represents
funds
emergence
employees
sharing
favour
hindus
satellites
evaluation
proteins
overtime
mentioned
paintings
jazz
pact
ss
##18
##atics
##ena
##imal
worth
perhaps
accel
reducing
showing
treatments
possibility
specialized
link
synthes
demonstrated
700
dry
kur
pdf
wat
##arant
##icks
##urally
prol
##ower
##ieving
emotion
universe
leads
1963
analog
proportion
intelligent
250
geometric
immediate
vehicle
47
bott
pier
wave
##ih
##dy
##acement
preserv
computation
##encing
guitar
mughal
experts
insurance
formerly
error
synthesis
photograph
##comes
##know
grok
extremely
stadium
00
says
tay
##uff
##human
##mir
thail
deploy
##abil
shall
column
##oke
performing
representing
solving
defining
##ochem
millenn
crucial
thailand
dark
fans
your
##ois
told
spent
outcome
flat
cellular
limits
sympt
hands
animation
dimin
diagnosis
controversial
es
nad
taught
anton
##uses
##opath
try
##ologist
poly
consol
carol
extin
##plications
soviets
##bots
curric
illeg
hosted
probably
khan
burma
keynesian
hundreds
vehicles
initiative
criminal
orchest
hidden
jam
keral
##rad
##uates
##gpt
##discipl
##rogen
##omial
##aments
##igm
##apse
triang
indones
##illa
scott
##ptions
genres
recru
weights
outcomes
increases
writers
memorial
120
winner
captain
requirements
tropical
struggle
orbital
kerala
fer
ml
pit
rod
##well
##68
##rec
##olith
stations
stages
reign
##action
subm
overl
assigned
attach
write
involve
arrived
committed
millions
tattoos
constructed
therapy
exhibition
opportunities
candidates
partnership
cooperation
alleged
cul
hong
wik
##iy
ongoing
##oto
neither
implies
polyn
fried
##ruption
##ertain
guarant
influences
appears
furthermore
colony
stephen
considerable
drugs
recommend
gulf
nick
pool
vin
##cles
##23
##ecution
##thur
unsu
##arters
resolution
appeal
defence
acting
attend
##ails
depos
buy
concer
publicly
improving
participants
holoca
steel
clubs
absol
scenes
hawaii
holocaust
bom
bird
ea
hay
hence
vul
##uous
##zo
unable
ecology
empt
gramm
operate
operator
operators
extension
topic
1936
featuring
swiss
affil
quantity
necessarily
accurate
tissues
serbia
columbia
youtube
kal
kub
lists
yield
##cts
andy
stable
seed
seag
incident
assam
transc
governance
singer
drum
detection
originated
civilization
speakers
lasted
corporation
surrounding
descriptions
chronic
simultaneously
kashmir
lyr
saint
viet
andrew
disord
plus
adam
economist
mah
engaged
##riers
surge
locations
describing
harv
switch
oppos
titled
microsoft
explicitly
ratio
encyclopedia
cm
pair
##ville
##94
##theless
cha
underlying
1977
1961
nevertheless
bowie
hospitals
experiences
assessment
exclusive
eye
explanation
58
bure
cited
diction
jo
kong
nca
rib
##sis
##de
##bur
##alities
##ompl
##che
reward
sphere
invented
finished
ministers
extract
elite
1937
barb
admin
##lama
alternate
strongly
strategies
penal
neighbour
rainfall
queen
membrane
fox
ip
nerv
option
si
tel
##right
##ua
inqu
##inger
stability
##iration
conve
spot
pra
uns
disapp
intr
frag
accompl
constitu
entities
superior
uncertain
percentage
maximum
astronomy
polytechnic
storage
taylor
page
ru
##di
##down
##bl
##lets
bein
leave
scar
consensus
regulations
assert
colleges
herbal
##uck
cycl
##ammad
assumptions
converg
snow
belgium
enabled
landscape
francisco
ncaa
49
74
ak
cash
hell
ira
ow
rio
##28
##organ
##itan
seat
plain
polym
1960
johnson
##anean
replace
squad
balk
chatgpt
feedback
twenty
revealed
gandhi
ham
iter
soph
##rid
##set
##77
##itable
regression
##ifies
incent
##orted
scr
musk
meta
promoting
representative
funded
conceptual
poetry
supplies
senate
residents
settled
surrender
conscious
tcm
predominant
seagate
bes
fan
fly
golf
lies
llama
oh
##kins
##arked
##ayan
##osh
medit
governing
cape
calls
valued
liberation
prediction
tempor
13th
broader
territorial
arabic
copies
aspect
kinds
dynamic
wounded
63
85
bib
tanks
voting
##uits
##eing
##sky
##63
theater
##asions
stay
onto
comic
excess
##abh
##ift
adap
##asters
healing
##velt
registered
mining
string
opera
shortly
philosophical
offering
copper
indicate
succeeded
danger
bil
bern
cav
crop
dual
gross
jul
ran
rar
rug
s2
tennis
##iac
##iny
##ato
##otam
##essive
##opotam
trend
##ighter
amaz
marri
modified
transg
continental
edward
environments
renamed
transformation
departments
psychological
letters
parliamentary
##while
graphic
hungarian
bonds
datasets
massacre
cabinet
stimul
classifier
900
fra
nude
##rants
##uv
##uated
infer
##isition
##uri
tri
intention
recon
##osevelt
roosevelt
flood
socialism
operational
programme
consumers
transportation
looking
detailed
beliefs
picture
mesopotam
concentration
tattooing
anatomy
restrictions
circumcision
kernel
mediterr
7th
bed
cra
cord
dating
sail
##erce
##itudes
##iger
alf
canc
commons
finland
infant
publications
establishing
wider
declined
minimum
consequences
comprehensive
faculty
mediterranean
95
dates
lamb
mm
row
##19
##jar
thing
##arrow
##otechn
cham
##aki
reserv
minute
obtain
organic
remote
##fully
writer
institutes
soundtr
taxes
steps
predicted
predictions
essentially
discussion
analyze
drawing
wilson
clothing
decentralization
atmosphere
monsoon
bon
hd
sv
sid
watch
##cs
##wa
##gest
##ji
##iture
##cher
##ima
invention
acknow
##issions
concert
recordings
supporters
landing
explained
autonomy
rulers
err
sequences
myth
finding
assumed
optimal
timeline
bombing
encouraged
dependent
dropped
nhl
consolid
opposite
6th
ay
dal
dani
haz
##vement
##oque
##dots
##orous
##ema
##agement
trip
##ipts
##roph
expensive
expanding
signal
approved
serving
1951
earthqu
normally
mechanical
collective
absor
discussed
phenomenon
romantic
migration
pictures
streaming
palestinian
symptoms
dictionary
transgender
ah
faster
ku
ly
##ugh
##eland
stating
##ira
spending
commerce
phd
##iversity
governed
secular
edge
1938
representatives
astrology
privacy
kept
interpre
karl
implementation
tribes
shaped
exclusively
ascii
revolt
advertising
##unkel
prosper
macroeconom
lyrics
bone
gay
moh
pm
tell
tank
##rum
##ygen
##sf
##fts
##26
##ila
plains
scope
assass
room
acid
obl
themes
constrain
severe
portion
marketing
involvement
argument
diag
circle
##load
samples
reviews
photos
assistance
dynamics
oriented
alignment
annexed
napole
rebellion
dog
hul
rub
santa
##iop
##din
##erted
##atorn
##real
bear
##plus
##sey
genome
maria
subt
imposs
grav
flour
operatorn
promin
protected
links
receiving
himal
cyt
sounds
participate
consistent
garf
adaptation
controversy
neurons
inhabit
restricted
operatorname
crow
dub
mort
sut
sans
vic
##fort
##tz
##17
##itage
ussr
mode
outl
peas
secure
advanc
cultiv
baroque
measured
collapse
integral
diplomatic
venture
pearl
garfunkel
die
fib
nu
wage
wife
##ran
##rates
##rison
thesis
##anes
##oters
##iants
atomic
##acht
##achus
##nings
undergraduate
defines
biod
discour
brother
ideology
engineers
augmented
killing
virgin
demands
businesses
holy
responses
towns
alien
institutional
moment
pronoun
##disciplinary
aqu
got
hur
mix
##pass
##96
##asm
##ente
forb
stret
alleg
beach
##iano
enable
evol
colour
moreover
applying
##ricts
mahar
instruction
feet
calling
depends
specialist
1956
easier
focusing
visit
producer
holding
papers
oxygen
therapies
details
perceptron
girls
illustrated
turkey
cerem
plateau
newspaper
aesthetic
bangl
schedul
nigeria
vulner
kubrick
biodiversity
65
nich
##ven
##works
##do
##45
##etts
stake
cloud
manch
reconst
consult
1940s
heritage
confed
portray
solo
easy
massachus
campaigns
transformer
responsibility
williams
mandate
houses
rifle
refugees
tokens
vietnam
massachusetts
cors
losing
nodes
rare
tang
wit
##ni
##pus
##oo
##gl
##ja
##ali
token
##char
##iana
tracks
resident
##ella
interior
phone
boom
coin
strike
extr
depth
15th
empires
statements
cease
irr
determin
copyr
transformed
audi
shares
rangle
reactions
##break
documentary
license
overseas
segment
iraq
46
56
kenn
lad
upr
##bing
##22
##erative
confer
pricing
marath
desired
defend
districts
considering
langle
standing
slightly
##enna
judge
numerical
bounded
progressive
situations
odd
bombay
perception
orthodox
begun
procedure
chapter
kilometres
ptolemy
gath
hus
vess
##gal
##ona
prove
##usc
##ava
indeed
decis
desire
assign
weather
thereby
charge
promoted
competitions
betting
huge
transferred
##aughter
ghost
tensor
settlements
purchased
##omorphism
fascist
regulatory
proposal
depression
millennium
s2cid
flying
ww
zomb
therm
##ito
forests
##unct
scal
partially
amounts
strip
programm
persons
1910
scientist
meanwhile
camera
ensemble
boundary
comparison
partners
railway
begins
discrimination
##ovakia
aro
bag
mol
mike
nit
pages
raw
vs
##ink
##asi
##oul
##ils
sha
amend
agree
assets
cool
coined
soccer
norway
obst
termin
termed
serves
requiring
philip
##scop
competing
ethiop
1000
participated
substances
observations
legislation
consequence
opinion
juris
##otechnology
cow
cot
hills
lig
pover
ties
tied
##ien
##ado
procl
##udi
enl
clar
##phone
politicians
nationalists
##plicated
speaker
membership
separation
mechanics
indicates
boundaries
absence
credited
pollution
duration
accompanied
marshall
czechosl
absolute
poverty
3d
5th
ky
lok
liqu
pod
rus
##worth
##outh
##amin
##chron
##ador
##iday
proceed
##ellow
imposed
outputs
outbreak
transpar
advis
miles
smooth
singh
muh
factory
diam
covering
passing
victims
embry
frequency
manufactur
laser
complementary
headquarters
expedition
polynomial
bhar
ero
lun
ri
wart
##rine
##vd
##car
##icon
1900
triple
incom
genetics
marking
accused
valu
theme
indiana
descent
domains
chris
convin
radiation
dimensions
madras
##brev
guns
astronom
withdraw
bottom
curriculum
inhabitants
copyright
hem
ib
mosc
##ez
##oam
##elines
isa
items
usa
##ibilities
partis
interdisciplinary
abbrev
monarchy
quite
ends
gujar
1931
160
caliph
connections
rising
femin
arrival
narrative
llms
distinguished
preferred
immigration
database
adversarial
bench
pav
vert
wages
##fr
##kar
##44
##atrix
toky
##etically
##ighth
shog
heb
accum
wei
mathematician
fled
drama
1912
print
printed
12th
breaking
currency
journals
interested
options
consisted
commentary
gamma
bringing
astronaut
quadr
occasionally
elasticity
mongol
bangladesh
67
73
93
98
bru
gamb
hour
kings
sections
tu
voters
wii
##ares
##izer
agencies
twice
somewh
parent
presc
biochem
expand
nothing
brooks
electrical
crash
austro
courts
needle
characteristic
veget
balls
collected
hindi
settings
maintaining
orthog
purchase
alcoh
illegal
wartime
tokyo
somewhat
52
gra
kam
lis
ric
##hou
ina
##ivals
##urb
waste
exile
traff
##actions
recre
##enses
##oked
produces
monarch
continent
significance
productivity
continuing
ranking
graphics
advocated
village
completion
responded
confirmed
propaganda
rarely
lambda
9th
##iological
indus
adult
intermed
##ensively
generating
defensive
peer
finals
##rows
concrete
laid
performances
curve
successor
ruling
professionals
regardless
demanded
safe
converted
sensitive
circumst
adaptive
##eastern
prepared
paradigm
attributed
exactly
enterprise
dismiss
empty
inquir
adapted
42
57
68
dict
han
##rating
##grou
##krit
##97
##oles
stoch
stores
conj
alter
indirect
leq
##athan
implications
goes
genoc
recip
decomp
##orship
invarian
monopol
provision
broken
1958
delay
champion
objectives
epid
variation
youth
robinson
respective
talk
route
corporate
girl
pandemic
yugoslavia
sanskrit
muhammad
moscow
drew
flex
turing
##lan
##oys
##etime
##ilation
comedy
trying
##ellular
##ieth
transhuman
offices
engage
extends
anything
historic
pursu
slaves
##imedia
fewer
photography
acquisition
executed
altitude
villages
preferences
bridge
strikes
##olithic
concerning
foss
rab
##cy
##zy
##oric
##isations
##ulating
trick
##aken
allen
accident
popul
varies
exposed
explored
##books
divide
determining
returns
philosophers
reading
provincial
assumption
emphasized
bowl
jeff
surgical
athletic
wrest
neutrality
mutual
answ
presidency
convergence
rugby
soundtrack
impossible
08
bos
cel
dy
dated
dream
pyth
sri
sectors
##ns
##path
##house
##91
##elle
##ollo
##amics
##utation
##osure
arthur
##seek
leban
intu
recover
earned
transf
operates
1913
designated
crus
writes
legit
posts
harbor
1953
claude
integer
recognised
##ylv
dominance
narr
duty
km2
petro
enhance
pseudoscience
scheme
deployed
diminished
indonesia
amazon
isaac
ded
joe
nurs
ranks
sie
##net
##pur
##place
spacefl
mainland
electoral
greg
ell
famine
1959
grown
compete
deepseek
taxonomy
pakistani
expressions
threatened
drafted
lux
racial
murder
customers
nobel
procedures
administered
orthogonal
furn
ton
##iography
##water
thai
##erb
##inth
##igible
##ishment
plural
scores
partly
pref
organised
extend
practiced
releases
explore
entit
prince
identical
speak
heads
estimate
contribute
bands
neighbor
answer
spiritual
delivery
linguistic
jurisd
stochastic
03
66
cant
drop
fant
mt
rna
voted
##rence
##eenth
##erts
##ingly
alan
##pled
trends
leaves
amate
robots
##ront
10th
retained
electro
ordinary
entity
skill
1933
everything
capitalist
ern
sporting
subsets
substance
broadcasting
clearly
horiz
wearable
bulgar
vocal
carrying
crypt
extinction
nervous
sophistic
kid
np
none
pale
ritual
som
vel
##va
##hr
##han
##western
##eries
##anz
##itter
##iling
##ading
compens
afford
basin
creates
powered
approval
longest
protests
##asht
russell
barst
14th
antiqu
receives
superint
facility
cyber
##exp
graduates
targeted
theorems
minimal
llm
familiar
walls
wrong
perspect
honor
coordin
injury
surrendered
twentieth
dataset
editor
allocation
shuttle
acknowled
circumstances
spaceflight
bah
ibn
loy
pocket
tape
##iards
##bot
##35
##onent
ineff
##standing
##emed
##ider
anarch
##abis
##achal
server
##ropol
engines
brian
surplus
organisation
advice
##enger
representations
lowest
references
producers
elementary
analyst
suitable
murd
romans
reproduction
spectrum
merged
negotiations
installed
namely
chairman
abandoned
predominantly
marriage
daniel
41
54
gains
pad
sig
vich
check
regist
prep
parents
export
equipped
planets
controls
identification
specialties
referring
anticip
effectiveness
republicans
painted
agreements
literary
difficulty
covid
umg
newspapers
encompasses
fabric
protocol
phrase
nadu
stretch
barstool
vichy
bull
eld
fost
sample
tag
tib
inference
##iter
##itely
andre
##aded
##igoth
##idents
suits
spin
polar
abol
cook
##icted
fungi
applies
apollo
driving
correl
collections
criteria
amongst
swe
engineer
11th
predecess
encoun
battal
investors
visigoth
recognize
headed
array
##wei
electronics
surviving
documented
innovations
falcon
trials
achievement
pierre
harvard
napoleon
witness
valuable
##ylvania
awar
craft
hans
rud
tone
##ml
##teen
##76
##str
oral
chance
indies
##ika
someone
supports
signs
corruption
patron
southwest
1500
profile
178
identifying
civilizations
1955
providers
contracts
findings
karnat
franco
commentators
enabling
depicted
borrow
buddhist
injection
homosexuality
roger
scheduled
bulgaria
awareness
ahead
cs
fi
lob
sale
yang
##vis
##fire
##kov
##ams
##adi
##ersion
##ayer
##ques
resemb
reserve
##ghan
fred
franch
fresh
centered
subd
underground
politically
posit
suppress
extensively
armen
bund
writings
175
##box
factories
harsh
1954
1921
philosopher
accessible
walk
indicated
regularly
automated
legislature
getting
episodes
springer
renewable
subspace
cinema
manifold
adoption
matters
lunar
perspectives
karnataka
daughter
mamm
pc
ts
voy
##rt
##zon
##gu
thor
##stor
##ivism
##emann
styl
shah
scot
height
##rition
canal
embr
module
relating
instances
metres
specified
supposed
signals
airport
singular
profits
solved
combining
initiated
lasting
availability
choices
robust
judg
citing
assistive
acquire
exchang
survived
survival
thousand
permitted
hypothes
##omorphic
pushed
attracted
electricity
stanley
subscrib
##osomes
dollars
waters
density
send
utt
xai
yellow
##rin
##lywood
rear
spher
unified
##unction
artwork
boeing
relief
metropol
preserve
revival
argent
ruler
visible
facts
acceptance
treas
donald
teachers
verb
virtually
philippine
challenged
archaeological
vacu
embedding
sleep
intersection
sudden
sunday
superintellig
62
83
bones
cort
celt
lect
tail
##aid
##pal
##zer
chose
exceed
plot
client
recovery
newton
sociology
americas
proven
charged
physiology
owner
slav
broadly
##ipping
arabia
merely
##ammu
frequent
threats
shifted
escal
dialogue
improvement
merchant
merchants
##otype
aux
inflation
mesopotamia
decisive
arose
liquid
entitled
84
batch
dere
diet
kon
kiz
ninet
rating
ruth
wise
##ao
##view
##hist
##hra
##gb
##icket
##omon
##emen
whig
really
##oven
##ardo
artif
studios
##ieties
##fty
brad
bihar
conclusion
locally
designers
methodology
1935
competit
versa
helping
achieving
projection
payment
mixt
doctorate
precise
brahm
francis
incorporate
##fields
nominated
tensions
trophy
impression
##iatric
transmission
spirit
mlb
neighbourhood
inquiry
kizuna
dh
din
hired
jammu
lud
ry
sick
##uating
##ping
##mond
##isely
##acies
##urning
stead
sugar
inclusion
lew
scand
contest
syl
afghan
goth
marks
boys
consp
aggr
regulated
twel
paras
geology
biases
demographic
deput
##essional
johann
##elson
1929
thirds
denied
debt
missile
violent
turning
hinton
dealing
measurement
winds
horse
merger
buddhism
penns
licensed
sweden
##rightarrow
sophisticated
gate
jones
wish
waves
zo
zones
##rage
##vi
##73
##inn
##ario
##ili
##ersed
exter
##essions
##iful
arise
trillion
warm
warner
2010s
assyr
##oker
undert
actively
quot
surf
valuation
northwest
archive
explos
seeks
raid
raise
1922
beta
arrested
frontier
fifa
grounds
younger
disputes
improvements
compounds
elsewhere
##burgh
riots
##oameric
loyal
uttar
twelve
04
05
99
daw
kit
ok
sort
sons
tab
votes
yam
##hel
##inals
##oding
##uma
##ogene
displ
scored
weh
filed
airline
extending
##itsch
##roll
1957
1952
logo
steve
variations
literacy
nazis
assisted
ultimate
halluc
cognition
behaviors
isolated
decorative
sqrt
trigonom
analyzing
pursue
derivative
interpreted
traffic
genocide
amateur
06
dah
iber
kat
mb
mapping
ocl
tie
vl
##pace
##math
##gs
##acc
plastic
manage
manusc
canon
medicines
1911
preval
##ynth
admir
replacing
##iscal
mitig
precip
galile
cdots
##rmacht
claiming
fitness
belgian
##rupted
cryst
briefly
guidelines
sovereignty
disorders
uncertainty
alfred
reserves
constraints
antiquity
wehrmacht
oclc
dot
ken
kap
##eb
##pi
##oa
##hev
theta
##ori
infty
##asa
##road
##lete
##uria
##irs
##ista
##istent
exem
##pling
##illes
##ologically
##actic
abb
moderate
formul
##iley
varied
aired
remed
##attle
retail
retired
guine
confidence
centralized
listen
everyday
1924
animated
integers
latv
koreans
arabs
substitut
semit
immun
##whel
closer
fellows
mesoameric
suspended
solely
swedish
sustainable
attached
39
51
94
bid
fighter
hub
hope
nak
ninth
##ora
##isen
##olas
stood
proxim
unless
##illance
##illery
clay
interface
manual
emer
overwhel
mail
1800
capability
distances
wells
##anka
christopher
versus
visited
##apped
contrad
contributing
##regon
routes
fairness
reproductive
darwin
pilots
pleas
motivated
triangle
fraud
cotton
gujarat
weiwei
pennsylvania
gone
lov
ny
session
ty
tir
##lights
##comm
##arus
##repr
##ami
prosp
##ayas
##estig
##iller
resol
##elli
contribution
emig
married
aftermath
##teenth
moves
naturally
traded
returning
considers
designer
eligible
investments
loan
collaps
democrats
angle
silk
assistant
approximation
damaged
punjabi
survive
rolling
surveillance
labeled
encourage
appoint
reflected
vacc
clarke
commodity
farmers
submarine
sultanate
antonio
praised
hellen
errors
prominence
lebanon
dj
eighth
fiscal
mp
pairs
rp
##point
##asy
##roc
##ager
usual
resc
artillery
invent
engagement
bras
germanic
discont
surpr
charts
generalization
archives
entr
printing
identities
arguments
circuit
romanian
churches
hosts
biggest
walter
judah
congressional
hinduism
imprison
tuning
seems
keeping
housing
traits
isolation
embedded
sponsored
aggregate
playoffs
emotional
czechoslovakia
inaug
siege
aided
gil
mumb
pig
rect
vit
zion
##norm
##lon
##sa
##cast
##hal
##mart
##icia
##elo
##ivia
##opes
tru
traced
perp
marit
accred
remove
movies
armist
##inder
entries
170
portra
sla
loans
magic
therape
monitor
magnitude
hawaiian
advertis
anthropic
friendly
highlighted
infantry
ibm
77
ale
dun
dall
fals
liver
ldots
nab
nik
pyr
save
wolf
##adic
unrest
atoms
##pping
##illing
partner
medals
decoder
accomm
developers
worker
bio
surpass
expend
nato
saudi
presentation
palace
existential
devast
restored
##ocratic
download
globe
helps
denmark
##weg
greeks
teacher
fictional
##onald
happened
purely
explanations
arranged
protestant
robotics
florida
metabol
friedrich
virginia
maharasht
intermediate
guinea
therapeut
accommod
gi
icc
kol
kay
lind
mam
rice
vedic
wins
##hes
##38
##inating
##ico
stamp
##ulative
##osome
##umed
##ogy
unity
##estyle
disag
##alled
clock
pert
formulated
apps
overth
metaph
norms
brut
highlights
equity
##anna
belarus
dragon
informed
realistic
explor
aviation
historiography
treatise
temporary
moroc
malay
nearby
microb
suppl
summar
churchill
miller
heard
comparative
weapon
gaming
escape
##ijing
coordinate
cheap
naturopathic
volunteers
beauty
birds
mumbai
slavery
aware
gaining
jain
lakes
rum
wire
##lines
##ding
##64
##atible
##atories
inch
##arians
##lects
##eli
deemed
shoes
recurs
colors
impacts
acup
grass
exposure
carrier
planetary
directors
##ahn
profound
request
encoder
##orne
admitted
tested
separately
determination
privile
kevin
stronger
sentiment
mobility
cannabis
credits
harmful
harmony
parameter
evaluate
diagnost
shapes
message
hyperb
interviews
varying
sikhs
expectations
publishers
alpha
pharmac
dangerous
##group
armistice
dvd
fro
fix
jr
jes
mim
pist
races
ross
trou
##lie
##pe
##inator
##icide
##omics
##aman
stere
##chen
comfort
unic
enth
enlight
notions
decide
outstanding
##tenance
##ailed
query
foundational
humanities
maintenance
155
informal
landed
skept
legacy
everyone
appearing
temples
entering
epic
ensuring
verte
convert
catast
discoveries
infinites
websites
settlers
weekly
societal
manipulation
limitations
tournaments
immigrants
botany
manifest
strictly
dramatic
arbitrary
vessels
procla
shogun
alcohol
pythag
admiral
acupunct
bour
bought
faces
finger
ist
kin
kel
kame
mouth
vow
##uct
##ean
##nik
##mon
##makers
##dor
##band
##27
##anth
toler
reun
##uten
prokary
spend
##ifiable
##aga
##iah
enact
shock
regen
prehist
maur
varieties
endang
brothers
herbs
1930
calend
combine
arguing
passage
pottery
##oids
replacement
subjective
payments
regularization
precisely
excell
incorporating
tracking
chatbot
fellow
melod
pilot
conversion
comprising
guardian
update
delivered
exploitation
babylonian
facilitate
ecosystems
##urrent
culm
hulk
ceasefire
audiences
amendment
ethiopia
emerge
maritime
maharashtra
8th
bry
cass
filled
haus
jers
lac
nail
ports
tons
vib
wet
##iel
##pat
##zen
##erior
##arth
##icism
##isons
##asth
##room
##stone
##eto
isomet
##adim
concess
##imb
chlor
enorm
enables
implied
synd
evac
norweg
internship
blues
willing
annually
elabor
opponents
lincol
structured
deliver
raising
##plex
microeconom
microscop
sequel
hardy
communicate
commitment
fighters
##ascular
nucleus
##eva
roll
windows
abstraction
wealthy
bayesian
turkish
enterprises
calculation
enjoyed
pitts
prosperity
manchuria
transparency
jersey
lincoln
59
88
hipp
jude
lt
masters
##acent
##irable
##osa
##izers
##force
displaying
coeff
outline
preserved
distant
endors
charter
persecution
corn
entente
postgraduate
combinations
insights
devoted
1925
productive
hollywood
interactive
copy
##after
premi
calculated
comparable
removal
seemed
exercises
segments
disputed
constitute
fertil
promotional
croat
affiliated
temporal
erotic
hebrew
cis
gab
gary
gather
horn
rings
##auc
##ression
##eroy
##elian
##oli
prost
tract
intens
contex
adher
polo
basel
generations
assault
sox
capit
endow
##ientific
physic
retreat
associate
associations
succession
possession
introducing
conventions
malaya
astrolog
measuring
dominion
##chester
federated
walmart
journalist
transformations
juda
caste
advocates
olig
rigorous
anthropology
renewed
prompted
repeatedly
nutri
metabolic
thirty
disappear
stimulus
chamber
diagram
wrestling
metropolitan
nineteenth
norwegian
contexts
aj
bic
bug
bind
cu
kim
kitsch
nash
sier
tong
tiger
##nected
##iot
##29
##aria
##ela
##etes
##iliary
##uration
stored
##igan
##idian
##using
chand
##ander
disney
##pta
implicit
##ieves
abc
modelling
modules
overrightarrow
geoff
dots
capita
variants
critique
prevention
treaties
civilisation
volcan
occurring
joining
paying
predictive
indicating
precision
catch
duties
##arios
routledge
bmatrix
innovative
athletics
marxist
scenarios
stopped
volunt
hunting
pioneer
hierarch
pursued
earthquake
advancements
ceremon
coordinates
81
bish
ein
fame
wel
##ripts
##uz
##uania
##hn
##inery
##entic
rebr
##abul
##aven
unus
intense
scales
##astro
##usted
instant
mini
supplement
expelled
annivers
developmental
##brids
avant
proponents
specialists
activation
italians
morning
males
hybrids
circuits
quantities
virus
baltic
sentence
1905
essay
sharp
##orphism
composer
fulf
weakened
reflecting
surrounded
coding
transmitted
arrangement
instructions
##onymous
submarines
lithuania
subsidiary
beautiful
deposits
crops
oddity
terminology
incomple
gambling
invariant
franchise
aw
file
gap
jump
lgb
lanka
node
tall
vik
ye
##hame
throw
##eding
##alf
toxic
##oust
##etrics
##chem
##idal
arn
artery
comprom
shell
lev
intensive
##ache
ampl
abuse
muss
aggression
##ysics
metam
highlands
biologists
blog
flash
drin
pointed
skilled
1932
terrain
140
conven
raids
managers
##aneous
synchron
irre
denote
salt
9780
samuel
diffusion
camer
230
algorithmic
falls
hugh
consequently
struck
tendency
concentrated
proofs
aesthetics
libertarian
eukaryotic
tactics
uprising
kamehame
anniversary
lgbt
kamehameha
dod
gem
hapt
htt
jav
nort
piano
qi
##rific
##iability
##gun
##time
##85
##enment
##isal
aside
##eman
stu
onwards
shel
shop
##izable
clash
##ansas
centres
phases
emir
preference
knot
transactions
actu
brig
variant
simulation
##ception
revised
completing
singing
communal
physiological
retain
guad
filmed
internationally
protector
textbook
barriers
similarity
seeing
raf
facing
breath
bush
salary
taxonom
translational
collectively
incorrect
automatically
rebu
demonstrate
harmonic
corresponds
##osphere
customer
happen
volumes
slowly
eleven
dispute
##heim
gaul
##⣿⣿⣿⣿
sufficiently
hierarchy
orchestra
penalty
conspir
deputy
enlightenment
bols
cue
dw
hug
lap
rape
##eav
##yer
##ports
##oen
##oons
##hed
thres
andhra
##ask
##through
##chi
altered
complicated
##ume
##estone
disin
shan
contested
peru
emissions
displayed
norman
howard
caps
organisations
communism
redirect
guerr
memor
preview
125
backp
harris
libr
examine
sympath
managing
facial
navig
navigation
supplied
myst
##ochond
reportedly
prisoner
requirement
situated
citizen
demonstration
customs
corporations
exhibit
##inois
sculptures
manipur
archaea
recommended
throne
comprises
annexation
trigg
apparent
clustering
constituent
besides
peasants
discourse
furniture
auxiliary
artifacts
acupuncture
enormous
86
bun
gp
ms
mend
noun
sul
tends
tables
uef
wond
##hard
##tor
##74
thick
##enz
##eled
ally
suicide
##aine
prestig
unre
shir
shots
imaging
goa
geneva
phon
teen
hisp
underm
##oku
thereafter
##ictions
secured
humid
airb
descend
patent
patrick
hero
multipl
legend
postal
harry
opposing
handbook
optical
illinois
squares
commercially
literally
reviewed
1907
emphasizing
markov
voiced
flows
cutting
eyes
##iffs
dialects
anatom
decentralized
gallery
analyzed
jonathan
junior
crafts
oblig
nitrogen
dedu
afghanistan
dahua
collapsed
##abulary
uefa
bible
cum
dio
kiev
nv
sizes
##nia
##life
##fol
##found
##86
##onian
##iner
##outs
##iding
beijing
chal
##oded
##apes
##unt
##unic
disaster
incons
scoring
##ipe
perplex
mathsf
roads
acute
metall
finish
##ribed
variance
discount
socially
remember
drives
landings
diverg
winners
algae
morris
authoritarian
cleav
doctrine
monthly
debates
davis
starts
photo
beneficial
1908
considerably
discussions
hearing
galicia
baby
enhanced
vocabulary
belonging
recommendations
himalayas
viceroy
corset
conferences
programmes
fossil
fantasy
sigma
tibet
enthus
sierra
61
750
bf
cens
dx
kle
lip
sit
tort
tcl
teles
zh
##power
##79
##ester
##orms
##aland
##rot
##sto
##amic
##uras
##tering
beings
beats
unch
seized
##eller
notice
##oured
##pervised
##forward
decimal
apprec
relied
##phones
noise
valle
flights
equally
likewise
anna
elites
exploring
1934
proto
swim
viewers
appearances
diat
cypr
qualities
homes
architectural
immune
equivalence
difficulties
surviv
premium
martian
minimize
ghats
breakthrough
rajasth
rigid
chromosomes
unpre
botan
subspec
atmospheric
unsupervised
flourished
horizont
scotland
superintelligence
lewis
calendar
bolshev
threshold
72
cnn
dave
dick
gym
hang
hors
ian
makers
sant
##rant
##hem
##flow
##46
##inity
##oma
##ilon
forec
forall
##chy
##otions
##oshi
##iances
prix
encl
##atern
afterwards
metre
grade
organizing
signing
particles
occasions
##under
guest
1600
ideologies
swing
songwrit
deliber
handle
1928
vienna
theorists
employee
choosing
continuity
acceptable
bills
billboard
considerations
accounting
distinctive
##coming
hoped
magnetic
serbian
paradox
inherited
feelings
package
nutrition
##ulsion
symmetry
enforcement
ferdin
consciousness
narratives
versailles
mesoamerica
catastrop
endangered
guadal
ferdinand
02
ech
egg
gord
len
lav
oregon
rend
sad
tast
wake
yin
##ais
##eus
##vious
##bec
##bury
inev
##itic
##itary
##omal
##iva
reich
##aints
##odyn
##essed
##ifer
indoch
shorter
##elles
##enda
warri
fired
fraction
subord
twitter
reliable
underw
socio
knight
meter
##phi
sino
europeans
persu
edited
realism
realized
ski
factions
gameplay
accordingly
backed
behalf
slave
ceased
religions
females
digit
taxation
consistency
readers
predicting
billiards
doctoral
inspiration
accurately
boxing
melody
advocate
benj
##iji
messages
celebrated
aerial
stanford
decrease
facilitated
databases
floor
bureauc
convex
accomplish
bibl
photosynth
reconstruction
neighborhood
jurisdiction
vladim
perplexity
telesc
bureaucr
07
codes
eric
gor
gan
hiro
lor
liv
lend
lose
mys
okin
tended
upl
yu
##aan
##eper
##po
##wart
##jo
##ativity
##rod
##leum
##olini
##utta
##istence
comments
exha
##agen
compiled
lever
placing
phones
asset
##oking
invasions
soci
maya
counting
engaging
classify
followers
traders
herod
multic
openly
textiles
stands
combinator
viewing
##ocracy
1923
financing
continuum
mitochond
cups
priority
1898
dynasties
addressed
horror
rounds
advantages
injuries
cauc
proposals
schedule
danish
savings
ignored
boosting
preservation
overlap
wikimedia
bureau
vertical
answers
acknowledged
murdered
subscribers
proclaimed
mussolini
haptic
stuart
libraries
82
bold
horm
tony
##rie
##ci
##cel
##wal
##33
##alism
##iser
##rog
##eton
stabil
##adow
aryan
arena
inclus
leo
##orean
adequ
warning
warned
intercon
amph
##iki
##ikk
eva
reluct
undergo
##ropy
##ropag
acids
transit
metrics
attended
reputation
##ographer
##oney
estonia
reverse
deport
designing
planes
seconds
memo
machinery
explains
legally
##onto
activists
degen
lesser
looks
condem
qualified
integrate
reduces
debated
mounted
mapsto
starred
assume
automation
automatic
galax
challenging
removing
remainder
peninsular
updated
analytic
pulse
managerial
achievements
scholarly
##restrial
surgeons
incentives
copperhead
ahmed
dubbed
monopoly
celest
petroleum
ernst
argentina
mixture
overwhelming
##communic
diagnostic
judaism
benjamin
vladimir
350
76
bin
dir
eigen
kir
koch
lum
mond
nerve
pir
ronald
sic
sister
wag
##eu
##eor
##lies
##lav
##mi
##ded
tower
##amoto
stick
conform
##ulates
chapt
unexp
sees
claus
##ulture
amid
email
subgroup
regulate
##ysis
##teness
counties
repet
obvious
carriers
##space
advancing
posted
treating
successive
examined
110
breach
deeply
derives
participating
holiday
robotic
expressing
pathology
scholarship
preventing
sensors
tribal
franklin
fluid
affecting
orbits
bolivia
attributes
##otypes
calcutta
mercury
ohio
hazard
pronounced
vulnerable
diamond
abbreviated
elder
syll
hyperbolic
backpropag
unexpected
650
cad
caught
hits
ko
kos
kick
lion
miam
nud
piv
##cup
##hatt
##mo
##dam
##erals
##atism
##edical
##elph
##emis
spar
sparked
##aped
arrow
##rome
compatible
shield
leib
##ovic
##ourg
hein
##ipher
abund
relies
invited
cole
imports
bright
grouped
blind
exports
soul
anyone
##anny
belt
##oyd
companion
retire
matth
glac
promised
ideological
barrier
authentic
applicable
farming
keyboard
footage
worksh
telecommunic
soldier
digest
attacking
arabian
punishment
consistently
attempting
vein
administr
finds
automob
exceptions
martial
manufactured
anthony
coupled
citizenship
aliens
quebec
nobility
ambig
practitioner
induced
decorated
analytical
decreased
garde
liberty
heterodox
lieuten
veterinary
neurosc
preserving
##opathic
balkans
caval
svm
macroeconomics
partisans
quadratic
intuition
vacuum
therapeutic
rajasthan
chapters
miami
aids
dai
gent
gets
herm
hip
hair
kum
lung
sib
sang
tip
##night
##cule
##fc
##tec
##edge
##icious
##eta
##ilst
##urable
forum
stro
whit
whilst
reass
##teries
chip
##andy
##esty
trace
##ellation
noting
##endra
##raham
##ounds
histories
knew
workforce
##anner
crises
prints
terr
popularized
didn
albania
##ullah
dominate
failing
viruses
##ytes
##anao
1909
lawsuit
##regular
window
incorporates
commissioned
addressing
matching
meetings
duke
rajya
marxian
cartography
inequalities
sustained
substantially
enemies
satisfy
relying
eukaryotes
prohibited
lesb
manufacturers
mtv
treasury
precipitation
exempl
remedies
##dorff
hausdorff
ltd
diatonic
biblical
cable
cyl
eb
fake
herman
ja
jaw
ker
lak
por
porn
pull
rav
rocks
tan
tum
tub
##ele
##37
##66
##onaut
##icit
##omans
##urred
ask
forcing
ont
##adelph
##uted
chenn
deleg
worship
leak
##achi
commem
phosph
economically
generals
presents
##ailing
##phant
varphi
infect
differentiation
drav
originating
herbert
##ucker
northeastern
philadelph
lifestyle
portfol
novels
successes
listening
auto
130
admission
reporting
competed
properly
princeton
cycles
telephone
angles
targeting
1906
emphasize
minorities
lacking
precurs
correspondence
looked
##holders
godd
wearing
migrated
poorly
preparation
##hua
##opolit
descriptive
cluster
liberian
mobilized
guru
sixt
decomposition
nursing
analysts
celtic
formulas
morocco
indochina
bert
berg
cuts
cros
dn
ion
ios
jup
joy
lem
sel
sod
tin
##aver
##niz
##yte
##ho
##hand
##bar
##bul
##xide
##atar
##iti
replic
chec
##plane
pruss
incub
shoe
interim
abilities
abroad
coff
files
generalized
sahar
communists
owners
confront
introduce
examines
careers
approached
insurg
networking
princely
irregular
satur
failures
creator
##riptions
dividing
senator
excer
putting
prevented
talks
maximize
crewed
rejection
conversely
flux
efficiently
wounds
updates
satisfies
pupp
headquarter
phylogen
scottish
coinc
astronomical
battalions
derek
##ogeneous
vertebr
pittsburgh
leibniz
aur
coss
jen
l2
osc
pas
pall
pill
sight
uph
##gie
##bell
##kel
##71
theod
##orious
inade
##ican
##asp
ster
whip
reorgan
anomal
##ople
##ando
prone
unt
nepal
leb
##ibbe
resign
intent
heal
##berts
poles
artemis
phi
boards
evident
##formation
developer
##ublin
productions
actress
offs
finn
monten
infection
carney
charges
retro
crack
##bras
##param
healthy
165
russians
startup
delib
combines
symph
insects
globally
globalization
telegr
stein
differs
hostile
violation
broadcasts
emphasizes
councils
closure
lacked
odds
draws
magazines
wilhel
pilgr
toronto
fascism
expertise
apparently
garden
biomedical
arcade
krish
opinions
liberals
excluding
veterans
dollar
prolif
analogous
grammar
inferior
macroeconomic
zombies
withdrawal
caliphate
biochemistry
mammals
hypotheses
spheres
subspecial
lieutenant
philadelphia
inadequ
91
hart
hamm
kan
lag
ost
pose
sake
tension
##rained
##48
##esco
inland
tob
##ecd
##aming
##ogan
uncle
neh
enz
leaf
abraham
fruit
emotions
newfound
##print
##ateral
overcome
reloc
coher
feud
attitudes
thanks
##auss
provisions
governmental
blocks
caribbe
organize
remark
consideration
##engers
filming
northwestern
midway
lifetime
ideals
issn
synt
octave
determines
breast
arrest
announcement
holdings
continuously
normative
wales
commanders
transformers
1904
conservatives
chiefs
missionaries
pathways
collaborated
madh
investigate
investigated
cardin
murray
permission
ethnicity
strait
adjacent
hyperparam
utilized
satisfying
classifiers
neuron
validation
municip
##oplasm
excluded
lithuan
sacrific
photographs
columns
##opathy
carolina
nickn
bombs
pmid
bharat
bruce
predecessors
discontin
valleys
celestial
backpropagation
chennai
wilhelm
caribbean
bac
blow
cere
cave
fing
fill
gol
gear
gyn
kent
lam
nur
rosen
sts
##uin
##dd
##bow
##je
##atus
##esia
insc
##ische
##otal
##agar
priest
shr
shipping
leop
##aceut
syrian
manchester
phoen
dece
undef
regiment
knock
fees
acted
monument
euro
discl
flaw
persia
singers
sax
lock
eddy
corner
directions
elon
reflects
harb
divine
helm
latent
denom
poet
poem
integrity
victories
ready
moz
##faction
molecule
talent
measurements
experimentation
stems
euclid
commented
mindanao
interpretations
suffering
venus
tattooed
correctly
ambass
spoke
protecting
simpler
alphab
climbing
slee
jacobin
volunteer
seeds
absorbed
rubber
evolving
portrayed
gathered
expeditionary
riemann
dismissed
recovered
abolished
prevalent
pleasure
pyram
judea
geoffrey
voluntary
unusual
conspiracy
dioxide
amphib
jupiter
headquartered
ioc
jing
jstor
kann
ment
mud
sessions
va
##aic
##eo
##pages
##making
##key
##42
##olph
##ivist
asym
stack
chet
##ifier
##plant
trench
traces
sele
clients
##ccess
##endo
##rits
franz
butter
##oka
earn
defended
minerals
brings
monte
learner
##ographical
founders
gran
expon
whereby
signaling
milton
105
conclus
driver
physically
electrons
multim
prompts
facto
lawrence
textbooks
opponent
possibilities
affects
insur
radi
certification
hyder
poison
journey
projected
homo
creativity
architectures
bowling
infinity
obtaining
chromosome
ceramics
feeling
elimination
licensing
liu
pseudoscientific
debuted
##natural
protocols
recruit
unsuccess
bombers
consolidated
gravity
zombie
enlisted
registration
visigothic
fellowship
perpet
mamlu
bishop
##oustic
caucas
enzym
##aceutical
bj
ble
bog
dor
dys
hou
hob
hamil
kl
kansas
ome
pel
ros
sap
ticket
##ui
##ux
##sch
##wick
##mind
##max
##72
##icate
##itated
##itism
##isure
stones
##idia
##odal
degrad
ary
arun
##iaz
##mental
##izational
consent
##cedented
serial
overview
relates
pregn
meg
develops
repair
monaster
##vey
##jective
bloc
grid
compute
differently
drag
editions
editing
colleg
controlling
critiqu
aven
faction
curves
config
##asha
##aux
smallest
personality
antis
resta
breasts
democrat
doesn
egyptians
substitution
journalism
##affe
embod
divides
plato
##ospace
rankings
calculate
spreading
destroying
commissioner
addresses
##marks
gods
##owski
frameworks
##efin
flew
bulk
bullet
cartesian
cooperative
weighted
mcg
festivals
depicting
unpaid
eliminate
brazilian
naturopathy
hydro
preceding
terrorism
guaranteed
attendance
convey
balkan
trickle
witnessed
assyrian
taxonomic
unprecedented
horizontal
gymn
incubus
cardinality
hamilton
360
bapt
dublin
hide
miz
mood
nails
rl
tight
##upp
##no
##mat
##32
##ti
##atri
##icacy
##ington
##thal
static
##uta
alp
##ayy
##istem
unions
unint
worse
##ova
alliances
manga
centr
formulation
deccan
desirable
instability
defending
##oints
transaction
metals
expense
medicinal
sindh
computed
performers
functioning
noneth
explaining
requested
calm
autumn
vii
vij
certified
shortages
##naissance
capturing
motif
subjected
contrary
sampling
accepting
industrialization
assuming
damasc
clinton
collaborative
panzer
otto
investigations
constructing
couple
sexuality
villa
museums
coordination
##canal
jacques
declaring
inherit
waiting
imagery
munich
simultaneous
withdrew
preceded
ancestor
habitat
prolong
allegedly
incentive
reconnaissance
assassinated
irrational
conjunction
prepare
aggressive
iberian
proximity
hellenistic
##elihood
infinitesimal
pythagorean
hierarchical
protectorate
guadalcanal
commemor
finnish
hyderabad
omega
nonetheless
baker
ced
dc
dock
eisen
gest
jenn
lying
rows
sor
saving
tier
waff
##uard
##vation
##sk
##mill
##fit
##kan
##acle
##eterm
whate
alas
##abar
##ocent
unn
##unc
seattle
dispar
compare
shaw
resolved
interst
##000
canaan
abo
peripher
##ords
decay
colours
subgen
inversion
coch
rook
roberts
governors
mineral
differing
researcher
endeav
medications
adverse
##anne
bros
releasing
##acteria
provider
insisted
insuff
circulation
causal
deepmind
illum
myc
semicon
embar
probabil
michigan
1894
absent
accounted
odys
flags
sno
avoiding
3000
neighboring
henri
altman
dissolved
tuned
constantin
normalization
conversation
dialect
suggesting
inherent
massacres
beatles
fertility
sacred
pharmaceutical
accelerated
guarantee
scrut
temporarily
julian
earthquakes
kennedy
gathering
manufacturer
provisional
delayed
transhumanism
legitim
compensation
foster
patronage
suppressed
thorough
exterm
undertaken
dawn
latvia
imprisoned
wireless
shogunate
prehistoric
culminated
croatia
puppet
nehru
whatever
semiconduct
01
09
69
79
bust
cn
cure
dense
eag
erect
euras
f1
fission
gauss
hary
ig
mv
nord
nint
sending
sony
tert
tale
##yd
##points
##haus
##kt
##alam
##asis
##urring
forth
isomorphism
##iga
conject
spr
##abeth
##ploys
leisure
##ello
scat
clause
##ermat
##perform
heg
##ipel
modification
muscles
##anged
generates
relax
fee
geopolit
pope
repar
modeled
blo
carp
efficacy
severely
colleagues
greens
herb
realm
examining
launching
devised
restrain
privately
neglect
journalists
departure
macos
##linear
essays
closest
missionary
formalized
converges
dougl
fifty
1890
sung
calculations
martians
manufacture
ottomans
comparing
paramount
composite
maintains
bacterial
suprem
enhancing
railways
mountainous
injections
analytics
simplified
succeed
fertile
rivalry
guidance
nanotechnology
vinyl
transcription
bernard
tells
confeder
scalar
legitimate
convenient
lgbtq
forecast
neuroscience
inadequate
damascus
odyssey
douglas
71
cards
dent
fel
fate
fern
fier
gel
het
jar
lon
mum
nl
pace
rhod
racks
tenth
tube
vt
vass
wants
##uo
##pro
##hart
##mans
##36
ing
##itis
##rov
##add
##adder
anime
##umann
##oge
pries
unst
resigned
##ellar
interch
interference
fron
recurrent
modular
register
invade
roth
musician
countable
organizational
believes
methodological
eliz
archipel
multip
entrepr
1700
gloss
curt
legion
1200
##enez
launches
antib
handed
logar
primitive
invested
1927
definitive
colonization
aster
latitude
meanings
declare
micron
1007
qualitative
futur
steven
summary
hostilities
criticised
mitch
banach
translations
safeg
crossed
marker
garrison
voices
luzon
cartoon
tunes
tunis
purchasing
theaters
spectral
elevation
belongs
criminals
rifles
connecting
cuba
nhs
rotation
hydrogen
subscription
sustainability
burned
recruited
submitted
chaos
extraction
squadron
triad
evolve
convinced
recreational
frederic
surfaces
explosion
appointment
enacted
norton
gordon
subordinate
underwent
inclusive
##ikkim
saturday
newfoundland
insufficient
entreprene
521
ahm
bart
bath
brows
cite
gib
hague
lil
oste
vern
ward
##uity
##eq
##lature
##cuss
##wig
##oned
##oro
##isers
anderson
##lements
##chip
##igue
rever
reagan
ana
orange
deeper
##opian
unification
disl
incidents
##aku
##aks
##ghai
cler
adults
interc
abu
frust
asserted
pret
meters
brill
workplace
biased
biotechnology
obsc
posed
grants
carter
socialists
equator
mild
deported
##annon
brook
greco
elli
multil
geographer
legs
barn
bars
educated
specialization
restore
restoration
totally
viable
himachal
certific
eventual
determinant
shoulder
passes
salaries
conception
georges
interesting
regards
interacting
normandy
camb
violated
judicial
##ormal
reader
moist
learners
graphs
ultra
peaceful
conducting
panel
chemicals
godel
compositions
exhibited
##iatry
ivan
morphology
constituted
hybridization
linguistics
naming
pioneered
mccarth
cycling
partisan
feminine
luxemb
gothic
arnold
gemini
triggered
wonder
nvidia
infectious
portfolio
probabilistic
nintendo
mccarthy
89
fc
fid
hate
jet
mere
mile
maced
nile
neck
ov
pix
sikkim
vag
##lim
##lah
##hd
##esc
##eds
ink
ingr
inception
##aro
##asive
##rection
##acles
conced
##ulu
sure
cher
chips
execution
##ials
##ears
unb
unve
uniqu
##mentation
tries
scor
adolf
interf
##prin
##formatics
serbs
reliance
reliability
brands
mathematically
api
estate
flav
signature
numbered
##rones
detach
electrom
crore
nonlinear
##class
landmark
identifies
solomon
activism
convolution
analyses
1926
width
latest
gradual
integrating
approximate
dealt
threatening
1895
sunk
francois
talking
conquer
rhet
resisted
jointly
wright
atlanta
traveled
scenario
reinforced
##ogenesis
reveal
wildlife
initiatives
smartphones
waist
thinkers
puzz
mirror
mosque
schemes
disorder
accomplished
excessive
assassination
advancement
indirectly
competitors
steadily
abbas
inaugural
zionist
expenditure
metabolism
disagre
pivotal
lithuanian
hetman
aar
hut
hak
hered
ij
kab
koh
lp
nou
nil
pic
sine
tune
tonic
##gas
##bu
##bone
##61
##erion
##onso
##aton
##asaki
##reen
stance
suite
deployment
##ifiers
unw
unin
seb
disj
shi
##ibun
##ologous
##athlon
artis
phibun
boole
boats
formats
##pring
appe
subfield
unders
feas
##ausible
quasi
grain
differentiated
##ivided
culturally
southeastern
fourier
confusion
confused
swift
##raction
limiting
insight
superst
radius
republics
conditional
salv
painters
academics
motors
taxa
##ecuted
silicon
1901
michel
implementing
favored
collaborators
nominal
1871
tourism
constantly
noble
coordinated
marshal
exploited
aerospace
aztec
inhabited
illnesses
adjusted
patriotic
yields
surgeon
himalayan
cultivation
nicholas
irrigation
dictators
encountered
quotient
manuscripts
resolve
rpm
rectang
truly
enthusi
swimming
taste
telescope
okinawa
multicellular
matthew
offspring
conclusions
multimodal
enzymes
houston
arunachal
gastro
mine
puts
ration
rene
rnn
ted
tig
vand
yuan
ze
##eur
##part
##mus
##bles
##31
##inum
##inear
##alg
##anas
toy
##aca
##urities
##urai
forty
##lyn
congo
##istically
##abo
trail
indefin
##active
heur
##duction
imo
employs
marin
modes
serge
involution
default
##oinformatics
populated
door
minsky
politician
schm
classics
strat
strang
strips
infring
endocr
filip
cargo
organelles
computations
maine
labs
entropy
critically
accordance
libya
similarities
affine
applicants
handling
recept
restruct
freely
interventions
volat
loos
emergent
sheet
collins
standardized
alternatively
alternatives
ukrainians
derive
steam
summers
starvation
responsibilities
learns
donated
fallen
sensing
flowers
##holder
surveys
evaluated
evaluating
nomenc
screens
perceptrons
orthon
blockade
##related
revenues
externalities
mascul
streams
##atios
segreg
celeb
vocals
bitcoins
thriller
morphisms
1857
accompanying
polytechnics
publisher
eliminated
saru
peaked
palestinians
ganges
toll
dramatically
symmet
culmin
superiority
scarc
forbidden
allegations
ceremony
kenneth
husband
crusad
subdiv
slavic
listeners
naked
privileges
premiered
deliberately
unsuccessful
constantinople
archipelago
bread
benn
dust
fusion
fishing
gael
lane
lasts
mines
mck
ni
nelson
patt
ratios
tack
ub
wats
zah
−1
##lag
##pin
##pot
##oan
##mm
##fa
##34
##ju
##erian
##anian
##anmar
##inge
##station
##eling
##aco
##ilitation
##the
##ctu
##oti
##ogram
triv
neolithic
compilation
leh
resumed
ads
##uster
firing
artworks
marv
boat
colomb
systematically
assim
acre
acoustic
speculative
universally
strain
proving
progression
demanding
##rolled
##aze
differentiable
guy
##airo
requests
criterion
portable
reflex
postwar
backing
barry
evening
instituted
carefully
supervision
verse
malabar
circles
separable
authored
qualification
homologous
consumed
myanmar
figur
spanning
walking
commanded
##yrus
broadcaster
acquiring
falling
meaningful
priorit
oxid
sensit
bombard
soils
shifting
##brel
paramilit
bengali
tribun
avoided
permit
misin
misle
honour
mandatory
oversight
darpa
alexandria
umbrel
injured
boltz
editorial
seriously
induction
expectation
simplest
adventure
victoria
lottery
commodities
households
symmetric
hackers
phrases
phylum
friedman
iteration
diagonal
accumulation
biochemical
flexible
bosnia
anticipated
hallucinations
trigonometric
mitigate
surprise
microbiology
microeconomics
nutrients
shanghai
descendants
interconnected
reluctant
antisem
aboard
haryana
rackspace
nomenclature
watson
boltzmann
450
87
97
bt
bellig
cork
eating
glu
giants
jay
java
mans
py
rent
vas
vap
##rus
##mos
##far
##88
thomp
##erver
##alus
##omo
##omain
##olly
propr
sued
orn
exiled
exceeded
##uddin
##unes
atom
energ
disk
##quet
lease
reserved
intensity
##ptic
contents
manila
maneu
amrits
genesis
agenda
meite
2026
weber
rooms
outperform
peac
obama
gray
expenses
carols
socialized
buying
edges
lah
laure
guards
##parts
127
marketed
harvey
linna
morgan
colonel
loop
testim
deepf
occupy
employing
observer
homeland
nascar
papyrus
hosting
violations
architects
geometrical
silent
assistants
likelihood
burning
conceived
excav
1897
invading
warsaw
contrasted
counterparts
harmon
chatbots
exclusion
fairly
distributions
encouraging
dependence
diplomacy
stressed
theatrical
cooper
preparing
editors
arrangements
installation
chilean
naturopaths
doubt
doubled
derivatives
floating
categorized
habitats
scarce
mortality
peasant
reconstruct
embryo
##frac
vegetation
ricardo
borrowed
pistol
maurice
concession
elaborate
incomplete
horses
coffee
excerpt
coherent
prolonged
interchange
ahmad
belliger
thompson
amritsar
96
bub
dancing
jason
jama
lus
lakers
m3
mentions
rah
tut
venez
yes
##ei
##iating
##hum
##atra
##anol
##arc
##icients
##reated
##tha
##igo
replay
alumn
##opp
arid
arteries
unesco
trium
neumann
disrupt
##quis
wore
##season
resemble
notorious
clip
##astics
##astically
amino
ecl
recession
cents
##anga
accla
asserts
rooted
soy
pareto
attending
geological
whenever
ups
classifications
grave
medication
programmed
drain
processed
edm
performer
informally
promise
associative
confident
austin
##atherine
##ophone
winters
handball
##rett
nearest
circular
occurrence
declining
passengers
certainly
democracies
childhood
coastline
sevent
walker
creatures
defeating
numerals
translate
crossing
reasonable
selecting
bitter
sensory
nationwide
fundamentally
transported
unlik
screening
questioned
cardinal
compactness
atlas
speeds
seemingly
professions
liberalism
subseteq
hopes
wheat
umayy
ivory
orientation
drove
favorite
negotiated
aiming
subspaces
regulating
sponsor
cubic
clusters
dressed
abdul
axiomatic
compliance
gerry
deposit
polymorphism
bonus
determinants
shaq
galilee
portraits
brutal
jesus
mimic
coefficients
capitol
survivors
adequate
dravidian
precursor
remarkable
inheritance
waffen
##millan
aaron
culminating
bets
cerv
eros
gott
giant
gpus
hers
kant
mall
pent
peng
r1
ron
rash
sr
till
wer
wedd
##rians
##iav
##oi
##hs
##hin
##wall
##mation
##gon
##bat
##backs
##xy
##49
##jing
##atis
##atem
##oram
inver
andaman
##rels
##urved
asking
isomorphic
stap
##iden
##iratory
##utative
##imid
anx
##agers
pray
unoff
neq
disab
##quer
sham
shore
leone
levant
##oster
manhatt
perry
modify
##grave
##enson
overf
relate
maury
transp
meteor
geq
upcoming
schwart
simulated
respiratory
retal
deterior
corpus
militar
performs
##ahu
functionality
##ucks
imported
145
encoding
shortage
cybers
tariffs
feder
participatory
microchip
sequential
robin
sentences
macmillan
beginnings
1903
garment
athlete
castle
imperialism
lengths
tribute
drawings
1861
distinguishing
1870
tensors
##iatrics
repeat
permanently
trait
exploit
perfectly
extraord
rockets
picked
terrorist
coupe
ancestry
striking
mercant
rhythmic
hayek
grammy
gravit
cultivated
##door
thermal
diameter
transfusion
affordable
stylized
exchanges
displaced
gilbert
astrologers
rebranded
cameras
catastrophic
inevitable
photosynthesis
hirosh
prussia
ambassador
kannada
collegiate
reparations
priests
mitchell
orthonormal
celebrit
umbrella
meitei
unlikely
manhattan
schwartz
banner
dil
eat
gav
gill
hast
mant
nudes
ping
rally
rays
rbi
sak
vascular
wings
yale
##uine
##iotic
theology
##isible
##aspor
##asma
##elic
##advant
anch
##ayana
sue
chanc
spelling
##abi
##agh
##agram
arises
##avia
prayer
una
atp
atroc
sean
seize
disadvant
sher
##isha
scaling
clips
##enders
genus
genetically
marily
formations
evil
consort
technically
subl
inventions
cohen
meiji
##ysical
##away
##phal
##obar
bios
classroom
strings
carn
additive
flown
airlines
equals
extant
demo
tradem
continents
laur
labelled
famously
##boards
reflection
##ophysics
listing
presenting
examinations
convicted
135
masses
iliac
placebo
definite
lessons
dominions
problematic
##harm
balanced
robb
waltz
starring
congru
assumes
athens
temperate
travels
calculating
contempor
flowing
stationed
shifts
advocating
assembled
diploma
shaping
preparations
suspected
screenplay
1858
indoor
pedro
##baum
fastest
##uela
presidents
hunter
##minster
intellectuals
iranian
kurt
##ught
enlar
proceedings
rituals
oklah
trigonometry
contradict
accredited
accommodate
excellence
einstein
drinks
anatomical
cyprus
skiing
mysore
degenerate
goddess
deliberate
caucasus
rookie
snooker
mvp
elizabeth
luxembourg
unveiled
hetmanate
celebrities
oklahoma
aa
bess
dm
fm
ferr
iw
jung
kas
mell
msc
qing
rup
ryan
tn
tyr
tata
ved
vig
wiley
xen
zen
zap
##aec
##rust
##eit
##vent
##vance
##sburg
##pow
##oqu
##him
##wara
##gov
##bent
##town
##43
##47
##62
##oning
##atum
##ioned
##ropr
##olo
##urgy
forc
ford
##emy
stew
##cha
##ched
onset
reed
replication
proc
proph
ard
##uda
item
incomp
sho
##antics
##acher
##ignment
fract
##angel
displays
##ounded
subtle
##eping
##aware
brun
brass
playstation
charl
drivers
coral
ordin
multimedia
##insic
midnight
prototype
associates
campbell
winston
insert
justify
westminster
investor
characterised
theoretic
synonym
passive
arrive
privat
negatively
sexually
##loads
continuation
missed
summit
##weight
criticisms
sentenced
laborers
laboratories
linearly
readily
audit
rapes
##iii
observable
legislatures
casting
discussing
accountability
warships
hindust
clearing
commentator
##comed
advocacy
tablets
committees
bells
reproduce
happens
codomain
rigor
restriction
raymond
possessions
distinguishes
otimes
phyla
acceler
synthesizer
recommendation
barbar
neighbouring
fragments
hamas
ohsu
intentionally
ayurved
outlined
visitors
thermodyn
advisory
graham
pursuing
cantor
veloc
ineffective
encounter
ludwig
entrance
overthrow
welcomed
compromise
actuarial
echo
workshop
kumar
lesbian
pregnancy
semiconductor
disjoint
marvell
92
cau
dances
ease
fo
gon
gis
hiring
ions
ji
jos
lyn
mg
nose
rall
sitting
saints
tet
tones
t20
xbox
yar
##lock
##zero
##mel
##maker
##kind
##isse
touring
##lem
##amy
##amation
storm
stagn
onward
##iri
##imet
##otive
orland
chor
spans
##apy
##agg
arising
##avan
trapp
##uni
disb
disabilities
disasters
warren
##forest
eclect
percuss
friday
phyt
conson
regimes
attitude
specification
offens
larry
branded
##phere
monuments
securities
blacks
##ugu
carr
carved
revision
reversed
##aza
trades
persisted
believing
coron
anns
guided
militia
modernization
domination
explores
owns
propose
proposes
texture
bodily
115
algeria
farms
superf
reporters
helpful
captivity
epith
angel
microorgan
##letal
##ymph
stev
##keley
220
##ushed
creators
moons
nucleic
collecting
garments
sanj
observing
paths
1893
castile
impacted
rebels
bombings
lloyd
contracted
1865
wearables
1880
##headed
1877
habsburg
weakness
assemblies
##atiya
##boarding
struggles
clothes
inherently
boris
constitutes
eliminating
decreasing
quarterly
iceland
nagaland
##writing
montreal
catalog
ridge
tolst
extinct
owing
polymer
cancelled
cytoplasm
crowd
outlaw
marathi
kyoto
benchmark
populist
npcs
correlation
predecessor
armenia
judgments
manuscript
crystal
stamps
tongue
inconsistent
unchanged
exhaust
vertebrates
aryabh
restaur
scarcity
paramilitary
marilyn
415
ais
bsc
cp
cc
cube
dok
danny
fet
fiber
gn
h2
hap
jane
kg
mund
pere
pga
picks
qur
rope
sket
sends
tam
wu
wool
##iates
##sm
##hl
##zing
##mod
##mates
##feld
##fried
##dha
##icut
##omes
##acular
##uron
##utra
##ulg
##usive
##otov
spy
spam
spont
dean
##plan
arth
ariz
nev
##ppe
shadow
##ishn
lean
##ellor
allwin
amit
ambit
abnorm
##acked
aged
systemic
2020s
imply
instagram
parks
##issa
bioinformatics
##olds
suppose
exposition
remarked
revived
constrained
particle
##uple
buff
buck
descended
locus
edo
guatem
patents
ordering
grey
promulg
128
portions
oppression
##ophag
linking
pressures
exams
affir
personally
palgrave
##ennial
##overed
risen
authorized
bankers
bankrupt
painter
academia
softmax
destruct
##ressed
holders
missiles
judges
moore
psychiatry
240
adopting
benefited
necessity
kho
averaged
averaging
labourers
temperament
counterpart
routine
cardi
weekend
pollut
masked
strengthened
##aja
streets
##ogenous
stimulated
##beat
starship
uniforms
boyd
pink
wheelch
nagasaki
moments
fisher
granting
kilometers
patriot
shallow
switched
squadrons
billy
bearing
niche
molotov
epidem
prefix
ruthen
rescue
pharmacology
kelly
vowel
syndrome
evacuated
censorship
retirement
telecommunications
automobile
laksh
unclear
bjp
motifs
extermination
bloom
convolutional
loosely
propriet
erosion
offensives
tolstoy
arizona
allwinner
a3
cia
hiv
lec
laz
ming
mast
misc
mps
nm
pup
pagan
qin
rivals
sf
sank
tb
til
tect
wn
##eer
##num
##iosis
##pool
##gue
##fri
##tar
##oni
##enet
##arthur
##enter
##acion
##acerb
stays
##igar
rewards
##imm
bypass
exacerb
##opy
##agger
shannon
intric
scrap
scream
##overs
##ourse
amm
amster
genuine
marines
newer
evangel
colored
accidents
generic
meghal
deficit
outlets
finishing
upgrad
internists
##jection
strains
gram
wherein
carne
operative
mature
machiav
confuc
thoughts
wayne
148
engineered
activist
slogan
##enne
recognizing
diaspor
volley
malicious
denial
denoun
qualify
integrative
epistem
accessibility
urged
##imentary
mountbat
etat
contributes
distinctions
ensemb
raped
penet
fifteen
galen
madrid
##araj
suscept
fuzz
racism
nomination
##kien
1863
breakdown
berkeley
woods
1876
tomb
elevated
archaeology
borneo
celebrity
imagination
aeronaut
##itarianism
gardens
climates
prompting
victorious
cataly
##egro
tolkien
marcos
polyph
##gestion
prominently
residential
kyiv
mongolia
epidemic
battalion
lobby
embraced
scandal
semitones
prospect
dallas
nikol
isometry
microscopic
irrele
https
rebuild
galaxy
copperheads
cylinder
montenegro
krishna
alphabet
exponential
degradation
avenue
restraint
sebast
sensitivity
alumni
overfitting
orlando
percussion
meghalaya
carnegie
diaspora
mountbatten
bing
dow
dies
dign
dorm
dental
diaz
drones
gt
gul
kor
pump
sided
tap
viv
wrap
##yg
##code
##hot
##gins
##67
thread
##inally
##orical
##oria
##olis
stom
stri
##idians
ank
anonymous
##isting
spor
spand
dele
##oga
##pler
pride
##alling
##aryn
conting
##endum
intert
abelian
frances
butt
relativity
prelim
coins
outlo
specially
speculation
doz
reporter
minnes
monst
fold
##tegr
##obe
##obic
quart
positional
grouping
terminal
surreal
adds
##erto
armoured
anywhere
101
concurr
relevance
directive
archery
##uthor
##ashi
showc
terrestrial
successors
divor
referendum
##racted
argu
justified
logistics
radar
morrison
johnny
visiting
knowing
diab
runner
##ylum
##ourne
projections
homology
destination
fails
viral
renov
samu
samar
turns
violating
semantics
heaven
##ascar
greenhouse
burden
verlag
mills
manuel
personalized
novelty
oceans
documentation
peters
1868
orbiting
misuse
partnered
mask
messaging
struggled
conscription
depictions
wait
feared
packages
connectivity
boyc
discrimin
apparatus
saved
florence
##written
victorian
fatal
bridges
fueled
prohibition
omitted
alberta
hacker
patriarch
overlapping
drums
andrews
ribbent
spotify
sailors
corsets
deterministic
vessel
abbreviation
paved
flexibility
pursuit
intuitive
nurses
luxury
paleolithic
armenian
emigration
surpassed
intensified
adherents
physicist
ceremonies
hughes
dodgers
bunny
hispania
condemned
abundant
recruitment
critiques
fronts
logarithm
electromagn
schmid
gaelic
chancellor
consortium
stewart
cauchy
microorganisms
wnba
amsterdam
volleyball
ribbentrop
bore
bolog
cairo
dsc
fen
hond
hole
ix
kok
ln
lst
lips
mason
oak
pine
pip
pole
rack
sized
srin
tat
yaz
zed
##rically
##lal
##loid
##iad
##sin
##cr
##wich
##fe
##fish
##dc
##don
##body
##kal
##jordan
##inc
##orr
inability
##anim
andes
##roads
##leton
##olit
##illy
forg
stol
reef
alive
alchem
##oske
spite
arie
##ocurr
neil
dischar
compuls
shat
shipped
resh
placement
intentions
imit
warming
afl
fractions
recalled
marvin
moder
##veland
##player
decoration
subfields
overline
accent
transjordan
pars
attain
1830
counted
repatri
strange
disturb
graves
remot
extensions
##enck
demol
depiction
depicts
##ometric
pointing
anne
guild
patrons
filmmakers
promotes
postseason
liberated
lowlands
centralization
slovak
albeit
supervis
visc
visits
ethanol
collision
cleveland
accessed
ensured
probabilities
markers
graphical
1896
conflicting
algebras
conquests
hunger
voter
discovering
bombed
susan
racist
1885
wrist
dissem
dissolution
assessing
conversations
eleventh
utilizing
comprise
fortress
bostrom
dispos
splitting
delivering
##ontinental
sponsorship
presiding
inflicted
mobilization
detecting
tactical
indonesian
telugu
scripts
flooding
confederation
transfers
jurisdictions
cryptocurr
stretching
subdivided
crystall
portrait
##chenko
unicode
excellent
melodies
chloropl
tibetan
warriors
uplo
siberia
pornography
oscar
proliferation
alpine
interstellar
glossary
boolean
salvador
venezuela
soyuz
disabled
mercantil
gravitational
hiroshima
eclectic
ambitious
ensembles
dozens
bologna
5g
850
bak
bcc
bile
coc
cock
gy
gly
gust
gosp
hod
icon
kre
kra
kids
lal
lens
mik
mph
nec
oph
poker
rca
vdots
wis
wwe
xx
yard
##uro
##elect
##vet
##iks
##wear
##mone
##fast
##function
##dney
##tes
##alach
inexp
##armed
##elin
##ecurity
##olics
##acan
stip
staged
##owa
wasn
indices
##ichi
##ortions
resort
residence
plag
plausible
contam
clergy
aden
heights
##ipation
hasmone
fires
modi
modifications
##grade
tea
accus
meat
mao
specify
1820
securing
poses
suppression
blu
bladder
gren
carries
natives
##anni
edwin
rede
redist
guer
patrol
southwestern
designation
multin
enters
prevailing
##ashed
168
terry
bark
barcel
specialize
pala
templ
tempo
loose
halted
occupying
qualifications
academies
participant
keith
samurai
bigger
merit
seminal
ensuing
##ommon
verbs
cannon
closing
bounds
sanction
implementations
tenure
executives
panels
odi
flowering
flagship
demonstrating
constructions
luis
searching
oceania
minds
llc
experiencing
nomadic
wooden
permits
monitors
yankee
rainy
catholics
symbolism
gamet
gametes
rationality
principally
hopkins
pseudo
strengthening
concludes
celebration
galleries
satisfied
inductive
cinemat
daim
ashoka
auction
nicobar
refugee
naive
landscapes
ancestors
jimmy
harvest
praise
hazards
forbes
prescription
lisbon
manifolds
voyage
lecture
ratings
displacement
substitute
advertisements
devastating
endowment
nashville
guerrilla
prestigious
kievan
botanical
telegraph
municipal
discontinued
embodied
scrutiny
brooklyn
ingred
dictatorship
trivial
colombia
gluc
atrocities
preliminary
550
bou
catherine
dennis
eul
eys
gif
gland
jess
jury
kun
kath
kahn
lacks
mak
mises
oath
pasha
ssr
yush
zhu
##uky
##uki
##yo
##ycle
##oj
##wat
##mec
##dia
##boy
##esgue
inches
##ingrad
##rob
##omi
##empt
stern
##image
beating
bears
##otus
chen
sperm
##oderm
##umps
unrelated
trains
itv
shelf
##ante
clan
##arded
##berry
##sole
interm
mankind
##raisal
marie
boot
bohem
aging
twin
elephant
knots
numeral
dozen
brack
discon
blamed
britann
apost
estonian
carb
carlo
airfields
remn
revers
completeness
demograph
##plicity
incremental
104
retreated
detected
gupta
crude
methodologies
elves
##aha
nonpro
repression
herald
ske
promising
influencing
jewel
##ynchron
refin
refined
harrison
needles
importantly
slop
careful
supernatural
juan
costly
microm
negation
takeover
reaches
angl
battlefield
holistic
disciplinary
myster
veins
macarthur
safely
essence
teachings
collectors
jerry
jeremy
garn
observers
timber
urbanization
rebel
flower
infinitely
huang
luft
maximizing
destroyers
boxes
crews
exhibitions
stalingrad
aristocracy
distribute
330
straits
assessments
mandates
oversee
escaped
profitable
happy
messenger
pushing
ambitions
transmit
oriental
celebrate
ratified
favorable
1848
pioneering
possessed
dangers
catalogue
subsidies
787
proportional
guarantees
iterative
stayed
grossing
##niks
www
copyrighted
hemis
visigoths
1789
positively
lectures
steady
scandin
gateway
##repres
accreditation
giov
malayalam
prokaryotic
binding
ceremonial
prestige
cleavage
cleavages
herodotus
eigenval
sicily
hazardous
stroke
lebesgue
retrosp
asymm
chetniks
unintended
hegem
confederacy
tunisia
cambod
masculine
symmetries
tribunal
misleading
linnaeus
unauthor
forcibly
velocity
confucian
irrelevant
minnesota
arguably
yazawa
inexpensive
barcelona
983
aus
bis
bend
dome
fs
gru
gaps
nc
oecd
roc
rated
tiny
ust
wre
yours
yemen
zucker
£1
##yma
##lined
##iens
##ski
##cia
##hered
##hower
##fi
##fly
##db
##tech
##41
##jud
thar
##onics
##atical
inhib
##anus
##roit
tough
##elly
##acca
forear
console
rehab
##imp
alum
prod
proxy
spices
##oda
##aping
##ogether
##agascar
unreal
uss
atari
neph
shib
lex
clou
intercept
amar
##asser
phill
median
evid
##press
overlo
pretr
earning
invers
2028
weigh
weaker
acres
offsh
popper
##ementioned
humor
quiet
quoted
filter
sinai
milan
programmer
redes
guil
originate
moderne
##iquette
nonzero
skir
influx
popularly
postmod
behave
oppose
reception
characterization
counts
rises
improvised
costa
hym
arriving
salz
halt
qualifying
eps
##aea
consume
bigr
bigl
spaniards
mitigation
subsistence
transforming
##lining
turbo
trem
platinum
multiplayer
equivalently
damon
converts
converting
sanctions
##afe
pathway
1891
1899
##evsky
discusses
preventive
rhin
personalities
sensor
270
panama
minimization
madagascar
constructive
luther
1864
flee
fleeing
altogether
1880s
retrieval
loud
cathed
mutually
traveling
queer
queens
randomly
adjoint
venue
concentrations
reinforce
injust
morphism
##ettes
conditioning
induct
validity
drafts
encompassing
##orthy
exceptional
gangetic
jacobins
abdullah
backgrounds
maryland
highlighting
curricula
vincent
##zoa
joan
administer
nerves
747
canceled
tripura
fiba
vulnerability
obstetrics
obstacles
liga
transparent
hemp
recipient
velvet
mbbs
1800s
supplier
cheaper
recursion
regenerative
bryant
volcanic
http
disintegr
remembered
mitochondria
sparse
ambiguous
fingers
riemannian
mizoram
##thalm
eisenhower
##unciation
embargo
tertiary
conjecture
uniquely
rationing
ubiqu
umayyad
fuzzy
concurrently
gospel
eysenck
nonprofit
postmodern
aq
cattle
dak
dada
ek
fis
fau
fda
gut
gps
hi
hir
hend
hass
jets
kau
lb
mack
nish
ours
pah
punch
pomp
rs
tau
telling
vr
verm
wine
wives
##aire
##rar
##rik
##nar
##oz
##zig
##mal
##gang
##base
##enas
##anob
##arity
##arck
##rooms
tours
##omfort
##ilian
asylum
fores
##cht
##adian
##igraph
reper
##imo
alert
prose
##ctic
suited
suez
##oshen
chel
chest
chains
spear
##ods
deer
##umi
##ogens
##oper
##agara
##iae
unite
unequ
##estinal
sep
##arte
##artes
##izz
resent
plug
plasma
notew
clad
allah
amended
commutative
frames
framed
recurring
emanc
##gram
button
append
subur
undes
registry
imposing
knee
fever
defenses
transitions
peers
speculum
repeal
brush
monet
internally
airspace
depended
differentiate
respected
respiration
descartes
opium
lateral
reprin
##bren
1750
scientifically
confron
posterior
textile
harold
##scope
slovakia
encirc
encoded
logics
##ocrates
intervened
occupations
cleared
poems
motions
dynastic
revolutionized
homomorphism
estimation
supers
eras
mississ
expresses
psi
violin
semantic
##ported
##link
trek
donations
psychosom
silence
reasonably
billions
verbal
optimize
##geries
uncommon
timing
shootout
##ariat
fault
fuj
amounted
minded
colonialism
snap
nominally
##iciary
perceptions
1867
1884
tablet
revenge
venice
emperors
enhanc
vocational
empirically
comprised
morphological
##ukuo
hotel
attribute
pediatric
connecticut
puerto
peaks
rotating
iconic
##agupta
arbitrage
enforced
constituents
bibli
craig
chambers
lyric
manchukuo
tangent
##ooter
maratha
polynomials
crashed
lisp
##zyme
narrator
ernest
stretched
spinning
exchanged
spherical
cortex
tailored
escalation
sickness
johannes
exterior
galileo
vaccine
liverpool
prokaryotes
concessions
coefficient
endorsed
fertilization
bugs
emirates
brigade
rebuilt
gaulle
multiplier
zhang
bolshevik
elderly
resignation
relocated
madhya
undefined
mcgraw
##ogeography
browser
osteopathic
appeals
feasible
##music
filipino
restructuring
bombardment
lahore
retaliation
##imetres
proprietary
samuelson
compulsory
ophthalm
777
akin
bn
bs
bare
cay
cage
cush
casc
dens
edu
erupted
ff
haven
jin
loot
lope
mouse
maker
nights
ore
ought
pend
pub
tym
uter
yuri
##aired
##aunch
##rent
##van
##noy
##produ
##waffe
##mc
##bach
##39
##journ
##69
thorn
##eres
##inology
##atoes
##alo
##anic
##icul
##isy
##aser
##asim
##rock
##omed
##stand
##eted
fore
forever
isot
stark
##adha
##idu
whips
congestion
##ulatory
##otte
##osit
chick
##umes
##agm
##udh
trap
truck
enrolled
enzyme
##ovo
heian
##endi
##ritz
ware
sydney
perf
recapt
centred
margar
marco
deciding
##ounters
twe
accents
generator
earnings
maz
transplant
parl
highland
##oba
##obia
funk
carot
computability
constellation
milestone
generalizations
sauron
drone
processors
detr
detroit
guang
servers
curv
protective
##enchyma
civic
envision
variously
individually
##nessee
sloven
palm
raises
encounters
characterize
connot
couns
##yler
colloqu
occupational
graduation
homogeneous
keys
renown
strongest
victim
punct
##hara
merge
meridians
beneath
nazism
agrarian
psychiatric
lethal
collector
damaging
priorities
buddha
tennessee
1892
uncon
unconst
clinics
unitary
comparisons
##breaking
oceanography
duo
1866
1887
1870s
casualty
bulg
diagnose
suffrage
##rosse
dissent
colorado
##omorphisms
feedforward
hyperplane
wheels
##aji
statistically
housed
ceramic
smartphone
accompaniment
massacred
negotiate
munitions
babylonians
facilitating
pulled
ventures
##minton
occasional
adventures
faithful
unfair
expeditions
cosmic
tokug
enforce
coaches
categorization
favoured
switching
dogs
diego
momentum
mixing
confederate
lady
convincing
astronomer
feminism
prefig
cooking
batchnorm
brahmap
prevalence
devastated
kaye
pertaining
explorer
recursive
melodic
microeconomic
hippocrates
cornell
gabri
fulfill
hugo
mystery
metallurgy
klein
yuasa
hormones
ahmedabad
repetition
exemplified
hyperparameters
pyramid
seleuc
monastery
baptist
scattered
geopolitical
forecasting
entrepreneurs
rhetoric
tigers
infringement
zahir
misinformation
testimony
unofficial
thermodynamics
epithel
yushchenko
demographics
clouds
mississipp
psychosomatic
ace
cater
das
fritz
gond
hots
hicks
ily
lv
lan
lod
monom
mull
nons
ral
rick
sach
vare
yos
zerm
##rang
##rush
##ea
##hyn
##wen
##zh
##mes
##gone
##fur
##father
##dr
##ku
##kata
##jor
##atr
##enza
##aram
##arks
##ivation
##ambo
asi
stakes
onc
##igms
bee
beam
orph
chak
spaw
##apolis
##icals
arrows
prizes
unanim
truman
itunes
seas
seoul
disruption
compose
##ishes
##alli
##athy
##ipur
##aches
##ieu
afor
recall
marble
desper
deskt
eve
transitional
pegg
biosphere
grace
themed
##anners
opus
##anca
edin
corrid
elm
informatics
arche
skating
##insky
princes
refusal
propulsion
diving
easter
118
1100
antagon
justin
logistic
runway
sync
circa
separating
satir
saturn
joints
sheikh
softball
##sha
urdu
microscope
illusion
blackwell
layout
balt
southernmost
commands
balloon
##psilon
defeats
turks
plantations
hitting
frequencies
progressively
karachi
pathogens
clinic
incorporation
demonstrations
transferring
halls
tribe
unlab
cardiac
habits
blocked
darts
subculture
satisfaction
fluids
illustrations
thrust
revolutions
chromatic
paradigms
restrictive
imaginary
merchand
traject
azerb
babylonia
cubism
climatic
rhythms
straightforward
sudan
ancestral
motorcy
mongols
thirteen
thirteenth
arbitr
marcus
synthesizers
appealing
concerts
assamese
barbara
##blatt
convergent
sailing
ayy
constraint
pronouns
czechoslovak
advisor
kidney
somal
sweet
bundle
dereg
impressionism
loyalty
summarized
tolerance
disappeared
implicitly
obligations
torture
lenin
combinatorics
heinrich
leakage
sixteen
cossack
anomaly
rosenblatt
leopold
unnecess
legitimacy
nordic
fierce
vassal
pixel
segregation
herself
extraordinary
nevada
amitabh
guatemala
destructive
intricate
stomach
electromagnetic
unauthorized
forearm
salzburg
##oshenko
lopez
brahmaputra
varepsilon
zermelo
azerbai
damp
drap
fn
fles
font
gig
gates
hamp
jh
jab
kiss
kaz
kah
liz
mold
nets
pec
sas
sour
ti
wav
yann
yards
zhou
##yc
##yard
##pc
##casts
##gene
##bourne
##kes
##kit
##enburg
##alore
inapp
##icular
todd
##elia
##etta
##ameral
##uru
stig
##chain
##igated
##utz
##imeter
bever
exit
exotic
##aba
##agra
ars
##occup
unav
##estine
trucks
indeterm
engr
disability
incred
shang
shooter
##illas
resurg
intra
##ologic
##gev
##ouri
impl
imbal
##lude
commiss
perished
modest
decoding
appraisal
techno
systematics
overly
##ricks
relatives
prejud
cox
##oughby
peano
parity
1840
financed
monolith
secession
quarters
discs
discret
supporter
surgeries
carth
##encia
humanitarian
demarc
willoughby
##ierge
persistent
##plicative
concise
concierge
physi
edgar
detention
annot
recorder
practically
practicing
patel
originates
158
profiles
archaic
multid
skull
promises
confisc
portnoy
textual
swept
educators
1400
117
slight
homeopathy
lesson
theoretically
synag
improves
shortened
measurable
seasonal
passenger
##unga
optics
digits
urg
kepler
lineage
philosophies
turner
harder
judiciary
##ripted
tasked
1902
aspir
buried
nucleot
multiplicative
chiefly
converge
senators
##rewed
grounded
uncrewed
positioned
bloody
analyse
experimented
counteratt
duplic
tribut
1860
interpretability
1882
monitored
honours
theatres
manipulate
badminton
durable
olmec
interviewed
fitting
explanatory
utilize
attracting
caes
firmly
trauma
installations
taito
columbian
mirr
hunt
pioneers
biomole
complained
faculties
motivation
friendship
dismant
ptolema
rogers
uniformly
gurion
esa
pitches
intrinsic
bibcode
marriages
watching
consolidation
mohammad
flourishing
consultant
extrater
ethiopian
conjug
recipients
cryptography
judgment
exceeds
escalated
##piece
latvian
typh
nablus
jainism
vowels
microscopy
premiere
physicists
oligarch
nutrient
clashes
breathing
gpu
shirts
multiplied
songwriter
bureaucracy
cavalry
lungs
crosby
confrontation
nickname
saxon
mamluk
configuration
gymnastics
vijayan
eagle
felix
frederick
macedonia
maneuver
gottfried
perez
cardiov
lecun
sebastian
outlook
britannica
##ynchronous
giovanni
cambodia
zuckerberg
noteworthy
margaret
curvature
tokugawa
aforementioned
desktop
inappropr
2d
816
bast
bism
ct
dv
eis
etern
fool
fitted
gm
hatch
iowa
jade
lakh
mating
mls
piet
pitt
ride
rendered
sb
tes
vague
void
wol
wang
xi
yeast
zang
##eable
##nas
##iors
##post
##ook
##cinn
##hf
##fan
##burn
##ος
##ʻi
##erry
##onna
##inely
##atin
##eses
##ede
##enh
##enkel
inel
invert
##arms
andalus
##roe
##lee
##olia
##acellular
##etto
##amous
##embr
##idi
whis
##ulus
anesth
##ctory
##usions
chi
spice
##odic
##apur
##agin
##planes
pras
unsc
trapped
ushered
neville
shak
##illon
reson
plo
adrian
##solete
##assment
commenced
ecole
emi
##ensed
teeth
coli
basil
overr
relational
invisible
coasts
##ropical
parenth
attained
dover
##rible
reply
minus
brent
branding
##text
biography
classifying
quo
obsolete
infections
blan
powder
exported
estu
addiction
airmen
europa
##encer
charity
drink
drastically
practised
muk
memories
directing
elbow
##ahl
##ahar
longitude
heroes
empow
123
postp
postulate
propell
barg
##manuel
introductory
affair
sumer
handic
handled
132
radiology
morale
malware
synonymous
sheer
salon
cleans
televised
objections
sexes
sams
laying
sequencing
##yta
merry
crosses
automotive
garcia
threaten
pathogen
castes
premises
collaborating
rhine
##umbent
minimizing
##oscope
fauna
stationary
##rugu
virtues
petition
reinst
settling
##garh
youngest
exhibits
partitioned
1889
1874
romance
ppe
nobles
exercised
strengthen
utilizes
dispatch
bhut
catholicism
##akhand
bangalore
chapel
387
cincinn
encyclopæ
1839
liberties
carlos
doubles
allocated
apartment
instructor
exclude
mistakes
hacking
acceleration
accelerate
millennia
absolut
asserting
prosperous
sutil
coloured
proclamation
benchmarks
recreation
bahrain
anarchist
resembl
embrace
raiders
hallucination
inaugur
advertisement
nabla
kolkata
##hesion
explorers
lacrosse
prosth
diagrams
drinking
sympathetic
divergence
warrior
persuaded
monday
gentle
hermann
saharan
symphony
amphibious
poisoning
jennifer
gaussian
unstable
safeguard
moisture
lehman
trademark
##friend
ammun
machiavelli
divorce
diabetes
fenway
##orrh
luftwaffe
hemisphere
epsilon
detriment
renowned
bulgarian
ralph
edinburgh
azerbaijan
cardiovascular
cincinnati
320
bose
bau
brick
cement
dhar
dermat
egal
fou
ferg
gases
glands
jomon
jinn
kut
kai
kuch
lent
lights
mock
nr
ng
nun
naw
pard
paw
panch
rous
rains
render
roster
tik
tidal
ug
wern
xiv
yor
zur
##aul
##eated
##lash
##pox
##hous
##zhou
##fold
##drop
##qi
##jee
##erun
##enstein
ingen
innings
##arum
##itas
##roven
##rep
##sts
##olib
##ammed
##urer
isab
storing
##adin
##ige
##idays
##irth
rept
##imited
alike
##terp
##uson
chin
chan
chase
spurred
exert
##aper
##opular
##agic
##oco
##iao
unm
##artite
compil
##ishi
##ishable
##allow
plague
scout
##oves
##endor
##aching
##ieg
##sover
##raf
commens
abram
genius
genomics
friction
marry
##gressive
decree
appalach
##amps
##ricted
somewhere
inval
coat
meiosis
underwater
##ondo
knights
metac
norse
speciation
offset
1878
1815
doe
humb
nationals
simulations
caring
majors
flank
sind
airports
armstr
persecuted
##annah
106
publicity
elector
reds
crest
modernist
realms
landown
geographies
topography
prevents
lift
lifted
confined
##ophytes
specialised
everywhere
limestone
leftist
112
insect
morality
volta
malacca
aston
deny
beth
sheep
passion
occupies
gradients
epigen
paired
chooses
futures
microc
turnt
225
ballads
banning
ensures
photographic
##flix
indicators
automata
damages
precious
doug
observatory
imperfect
uncond
selective
executions
reformed
odisha
ghana
##warts
anthology
grande
##edicine
stalwarts
utopian
1872
benito
blockchain
hypothetical
profitability
fifths
combatants
ultimatum
suspic
struggling
torch
compression
conclude
netflix
unpopular
fears
cabin
isolate
pedag
indexed
collaborationist
sarah
marginalized
jacket
commodore
veteran
leonardo
janata
caroling
##iyo
bomber
hayes
chronicle
penalties
telang
fragmented
acknowledge
romanticism
alleging
##glom
assigns
programmable
baghd
amendments
convince
shogi
transhumanists
gregory
compensate
resembles
voyages
slavs
zoology
canonical
kenya
immunology
incompleteness
##guns
incorrectly
airborne
legendary
mitochondrial
administrators
ontario
subspecialty
feudal
syntax
sacrifice
gynec
sleeves
peripheral
equatorial
certificate
ijn
endocrine
bennett
ornament
eclips
patriotism
upgraded
susceptible
wisdom
hasmonean
euler
yourself
emancipation
##brenner
encyclopædia
ammunition
jinnah
armstrong
1⁄
bits
cats
cites
caves
dre
dnn
fug
gould
gues
hs
ht
hav
hail
hamb
iee
kw
kand
lys
lough
lanc
nk
nub
nih
pog
pension
rush
sich
sulf
tent
ure
ves
wes
wan
waged
yosh
zeta
##vest
##vention
##lich
##cements
##wing
##zel
##gro
##bus
##born
##ικ
##atan
##atology
##atma
##atibility
##eno
##enberg
##aly
##anbul
##icles
##itous
##itches
##isa
##lev
##sten
##oly
##etus
##urian
##chat
wholly
reiss
proceeded
spars
spaced
exagger
2030
##opic
prisons
unil
##ichord
neb
enroll
seiz
wors
shia
shenz
leyte
##illo
##anti
##ologie
contacts
##ermal
syed
manages
perimeter
framing
emission
econometrics
butler
colin
regained
generators
assurance
invasive
coerc
meets
underpin
impul
impair
outc
transduction
pejor
parade
geo
1812
##ribe
monk
eugene
biof
bijection
##oldt
inflam
blast
additions
sinking
advised
##azar
##atti
##attention
generalize
102
1080
processor
##ancies
fourteen
##ohyd
protagon
historia
influenza
princess
##icked
austron
proposition
proportions
sword
nova
smallpox
delas
##ossa
heli
viewer
viewpoints
insign
##erald
investing
connects
downloads
recognizes
homeomorphic
volhyn
load
separates
##appa
currents
magadha
poetic
urine
frontiers
northernmost
contributor
walras
vegas
probe
narendra
burial
sharply
##into
260
sanctu
progressed
karen
1890s
sunni
franca
tales
##ambig
conquering
panic
dimensionality
rebounds
comparatively
tracked
expressionism
evalu
##graduates
neighbors
altitudes
1879
diagnosed
suffix
migrations
rejecting
domesticated
masks
coalitions
magnet
cruc
archaeologists
utilization
fortune
appropriately
differentials
louisiana
##aphrod
aristotelian
exploiting
rift
azad
sponsors
hook
niger
calcium
solidarity
circumcised
battery
mistral
burns
coaching
synthesized
orchestras
buyers
fragmentation
assertion
scratch
cavity
stimuli
triads
floods
sailed
svms
absorption
napoleonic
assignment
ligue
##groups
fossils
supposedly
robustness
wishes
uttarakhand
iberia
semitone
unrestricted
troub
istanbul
capsule
airbus
cumulative
enclosed
lumber
digestive
hermaphrod
tumor
sahara
cossacks
theodore
steinbrenner
centrally
ceded
subgenre
supremacy
interfaces
##prints
hereditary
rectangular
indefinitely
heuristic
volatility
assimilation
triumph
disadvantage
lstm
accusations
multinational
glucose
remnants
evidenced
guilty
reprinted
unconstitution
unlabeled
arbitrarily
ayyub
vijayanagara
invertible
resemblance
ferguson
telangana
baghdad
ieee
volhynia
370
ail
cf
cb
cun
craw
dile
ecc
fp
fights
footh
gau
hed
hij
jak
junk
kang
kush
kabad
lending
lump
m2
mick
moss
nost
null
nacion
oz
pamp
pond
sz
sd
sect
tian
tart
wi
wired
wicket
wedge
zu
##aults
##each
##vas
##iard
##cence
##zn
##mate
##mouth
##erk
##rous
toi
##recht
##ecn
##ilia
##ilated
stocks
##adas
conduc
##imore
alm
alab
##otted
chore
chiang
chuck
spinal
##opal
pri
unsp
unifying
indie
indira
nex
neander
seam
seizing
disastro
incumbent
shu
shim
##illera
##antech
resil
plates
scan
notations
contend
##ardi
allerg
heir
mann
marqu
##ylem
deck
teoti
serie
assured
coex
yearly
impeach
mayor
rover
roof
eleg
acron
pepper
metro
parat
speculated
specifying
##awi
##erness
playl
highway
##riac
queries
simplicity
fung
endemic
expulsion
medicare
natal
##azi
103
1016
concurrent
sao
##ometer
edwards
redisc
supportive
servic
servants
militant
greene
elvis
controllers
multiv
glen
promo
jewell
poster
posters
backbone
##ophyta
statue
purported
1492
activated
converse
predicts
carey
justification
visibility
artificially
currencies
salient
cleantech
employers
motto
integrates
canadians
observe
sounding
angry
destinations
debts
financially
taxon
holland
holmes
stepped
erl
210
contributors
copied
##weep
expressive
starlink
richards
committing
ulster
judged
embroid
##lessness
commercials
immense
##osperm
khal
olympiad
automate
sanitation
braille
imperative
broadcasters
lighting
reformation
bowls
madonna
conventionally
routing
routinely
eighteenth
maximization
philippe
gaze
rounded
1881
tendencies
##rological
dynamical
roma
migrants
##took
encourages
##rell
sabah
professors
feeding
manipulating
responding
coden
fascists
##ycling
1854
caution
fortified
belonged
wilde
bhask
sikhism
embeddings
##zzi
decreases
trigger
jackets
riding
mistaken
illegally
adams
mahatma
cyclic
hamper
mesopotamian
cordillera
concerto
tripartite
interpreting
subtraction
crowds
stakeholders
extracts
marathas
cowboy
gujarati
accumulate
lisa
transhumanist
crusade
gregor
anarcho
crafted
tsar
suddenly
biden
proximal
entrench
falsely
disagree
perturb
infinitesim
manifesto
maurit
##patient
oligarchy
shopping
dwight
inconsist
discounted
cnns
combinatorial
hormone
glaciers
reassignment
jawahar
sodomy
aurang
hyperparameter
mamluks
canaanite
erected
nlp
edmund
penguin
contradictory
barbarossa
disbanded
superficial
buffalo
nikolai
sriniv
reefs
remotely
chloroplasts
bcci
carbohyd
garnered
hegemony
ubiquitous
unequal
gabriel
mississippi
deregulation
unnecessary
indeterminate
resurgence
extraterrestrial
bismarck
cleansing
humboldt
nkvd
austronesian
kabaddi
nacional
disastrous
teotihu
jawaharlal
aka
cues
dru
danc
dying
ely
hern
honey
ibra
jas
jag
jail
kad
lening
lighth
mn
mapped
nsf
pud
pays
ria
rite
sis
sgn
tp
tightly
uber
vist
wished
xylem
yanu
##nell
##len
##lab
##sl
##paper
##cuts
##hud
##mies
##bro
##inqu
##escent
##ication
##rocess
##strap
##iland
##eme
##adweep
reut
##iman
##imar
ald
##ulose
anter
proud
##otomy
chol
chong
deuts
##ifa
##iform
##iala
##andum
##iani
unse
##unctions
enrich
seal
incap
resur
plut
noticed
##ovan
##actical
##acea
##ourt
imdb
##ieper
interplan
manually
polling
##rah
genomes
centric
mediated
modalities
bots
##grass
##ensen
##iko
teh
basically
##aterials
##oko
weiz
aftern
feels
outdoor
outnum
parker
finest
brist
monot
monica
##veau
upset
schne
interned
mathematica
simulate
##ographers
blitz
##ugg
researched
filters
filtering
flute
approx
persians
##ews
generality
##oya
periodic
corp
annih
redef
crust
modernism
countryside
nonempt
herze
glas
##boys
aversion
prototypes
identifiable
121
portland
issuing
barred
barrels
statistic
ukiyo
linux
grows
policing
divis
pressed
eastward
1415
limb
augment
111
autore
convened
rao
devin
##icultural
##ocrats
connective
knows
##othy
looney
breeding
dominican
magical
employer
axes
opted
homoph
cameo
israelite
steep
consuming
figured
##affa
balloons
steph
##holm
embarked
turb
turmo
penis
silhou
liked
conservatism
khwar
##intestinal
##agne
foods
lightweight
timor
innate
odis
residencies
demonstrates
hawking
cardiology
stalem
utah
labeling
dissatis
instrumentation
impractical
mutations
assessed
randomized
diplomats
happening
venues
manipuri
##armament
streak
illustrate
capacities
1850s
immigrant
explainability
forensics
borel
constituting
dropping
stimulate
publishes
homosexuals
chronology
cuban
apparel
##minus
doubling
landsl
ignor
allocate
liability
jackie
heterogeneous
instructed
complaints
unfortun
idealized
prohibit
leonard
monsoons
gerard
tactic
restricting
battleships
sediment
sellers
rodr
julia
julius
reconqu
watched
errone
dalmat
kuhn
sutras
institutionalized
instructional
vulnerabilities
assigning
wwii
accidental
crusades
anarchism
murders
cs1
##kovych
voyager
singularity
watershed
cortes
celtics
contestants
vaccines
imprisonment
surpassing
fixing
comfortable
skeptical
skepticism
reunited
regeneration
cuis
levy
2307
unreli
humidity
bolsheviks
santi
songwriters
digitally
exhausted
wagner
clauses
diamonds
nudity
abundance
administrator
pillars
pilgrims
bacon
leopard
alaska
##ocentric
eurasian
vernacular
hutch
nouveau
artisans
gastrointestinal
subdivision
deepfake
wedding
contemporaries
##govina
restaurant
doktor
quran
lakshadweep
aeronautics
forgot
disturbances
sanctioned
disconnected
mysterious
offshore
fauv
resentment
uterus
##furt
oncology
baltimore
bhutan
guests
dilem
bhaskara
teotihuacan
ibrahim
leningrad
yanukovych
interplanetary
outnumber
nonempty
herzegovina
ae
cree
dich
dart
dwar
fok
gift
hp
hes
kobe
lymph
mw
mate
mism
nest
nice
pag
pne
rt
rag
ramp
sg
td
tender
tung
tucker
ud
wade
woven
xv
zer
zak
##aud
##rist
##rav
##rill
##rators
##nan
##yes
##ships
##pm
##pos
##oine
##cd
##held
##zed
##mud
##master
##fu
##jiang
##58
thal
thumb
thiel
theft
##inos
##orld
##origin
inert
inacc
##arab
##itans
##itri
##itures
##isch
##olar
##olation
##acco
stir
stup
stuff
##idas
##iris
ree
##utt
##ulo
##ulin
chil
chop
chola
spots
##apest
##oping
arisen
prak
##romorph
tril
envelop
disson
compass
##qui
incurs
resupp
intro
##pton
##geon
##geois
clans
adhere
amy
abrupt
genital
fratern
reck
marian
##gress
formulate
##ikado
##ounding
subj
regent
##okes
##ysc
sociological
mahab
outpost
para
parach
normed
geodes
offline
##awan
##awak
countably
brains
monoph
eugen
schae
biophysics
internment
enduring
appl
soup
remind
equitable
charlie
demographer
constru
##sson
buchar
continually
sah
sahib
poincare
ordinal
crs
filmfare
##ahan
##ucky
realization
##otherapy
glenn
geographically
aviv
midjourn
protections
accords
122
posthum
austrians
backward
backlash
sworn
barr
lowering
referenced
limbs
predic
slopes
fundra
capitalists
approaching
inserted
1300
matern
widow
visually
viii
malaria
octaves
denis
sheets
entert
saly
##expl
clement
##arkhand
revolutionaries
urlan
##letion
articulation
eradic
##sonian
missouri
myri
hostility
bald
mitosis
226
departed
macau
likes
##factory
##onyms
verification
karp
budapest
positioning
survives
execute
talmud
secretly
contrasting
investigating
eighty
matched
lengthy
storyt
shareholder
breaks
utter
permutation
1886
1873
bayes
externality
impressive
weakening
cosine
mandated
directorate
coldplay
hopfield
conversions
surroundings
oliver
spokesp
illustration
attraction
##etti
conscripted
guardians
explainable
chapman
columbus
1845
1849
cinem
unknowns
lucas
biomass
dressing
precedent
apartments
membranes
cleaning
mrs
##osomal
adjusting
pronunciation
boosted
overlaps
grammatical
transcend
drummer
extracted
##block
owen
iterations
soundtracks
siddh
consolidate
mohammed
subtropical
outlines
fibers
brotherhood
hurric
scheduling
vietnamese
defenders
1900s
dictator
invariants
accidentally
answering
plurality
honorary
andrea
mammal
hypothesized
substitutes
prospects
wolfgang
expenditures
metaphysical
belarusian
suppliers
trouble
endowed
retreating
astrological
shelter
memorandum
nouns
shirt
deductive
catastrophe
leverage
deportation
binomial
repetitive
syllable
crossover
dnieper
coincided
tobacco
nicknamed
knockout
monumental
flaws
flawed
denominations
mozamb
jacobinism
selections
subgenres
brilliant
puzzles
abbasid
crusader
figurines
antisemitism
peacock
excavations
##quisite
acclaim
inverted
robbins
tnt
vedas
cpu
abnormal
epidemiology
francesco
disposal
ingredients
skeletal
##represented
eigenvalues
rehabilitation
cathedral
bibliography
tymoshenko
merchandise
flesh
ptolemaic
inappropriate
tesla
samsung
inaugurated
##oliberal
isabella
landowners
nexus
turmoil
inaccur
resupply
bucharest
midjourney
urlanis
2n
b♭
bent
bans
bould
bight
bats
bricks
cri
fare
fdi
gb
gle
hud
hoc
hull
jelly
jaffa
kod
lions
lighter
mul
menger
nure
pound
pund
pont
pasc
qatar
torn
tonal
tfrac
vang
wo
xy
xue
yue
zar
##vier
##yah
##say
##pson
##oor
##how
##zi
##mail
##mberg
##gow
##gio
##fus
##front
##bas
##bard
##tion
##100
##just
##ια
##−1
thigh
thunder
##erd
##atore
##atistics
##eda
##anor
##icol
##itian
##isp
toe
tow
topped
##entine
##lein
##oming
##acian
##acements
##eten
asim
##ching
##adier
##cepts
##idable
reh
prolet
##otting
complications
orle
chir
chances
spo
##essa
##opo
ark
##andro
pragm
##estina
indif
nept
neoliberal
disrupted
composing
compelled
##qual
worry
shen
shame
shrine
plum
plasm
##ellan
syriac
polity
##rawn
recomb
musique
desires
deserts
evans
regain
relay
underway
undergone
mayo
##roportion
defunct
outright
##ermann
presently
presumed
geost
repay
repuls
brach
americo
##obi
simul
simpson
discred
discrep
differed
posited
apolog
noel
medica
remedy
##ledon
extrap
charm
constants
smoke
smoking
buzz
opens
##ixon
laund
redund
guides
patiala
##engine
cran
militarily
mugh
modernity
northward
famers
exploded
skele
1798
##icking
legends
calvin
rightarrow
delaware
conviction
slash
restoring
johns
visions
downplay
intervene
##aneously
hygi
casey
##ipper
footprint
##adeshi
graduating
poets
projective
deriving
anger
urinary
stefan
samoa
articulated
nasal
squash
squads
sentiments
richest
ballot
enslav
readings
mothers
heavier
geometries
translating
entirety
probes
fallacy
burg
verd
millimetres
sharif
bandw
ultras
timur
premiers
rheum
drafting
galactic
odia
290
bengio
phenotype
custody
commentaries
##comput
maximal
unlimited
##iciencies
webb
cardinals
neighbours
wearer
melbourne
woodrow
1883
##heads
marxism
dynamically
cartil
benz
spacetime
sculptor
impressed
dependency
dependencies
mutation
pollen
customary
slowed
corrected
badly
railroad
sustaining
spectators
quadru
turkic
attractive
infrared
disproportion
fearing
pediatrics
protesters
1808
##iosity
trustworth
nicolas
inflict
fatigue
abdomen
liberians
nanjing
complaint
sudeten
volunteered
rebellions
categorical
bobby
favourable
columnist
orchestral
triangles
optional
disappoin
besie
flyer
fraenkel
inferred
bedou
alfonso
sidon
##wait
absorb
sutra
aquatic
beaches
podcast
proceeds
pavil
prescriptions
rico
populism
jefferson
jeffrey
python
resembling
freshwater
competitor
nakamoto
prospective
discontent
bioengine
bourgeois
tolerant
prehistory
culmination
awak
cameron
chaluky
lipids
appreciation
rendering
inevit
accomplishments
bureaucratic
livest
sociologists
deportations
memoir
galaxies
coleman
intuitionistic
whitney
replicate
kentucky
sleeve
monasteries
##manship
clerical
conceded
disagreement
kohli
crusaders
anxiety
maurya
cybersecurity
federations
anchor
##chaft
aryabhata
bankruptcy
denounced
stripped
ankle
boycott
cryptocurrency
palaestina
inverses
turbochar
nishikado
ourselves
undesirable
monetar
envisioned
ilya
jharkhand
prasad
parentheses
appalachian
unconstitutional
pamph
alabama
mauritius
reuters
anterior
cuisine
santiago
fokker
trilogy
storytelling
mozambique
nuremberg
vanguard
skeleton
2x
4k
560
720
ain
bian
bates
boss
df
dud
dame
dsr
drey
dfrac
eph
fbi
gendered
hah
ki
kurs
ling
mcl
ns
pv
pour
panc
pyt
patern
rw
ries
rok
sard
sari
sask
tide
v2
xl
yi
ym
yas
##rines
##rane
##uards
##vo
##yers
##lation
##liest
##pay
##ht
##hit
##haw
##bin
##bral
##kok
##xi
##xiv
##qa
##jin
##53
##ongh
##inct
##inates
##atz
##esa
##esl
##enbaum
##oras
##alin
##asia
tooth
##ouch
##olon
##urd
##tsk
##adh
##adays
##ersive
##idad
cone
reus
als
##ulkar
byprodu
sums
comed
wass
wash
##ositions
spike
dept
##opter
arav
arda
##estrian
trit
traged
seism
shores
##akura
##sein
leap
pled
##ells
##athers
##ovsky
##aceous
imitation
##ferent
aborigin
ecu
eco
genomic
recons
emile
medi
modifying
muscular
beck
##ountable
##forms
cola
basso
apprent
subdiscipl
regret
spacewal
relinqu
assaults
undergraduates
weier
maver
parish
presum
offense
finances
finitely
brune
workings
euph
calligraph
quack
strongh
nationalistic
sims
simulating
##ographies
blending
termination
grades
griff
endure
endless
apoc
flats
floyd
airing
##erta
charging
charitable
##itsu
##indh
deposed
sau
saff
detained
brock
colleague
crushed
crescent
fourteenth
empower
archimed
multitude
realize
skate
171
1799
establishes
avatr
midw
curved
associativity
lifel
126
portal
lawyer
terrible
posting
proposing
harps
harassment
swaraj
switches
calib
treats
oppress
##ophant
individualism
119
viewpoint
palaces
antoine
##ennes
albanian
broadway
nowadays
deval
westward
sometime
downs
downward
downstream
diophant
colonized
builder
theorist
separat
irred
##naire
sixteenth
breed
2500
cyanob
arrays
titan
quantization
homem
killings
businessman
businessmen
hollow
samaria
strategically
##keeping
criticize
walt
sentient
semin
ensued
embass
industrialized
assisting
bordering
khadi
collectiv
jerome
##offs
groundbreaking
legislators
sunlight
royalty
premise
bowman
280
voic
contextual
hui
fuji
commenting
virtue
duch
petty
detailing
wallace
rajput
circumference
woodblock
altar
adaptations
1888
misunder
sculptors
tombs
encouragement
travelers
pictorial
oversaw
reproducing
nobody
stresses
keeps
concentrate
exercising
slower
hoping
agentic
ambient
cruz
neurological
suspension
elevations
##economic
stopping
morphs
1859
fortifications
allev
reveals
fashionable
constitutions
vastly
bangkok
lasers
1847
validated
cheer
perceive
ashes
flora
licenses
mosaic
montage
catalonia
fatimid
rivalries
crowned
derivation
##iasm
adjustment
janet
seller
marcel
##ochemistry
diminishing
triangular
affiliation
constituency
polymers
intentional
mythology
stretches
allegiance
consulting
determinism
segmentation
decisively
embryonic
bharatiya
riot
accumulated
alcoholic
celts
dye
checkers
registrar
bulls
correlated
##strass
liquidity
aggress
undertake
##ogeneity
mitigating
formulae
truce
duncan
microbial
privilege
stereo
bryan
willingness
adherence
volcanoes
jumping
tallest
viking
compromised
synchronized
undermine
undermined
breakthroughs
kosovo
telecommunication
terrifier
cylind
lemma
fluxus
phylogenetic
reorganized
pilgrimage
subspecialties
nurt
mozart
tickets
bulletin
gesture
neglected
dentistry
asteroid
safeguards
liloa
pretty
certificates
fidel
vagina
unwanted
undersc
##algam
receptor
breadth
antisemitic
bubble
congruent
bessarab
ferrari
jungle
hindustan
mgm
##forestation
sketches
spontaneous
pollutants
miscon
exacerbated
dignity
schmidt
stolen
alchemy
stipulated
plagued
intermitt
jewelry
retrospective
unrealistic
tremend
carotid
corridor
urgent
reptiles
infinitesimals
silhouette
stalemate
unreliable
fauvism
pneum
subjug
salyut
orleans
neptune
mughals
besieged
awakening
hahnel
kursk
weierstrass
bessarabia
440
480
512
691
aph
bp
bif
bant
bail
cey
cfl
coca
dol
dag
eim
eun
fog
gw
gior
hms
hoff
jd
lapt
mural
nd
nim
nme
naut
nasser
pq
rou
rans
rosc
s1
sage
siam
sacked
tus
tiang
ump
urugu
v3
wb
yay
zod
₹1
##aque
##rays
##racts
##eon
##lic
##lain
##lia
##pan
##cut
##cons
##cket
##hak
##witz
##watch
##zyn
##map
##mia
##gate
##fred
##bid
##bage
##kor
##kowski
##jong
thurs
##erie
##inium
##aters
##atable
##enko
##ariate
##itious
##isitions
##asso
##roots
##rocal
##lections
##omer
##eca
##olate
##tsky
stain
stops
##ido
##idth
conk
reit
revel
reyn
##otroph
##osity
chry
chern
choms
##ogues
##ande
##avian
prere
prague
unnatural
##estones
usury
atop
indisc
seq
compend
worms
inclined
shin
shep
shocks
##akan
reside
plent
scyth
notated
clo
clown
adjective
##asty
alluv
hey
heating
interd
interfer
interrog
mangro
comma
abdom
perv
geneal
recla
margins
booth
##angelo
##iku
evap
##amped
subvers
systemat
overland
undis
genera
##oken
impose
afterward
maiden
182
1824
countdown
reposit
minors
statesman
monaco
politic
biologist
quit
vars
strife
crete
infamous
nationally
nationality
nationalities
surat
expired
exponent
wherever
estates
noam
valar
medicina
computable
##ewan
generalizes
##ronics
107
##althus
analogue
laugh
guess
guilla
crist
filmmaking
152
multicultural
entails
skew
176
celled
avi
curated
protists
protested
##icker
##ontin
proponent
harper
sway
barely
divert
143
113
autophag
analysed
predicate
antar
encaps
##lected
136
admits
superher
radial
makeup
downfall
downtown
recognise
colonists
materialism
builds
shek
collar
collisions
standardization
dominating
256
magist
passages
conceptions
announcing
specifications
graduated
alternating
epoch
tariff
##aek
homer
israelites
frontov
holidays
awarding
holder
balances
communicating
payload
ballistic
macc
reads
trey
psychologists
environmentalism
creationists
imminent
billiard
burton
nuclei
emphasised
rocky
optimistic
ranged
groundwork
athe
uncover
timothy
travelling
legalized
connectedness
panacea
madison
distinctly
counterc
huerta
firearms
fuk
fuels
##atchewan
documentaries
snake
avoidance
perceptual
speeches
##ethical
aristocratic
diploid
dissol
dissert
miguel
blocking
constantine
happiness
cooperated
streamline
roadster
manipulated
cruel
parallels
356
olive
grove
4000
torped
aligning
chrome
crimean
improvisation
##opoly
revealing
classifies
regulators
tao
metalwork
danzig
transitioned
transitioning
shipments
gardner
1835
1830s
rotations
lucknow
nicole
ignoring
intersect
krist
confirm
confirmation
pitcher
axiomat
pearson
behavioural
kernels
leslie
sanders
jima
analogy
preserves
guitarist
symptom
attachment
appealed
##zoic
affiliate
yielding
chronicles
ipv
ipo
disappoint
fragment
snowfall
##ridge
amazing
cancellation
mythological
kuwait
portrayal
ladakh
conferred
russo
vertices
reciprocal
dreams
fostering
abolition
rudimentary
borrowing
pcr
heightened
dietary
artifact
brahmagupta
parasite
resolving
surprising
grassroots
frozen
lacquer
javasp
##⣿⣿⣿⣿⣿⣿⣿⣿
craftsmen
metallic
enthusiasm
zheng
##flows
memoirs
workshops
automobiles
tubes
insurgency
phylogenetics
palli
telegram
tobler
inscriptions
amphibians
asympt
cochrane
illuminated
##hausen
frustrated
vaginal
artisan
patton
##ograms
vapor
interchangeably
rahman
seventeen
rashid
transpose
enlarged
iwo
charlotte
ayurveda
exhaustion
wheelchair
tectonic
gulag
##arynx
fsg
rhineland
inducted
reperto
confronted
ophthalmology
cayley
cushion
colloquially
baptiste
unavail
engrav
synagogue
dismantled
inelastic
propellant
##orrhiz
kuchma
fungus
servicemen
##osperms
riaa
hutchinson
forgotten
myriad
spokesperson
siddhanta
premiership
sudetenland
dreyfus
saskatchewan
ecuador
archimedes
tiangong
zodiac
chomsky
javaspaces
340
420
brou
bik
cures
dad
dolph
ez
eg
fermat
gith
hect
hib
hire
huss
hailed
ija
klu
lich
laus
mch
moses
moll
mikh
malthus
nw
og
o1
omar
pang
penc
pots
pipe
rica
sorts
tac
tul
tear
vil
vall
viz
vanc
wend
xu
ya
yo
yun
zyg
##aa
##aemen
##rs
##ril
##egr
##vol
##vig
##nation
##nie
##ycles
##yoshi
##lore
##lings
##cile
##will
##mass
##gc
##fs
##fight
##foot
##bh
##52
thrown
##onus
##inas
##atal
##eded
##edkar
##enheim
##orus
##orrow
##alone
inmates
##itr
##itania
##itomo
anders
andean
##roscop
##reted
##ouver
##ecca
##ecker
##ilot
##emia
stiff
##ados
##ersal
alps
anecd
suz
sug
##otrop
withhold
chant
spark
spencer
205
##abl
##ogs
arctic
arxiv
##andez
##avas
##ocation
unle
unethical
tracts
dish
disill
disgu
##quille
worried
incon
shiv
lep
##iba
##antz
plaza
##arya
##ovich
adorn
adren
##pert
allan
allmusic
hez
##ipse
##endon
##achevsky
##avehic
warn
interwar
commissions
fruits
##uba
##ksc
phlo
empress
marvel
##yletic
decides
##ruv
evasion
##pred
weiss
impart
##reatment
outrage
acet
##fta
soap
parth
parody
##erick
1850
popp
doors
playback
monoid
highbury
folded
humil
upa
bioc
quatern
strand
obregon
disco
discarded
supplying
supplements
groupings
grat
grab
apache
##rowth
este
carran
flutes
welles
remembr
equiv
demise
##indle
milk
depot
indianapolis
belie
belfast
109
##ometry
maturity
deter
patch
patented
craton
longtime
##cliff
realised
skyl
establishments
geographia
##boost
prevailed
curzon
histori
164
ideally
harness
swarm
civilisations
purge
literal
142
limitation
slope
claud
superc
massage
complexes
morg
freud
freestyle
versat
islanders
recognizable
malta
runners
marching
emerges
improper
totaled
facade
denoting
betray
microph
25th
salmon
achaemen
announcer
##exual
painful
poole
epit
homin
homeless
agrees
choi
##verse
israelis
australians
superm
supersed
holes
variational
layered
punish
##weigh
transforms
ballad
merced
commitments
foreigners
dividend
industrialisation
psychologist
acquisitions
creationist
likud
averages
##flies
verified
indication
sharma
pasteur
formalism
optimizing
folklore
timbre
travelled
talents
deadliest
collaborations
sensation
experimentally
uniting
secretaries
##apses
compares
hype
##itzer
oceanic
duchy
challenger
contracting
licence
questionnaire
1860s
tendulkar
marxists
suffers
cartoons
tomorrow
tourist
tourists
colorful
principality
ambedkar
hawaiians
spokes
transmitting
thrive
advertised
crimea
haiti
stonewall
unprot
merging
accompany
imagine
radicals
prosecut
prosecuted
renewal
induce
regulates
1843
penny
pulmon
1838
please
aggregation
batman
narrower
junction
kaiser
worthy
synthesize
watches
photographer
jamie
recruiting
rodgers
nickel
yielded
chaotic
intrig
reconcile
beds
crazy
##rophys
mortar
hurt
depths
iraqi
husay
partnerships
shaquille
cowboys
incomes
astronomers
prescribed
altering
monopolies
rabin
populous
ellis
canton
drops
kidn
acknowledging
pockets
fabricated
lobb
##storming
superintelligent
exceeding
ryo
explosive
yamato
abbey
contradiction
lovers
emigrated
overthrown
metaphor
brutality
moroccan
weaponry
rumors
reunion
cassette
vibrations
croatian
gatherings
##iotics
viktor
throwing
disinformation
guerrero
navigate
triggering
teenagers
photosynthetic
##rieg
stabilize
lionel
digestion
checks
coincide
uphold
healers
ostens
gynaec
insurrection
##etermined
cochin
thoroughly
eurasia
multiplying
intercourse
concede
flavor
puzzle
heredity
gastroenter
indefinite
heuristics
energies
deepfakes
acclaimed
mellon
privatization
ayurvedic
rallies
stagnation
moonshot
leaning
deleted
contingent
pipeline
demolished
supervisor
visceral
bohemia
micromet
hymns
henderson
repealed
chicken
prefigur
asiatic
desperate
motorcycle
somaliland
bargaining
gynecology
html
nubia
acronym
playlists
mahabhar
bandwidth
reusable
alsace
aboriginal
brunei
alleviate
uruguay
conkling
abdominal
brouwer
github
lausanne
disillusion
##avehicular
phloem
carranza
remembrance
unprotected
380
390
aces
bum
bip
baj
bambo
cec
dyl
elu
ety
f♯
fus
fairs
foam
filling
gog
genders
gerald
hag
hemat
haj
hahn
io
iz
iff
jah
kamp
keen
kany
kpa
lets
lsu
lenses
nah
pon
pach
porter
qub
rn
rb
rer
ras
raz
riley
sne
sigm
vy
vest
vested
wax
wien
xia
##rand
##uf
##nis
##lis
##lif
##iaries
##pic
##cu
##cious
##words
##zes
##dn
##dish
##donald
##bol
##bie
##tas
##onation
##onies
##inite
##alle
##alta
inning
##icated
##itement
##roy
toile
toured
##leen
##elberg
##econ
##olulu
##ilis
forget
iso
isles
##embers
staging
stalled
##chitz
##adur
##igi
##igibility
##iders
##irt
whitt
##imated
alice
##ulent
anand
beaver
comte
cheng
chiro
spell
exod
##ogl
##ogie
##opf
##operative
##ifiability
arian
arable
prc
trent
tracing
##unted
indent
inducing
enum
##arta
disqual
compiling
worm
inca
shal
shorts
shunga
##akau
leather
##ibus
##illary
rests
scots
notre
notices
##ermost
heated
heath
hepat
##endicular
##ongs
warnings
canals
polls
peruv
phara
emil
emerson
mario
modal
firstly
decept
##acking
becker
##iceps
subdu
undec
twelf
assent
invoked
invisal
co2
undergoing
undertook
2027
weaving
imphal
##arez
outre
acm
transist
meth
geomorph
##eps
governs
##inesis
minh
minist
bruss
monastic
##onscious
idi
idol
strabo
provoked
nationalized
nationalised
foundry
britt
distrust
flop
signatures
signatories
##ankar
operas
revital
deprec
buchan
continual
drift
retaining
locker
corrupt
corners
annals
guam
openness
177
172
179
##itute
protects
philist
philanth
reflections
lawyers
barack
##ophile
introduces
pressing
deline
presentations
standalone
116
convoys
farther
palp
anta
antip
encode
##axa
handful
handguns
138
admit
receiver
africans
superv
batting
materia
animations
auguste
diaries
##yll
hyf
circulated
irresp
denver
joins
cyrus
salam
##arkar
telev
doctrines
takeoff
paolo
derel
homot
angels
choir
estimating
steal
steppe
contrasts
layern
nasda
punished
##ekind
ballet
mechanistic
meridian
reviewers
23rd
trev
letting
50th
##asco
nara
creationism
immort
immersive
livingston
burd
multiheaded
verge
optimized
observational
priori
uncomfort
tempered
hearts
royalties
accountable
innocent
##amba
hungarians
galois
senses
radioactive
residing
reacted
visualization
319
ghetto
racially
horner
gazette
snakes
grandson
screened
shareholders
wallpaper
joseon
orthop
diagnoses
cartographic
distributing
imprint
smithsonian
mutiny
honolulu
##iatus
bacterium
principia
venu
venk
splits
frankfurt
cruisers
neurology
duran
fluctu
respondents
repeating
torso
utilities
declarations
aiding
extremes
extremists
netball
paintball
unproven
wilderness
packet
schedules
analytica
sarawak
elsevier
withdrawn
375
mosques
contacted
montana
montagu
storms
ridicul
lords
excludes
unfav
mobilisation
cosmology
tactile
prolific
photographers
recruits
submit
submission
riba
extracting
julie
hdd
myths
daly
hulu
cytok
dubai
hurling
extravehicular
clarity
clarify
usaaf
tuber
vegetarian
kamik
lebanese
dedekind
speaks
rudolf
freshman
neighbourhoods
parasites
parasitic
katz
mesoamerican
loved
inventor
perpendicular
frost
elaborated
bicameral
metamorph
blogs
survivor
eggs
kochi
ambiguity
cavalier
porcel
delegation
insurgent
vertebrate
montenegr
hammer
hammond
syntactic
deceased
deception
undefeated
disclose
dysfunction
vijay
unnamed
mycorrhiz
geopolitics
antibiotics
entrepreneur
multilayer
picasso
uninter
tackle
figurative
vapnik
staple
suebi
rupee
procure
prophet
ordinance
hindustani
chorus
consonant
haploid
promulgated
ruthenian
tilak
monsters
discriminatory
oakland
repatriated
dissemination
contamination
redistribution
scandinavia
wreck
redesign
foreskin
slovenia
unconvention
yoshua
trajectory
incredible
discretion
eternal
detrimental
dermatology
zurich
epigenetic
suspicion
sichuan
seizure
ailments
unspec
codenamed
unseen
afternoon
bristol
outnumbered
schaeffer
ultrasound
bioengineering
ymca
harpsichord
cyanobacteria
fidelity
nautical
yayoi
thursday
chrys
interdepend
varsity
guillaume
disappointment
palliative
repertoire
mikhail
vancouver
achaemenid
mercedes
gastroenterology
bamboo
dylan
etym
exodus
pharaoh
twelfth
invisalign
brussels
uncomfortable
fluctuations
520
540
780
cem
dd
dul
dos
drought
fy
fon
fury
ges
gian
gently
hz
hagan
jal
ket
kite
kitch
latt
loses
m1
nf
nipp
nancy
ole
pess
rm
riv
rip
rust
sanch
tud
tah
tiber
umar
vick
vphant
wip
wabi
yew
yah
zach
₹5
##eys
##nut
##ye
##yon
##like
##hat
##hies
##hear
##word
##wana
##zano
##ders
##tel
##tok
##jun
##51
##ʻu
##enor
##orable
##orbit
##alan
##alis
##aline
inorgan
##anid
##icus
toul
toled
##entin
##elman
##elength
##oline
##amis
##urc
ish
stam
stur
##chev
##adors
##iguous
whites
congreg
reid
##uting
progn
beams
##istical
sutsk
orson
ornam
##osures
chad
chhatt
sput
spanned
spider
##odies
##abel
##opt
##opard
##andt
##itya
##ocene
unac
unim
unexpl
trinity
useless
seated
disarmament
sherman
shark
plots
pledge
intuit
intimid
intonation
scroll
##atha
##ovac
contiguous
##arding
##astra
hex
##berger
##ipated
imf
implant
##ustion
partitions
##sohn
warmer
mangal
polis
polished
##assed
##raid
ecologists
recycling
##ubs
emails
newest
newell
decolon
##ismith
##ikman
evade
subn
assists
preach
meal
underest
##veloped
wein
weimar
impetus
maha
mahm
thereof
transports
metr
parental
presley
geos
setbacks
setminus
1821
doom
monroe
highways
##tebr
capitals
##riage
upward
##onserv
##obot
##obiology
biographer
classrooms
quint
universite
strained
obey
cret
creations
infected
provoke
discern
blend
blank
researching
apology
airs
willie
pershing
increment
108
drake
retic
edmond
broker
laos
1910s
filmmaker
##aho
157
156
##ucer
famines
arches
landl
1793
1792
glove
##inski
cellulose
##boat
factual
curry
129
confusing
popularizing
postulated
backdrop
harp
treatises
solids
specializing
liner
1450
analysing
italia
##entials
predates
johor
slaughter
palmer
careg
initiate
espous
handwritten
insult
134
devil
devotion
ceiling
ethic
diary
volks
astros
covert
heading
bett
258
magister
busy
conceptually
integrable
objection
paed
##shed
##shire
waterways
chemist
holt
steering
offerings
etiquette
punk
summaries
scholes
##ekiah
224
##affected
semester
##center
whitehead
237
predictor
turt
turbul
treason
donation
plantae
approximated
rivera
khrush
miy
indicator
sharon
262
##otto
optimum
lawsuits
##zeb
pacif
potentials
suno
premature
talented
287
shooters
ethno
madre
##arius
inspire
inspiring
faire
hypn
huaw
hubert
jeopard
310
babies
surveying
anthem
contraction
nominations
hawth
expansive
cardenas
berry
rajendra
computationally
aliyah
sonata
sufficiency
tropic
trophies
##uchi
benign
symbolized
322
tunnel
strauss
sabi
venom
feeds
reinforcements
bluegrass
responds
oliv
illustrates
substantive
empiricism
bronchi
revolts
anthropologists
suggestion
improvise
extremism
netany
anatolia
initiating
celebrations
imagined
packaging
prosecution
brandon
injective
expectancy
beaten
##otypic
cheating
368
ashraf
hydrology
biomedicine
nico
naismith
croats
picking
wanting
ridwan
precedence
fatah
fatalities
browns
##isciplinary
fabrics
abandoning
aggregated
sandy
propagation
touchdown
486
battleship
kurz
deploying
polyg
wikip
deposited
buyer
kashmiri
joanna
unsafe
herbalism
akk
owning
bernhard
commonsense
hdds
lyon
edgeworth
cytos
nuanced
aquino
colourful
portraying
marathon
scalable
##asiatic
cooler
cooling
##frame
printmaking
austroasiatic
vegetable
kamakura
girlfriend
dyst
recovering
ellen
tonnes
npc
familiarity
inefficient
inefficiency
anticipation
witnesses
bundesl
embracing
brady
competitiveness
impressionist
ludh
assyria
quotas
immunity
vaccination
mp3
##castle
pyrene
downloaded
accommodation
overthrew
skeptics
bourbon
wetlands
fulfilled
amplification
convenience
sulba
undermining
anatomically
obliged
chalk
discounting
dxc
tortured
rendition
fractional
leveraging
reluctance
syllables
nudge
forums
goddard
sixty
joyce
checking
jennings
oscill
upheav
theodor
anomalies
startups
nurse
jingle
mentally
bleeding
disparities
periphery
robertson
pharmaceuticals
relaxed
curtis
elliptic
barnstorming
unbounded
detachment
stratification
subdivisions
belligerent
belligerents
jamaica
confidential
weddings
invertebr
mauryan
echoed
lynn
wheelchairs
##igarh
lobbying
spandrel
intertw
surrealism
honda
imitate
mercantilism
necromorph
gamete
gifts
aluminium
prodig
phillips
vermont
spearheaded
suburbs
satirical
wavelength
demarcation
multidisciplinary
biomolecules
overrun
egalitarian
tiktok
carolingian
pogrom
wesley
pejorative
evaluations
rediscovered
jewellery
entrenched
aurangzeb
cholera
khwariz
erroneous
dilemma
genitalia
entertaining
pundits
asimov
enslaved
disproportionately
livestock
riesz
calligraphy
fujiwara
bifurc
autophagy
maccab
dissertation
mahabharata
wiener
peruvian
buchanan
derelict
porcelain
montenegrin
unconventional
vphantom
inorganic
sutskever
ornaments
chhattis
khrushchev
netanyahu
bundesliga
2k
393
470
arom
aks
bret
bata
ci
cw
cag
cous
cale
catt
drough
dump
eic
fount
gag
gov
gast
grap
h1
hog
hert
hai
hoh
iq
iphone
jy
jia
jules
jagu
kom
kem
kot
kak
kram
lia
lub
lime
mh
niss
oc
ousted
pes
pie
pong
pounds
rfc
ses
sag
sms
tars
tanz
tyler
uf
vost
wed
wab
wah
xin
xii
zan
zamb
zimb
##eering
##vs
##vich
##nard
##note
##yam
##iper
##iably
##iya
##ioles
##cers
##wright
##worms
##mers
##mings
##mada
##gative
##gae
##bank
##qing
##84
##⠟⢁
thy
thro
##erism
##onucle
##eder
##enes
##aring
##arre
##itat
##itus
##itud
##isals
tomas
##reu
##rets
##entry
##entric
##stan
##strom
##eco
##acon
##thest
##ivan
asks
forested
foresh
sting
##ady
##ersonal
##idar
rex
reop
reals
replied
reapp
reigned
##utter
alv
alarm
ants
beer
##istas
##otr
orion
orally
orator
chun
chish
chass
spun
spindle
exogenous
deform
deforestation
206
##abwe
##opers
aragon
##andi
##avira
prair
priced
unev
unaware
unjust
unpred
traction
##univers
##icho
nebras
enam
ensh
seym
sealed
selects
disreg
dishes
disambig
comply
compart
incidence
##sex
plac
planners
intimate
intestine
##ostasis
scrib
scler
notifications
##ovis
clive
cliff
adidas
allopathic
##ipan
interrel
syring
manpower
##0000
canara
amn
polych
afonso
abuses
hasan
emble
eminent
emmy
marina
newcastle
##velle
formative
##enschaft
decom
##pract
##pression
relaunch
preoccup
prelude
coimb
cohesion
weath
implying
imprec
implements
maf
maul
maize
accepts
transverse
peat
parac
parag
parenchyma
1816
1814
thank
governorship
brien
schap
schuster
biologically
calles
##jectives
inflection
funny
blended
blender
endurance
exposing
exporter
apex
noisy
carm
sinatra
airfield
remake
##anked
##erton
revis
complements
chariot
armor
armour
armored
smile
depletion
##ilde
bucket
descending
saipan
companions
mats
brok
laisse
severed
severity
guilt
crush
commoners
commonplace
##luv
directory
eligibility
##ahi
reprint
herz
controller
multis
landmarks
1776
1773
glor
cello
topologies
curiosity
philips
printer
##yne
refere
refuted
postulates
propelled
statues
statute
evenly
lowered
purple
delicate
listened
slam
antit
raff
computerized
espion
##raine
handwriting
handheld
133
137
admissions
receipts
superhuman
supercomput
logistical
deviation
radically
freight
##overn
##othing
recognises
localized
yorker
footwear
saladin
captives
policymakers
potter
quantified
quantification
accessing
certainty
angi
angola
killer
destabil
chemists
303
variability
erg
##mingham
cope
divisional
hardc
walton
walked
##ochsch
spacesuit
macs
##liner
silksc
narmada
khark
burst
2600
pathological
castilian
##evolution
diversified
suns
rolls
clinicians
collaborate
residual
##oscience
investigates
routed
visuals
313
bengaluru
chatur
questioning
webster
##ythe
consequent
woody
bayer
villagers
diagnosing
##kenberg
##ucherry
dissection
poorest
symbolically
gunpow
325
usefulness
332
honors
hilly
blockb
birmingham
reproduc
controversies
sabot
liberalisation
strengths
suspect
suspects
##huber
overturn
##economics
malaysian
suggestions
parallelism
bolzano
dispro
dispersed
gallaec
stimulation
aesthetically
buddhists
injected
byzantium
deprivation
1801
180°
1833
1834
encompassed
icons
heterosexual
heterogeneity
instructors
budgets
unfold
tcp
motivations
omn
omics
dramat
truths
cosmonaut
mistake
touching
floors
adversary
##rador
captaincy
kalam
rewarded
disappro
ruin
assertions
akbar
incentiv
grossed
oblique
impossibility
cytoske
maharaja
nichols
orthodoxy
scalars
stripes
programmers
advisors
incoming
##franch
hebb
preparedness
horizon
cyberatt
bahadur
fabrication
correlate
rudolph
franchises
scandals
deputies
assyrians
tiebre
mitigated
tyre
appointments
rescued
inventory
inventors
surprised
therapeutics
kayaking
linda
troubles
manifestation
pythagoras
bourb
vibrant
endorsement
rebranding
yehud
##heimer
lipid
appreciate
protozoa
tastes
lorraine
adequately
overwhelmingly
pirates
wagers
unexpectedly
kosmos
ravi
delegated
checked
inscribed
shrines
harbour
denomination
pyramids
stacking
trenches
exponentially
insurers
sapiens
##schild
igor
relaxation
rothschild
futurism
gibral
obscure
multilinear
stranger
endocrinology
receptors
volatile
oxidation
peacetime
laureate
lusitania
drainage
deteriorated
cyberspace
##powers
stevens
stevenson
weaknesses
pupil
catalyst
wrapped
petersburg
discharge
jessica
brackets
refinement
overlooked
pretrained
injustice
fischer
cascade
ffn
looting
chakra
archeological
eisley
whiskey
blanket
postponed
reinstated
uganda
invalid
pedagogy
coercion
impulse
protagonist
tartt
perturbations
puducherry
autoregressive
ignorance
unfortunately
constructs
fundraising
hudson
pascal
arkansas
repulsed
pavilion
tragedy
tremendous
##otrophs
pervasive
genealogy
treyarch
hussain
elucid
ministries
layernorm
kamikaze
lattice
pessim
toulouse
toledo
sputnik
unaccept
intuitively
huawei
wikipedia
pyrenees
droughts
zimbabwe
uneven
unpredict
nebraska
seymour
coimbatore
laissez
gunpowder
3g
680
711
980
a♭
biz
bard
backs
c7
dum
dip
dale
ect
feld
fits
fitz
gum
gird
gius
hedge
hiatus
iy
jub
josh
kul
kanch
kopp
lm
lament
lenn
lili
moth
moul
nes
ned
nol
ncc
nathan
nymph
nixon
oder
pk
pis
pause
pending
rech
ranch
seld
scept
sakh
sisters
sagan
tand
tate
vivid
veto
vhs
xiii
yuc
zoro
£3
##aics
##rast
##rator
##eppe
##lest
##ienne
##cen
##cap
##comb
##has
##hill
##hma
##wald
##wami
##gol
##four
##find
##fellow
##des
##die
##dyn
##bf
##killed
##krieg
##tit
##turn
##116
##jit
##jas
thur
threw
##onial
##onauts
##inisc
##atos
##enic
##enos
##alet
inac
##icially
##icenna
##itate
##iterate
##isings
##isaged
##asian
##askar
##roiled
tod
toss
##leaf
##star
##stre
##elis
##olysis
##ete
asians
asexual
foref
isn
stub
stitch
stuck
##chre
##chool
##irk
rey
reind
rejects
aless
##ulia
anarchy
beeth
suan
comets
chu
chie
chatt
chau
chev
chairs
choli
chester
spies
spores
exerted
##oders
deity
deities
deaf
##aparte
##abol
##essing
arz
##avir
##avari
##ocytes
##establish
seater
shakes
##anton
##antis
resided
contention
clav
adjectives
##aceae
heine
##bern
##ipot
##ritic
manic
amel
##assing
commanding
gob
abortion
abiotic
hash
fredd
centa
emily
emmanuel
mariner
##orde
muscul
formulations
##ensual
##ismatic
##iked
##ikar
basque
reggae
reliably
##okal
invitation
underrepresented
deficiency
outr
outward
acs
pept
parecon
musicology
attested
1818
1819
pops
##ribing
minamoto
bred
brink
braga
mono
monks
monster
monkey
monrov
##issenschaft
sects
schu
strive
infilt
nationalization
posits
fungal
blade
blaz
blurred
surjective
endogenous
filaments
noah
sink
remix
reminisc
##ankton
majorities
natur
milestones
##atta
smarter
persist
##iots
##iolet
bukov
1023
concat
safer
drastic
locom
locals
periodically
publicized
deterr
anneal
laura
guin
southward
designations
functioned
154
reprisals
realities
1735
tops
avicenna
midwest
curs
curator
philat
124
##ontology
##ontrol
163
161
1621
##auer
propeller
backup
swan
swamp
calder
issf
barth
barber
barrel
##aira
envisaged
##ophysical
stateless
lowland
everybody
needing
needham
1475
helium
114
##ployed
mena
slim
palae
encry
insider
139
admired
broadened
superpowers
logically
primates
primacy
mores
materiel
frege
verses
intervening
virology
dioc
homeostasis
juxt
synapses
costume
costumes
totalitarian
shortcuts
circulatory
authorization
authoritative
irrit
irwin
saty
satoshi
condensed
##ippers
dominates
257
255
salim
occupiers
captures
negl
negro
epile
accessories
homage
destiny
dimitri
microst
##lett
lineages
308
holly
stealing
mounting
victors
##haul
sampled
summation
copenh
scholastic
squared
sevente
balancing
balfour
bigcup
##ushima
administrations
richer
##onstant
moe
##ammer
234
predictable
audition
responsive
embroiled
finalized
rapper
psyched
501
narrated
##ductive
##lessly
commercialization
greenwood
jericho
sharia
sangh
rangers
observatories
kara
##afa
castro
executing
peacefully
roland
deadly
rhotic
275
minimized
madden
resistant
credentials
##neys
documenting
duplication
pete
grandfather
##urgical
##urgery
1862
partitioning
poorer
misal
sculptural
keynesians
freedoms
honored
episodic
liberalization
frankish
magnific
neuros
railroads
umi
ansi
ansch
recommends
ascend
ascribed
torr
torah
overtimes
vanishing
##heed
autonomously
mentioning
paradise
heartland
imagenet
birthday
traum
negotiation
azure
byzantines
pennants
1803
chronological
manifested
facilitates
lingua
pulses
licensure
carlson
mosaics
possesses
mccl
mccull
nagar
nagpur
bailey
terrorists
taiwanese
pitched
nanom
jurgen
prohibits
mobilize
correspondingly
mistreatment
glasses
##agua
patriots
pierce
consoles
kalakau
##burger
inquisition
spotted
unskilled
accomplishment
ruins
ruhr
owed
owens
sophie
consciously
beside
staying
adapting
rugged
9000
rowing
bonaparte
lynd
hulkenberg
crowded
discourage
coincid
audiob
ladder
uprisings
wwf
agreeing
clarified
hebron
monarchies
alterations
rabaul
populace
answered
pluralism
horizons
nonex
cybern
coordinating
anarchists
anticipate
fostered
polarization
sweeping
resembled
positivism
stylistic
exchanging
dhoni
dinosa
kitab
katy
##irsch
hubs
hubble
manuals
darwinism
tirtha
pigs
1707
advertisers
aleut
aleph
metaphysics
brutally
jesuit
stereotypes
##antha
tolerated
isometric
##imbledon
bicycles
tongues
chandra
chandigarh
einz
vikings
irrevers
hugging
mystical
teenage
finishes
noticeable
paradoxes
eigenv
ebony
kerry
phosphory
precursors
berger
prussian
jenkins
reorganization
hartman
cerebral
phoenicians
phoenician
lockheed
butterfield
sindhu
commemorate
docked
endeavour
embarr
eagles
supremac
lonely
mumy
vassals
asteroids
futuristic
interfere
nouvelle
##build
enthusiasts
##theon
prioritize
peasantry
reconstructed
weren
sublime
zenith
incompatible
shoots
insertion
joshua
rallied
outlawed
aryabhatiya
janeiro
ruthenia
masturb
tectonics
epistemology
diesel
vivendi
buttons
samaritans
cinematic
bootstrap
pretraining
injustices
allahabad
fujim
snapchat
recapture
parlay
connotations
epithelium
spawned
carthage
confiscated
aspirations
tributaries
kutch
nawab
pardon
yoritomo
##houses
microcontrol
exaggerated
worsened
outcry
sanctuary
lumbergh
conducts
erlikman
hampered
carbohydrates
tehran
dwarf
chilton
utterly
cinemas
indifference
laundering
hygiene
inevitably
separatist
irredent
duchamp
compendium
torpedo
unavailable
##roscopy
##cliffe
skylab
superseded
ostensibly
prefigurative
whittaker
geomorphology
nasdaq
trevor
ludhiana
khwarizmi
chhattisgarh
##⠟⢁⣴
chassis
decompression
antitrust
raffles
chaturanga
blockbuster
sabotage
gibraltar
giuseppe
sakhalin
tandem
zoroast
reindeer
beethoven
monrovia
copenhagen
seventeenth
kalakaua
2×
3x
365
410
460
465
660
618
70s
730
930
a7
apt
aeg
bw
boun
baw
bened
cic
cough
dt
dach
daugh
dunk
diana
erit
fw
fts
fland
fatt
fused
fiat
fakh
foul
gom
gad
gans
ghar
hn
hig
hated
hort
hank
hood
hidal
iluv
jaxa
kv
kell
kend
kuan
lunch
lover
lute
mog
mish
masc
nj
nay
nod
nemat
pors
pesh
qk
rach
rites
sft
sits
sars
sonic
sbi
tenc
taj
uc
upt
vj
vcs
vestig
wen
wac
wies
wield
wimbledon
zig
zhen
##aar
##rac
##rals
##rcan
##uities
##vre
##nick
##yar
##las
##sn
##pec
##pear
##puri
##craft
##hire
##wi
##with
##world
##zhi
##fp
##fing
##kinson
##tus
##top
##xley
##qf
##200
##55
##ои
thales
theolog
theological
##eri
##erte
##inous
##inative
##esy
##eser
##org
##orum
##orov
##anese
##icle
##icist
##icence
##icits
##itating
##ischen
##ingale
##asu
##rogram
##lej
##leased
##league
##stad
##oum
##olv
##olome
##amo
##americ
##amble
##urized
##urization
asynchronous
forged
forster
##empor
##chins
rej
replicated
reestablish
##uter
##utations
##iming
##iths
bees
bean
##uscular
##otec
comin
orissa
chitt
spelled
spleen
##apadas
##opia
##iale
##uded
##ococ
univ
unify
tram
trio
tricol
##uning
usenet
atkins
neat
sew
disob
compressed
compatibility
shelling
shinto
leuk
levi
##oreg
scaled
clif
##ermis
hep
imitated
##uala
warring
amen
amiga
amalgam
afi
afc
afraid
abduct
perret
percy
frig
recurr
##kson
phased
econometric
##ensible
decrim
consensual
agu
agitation
subgroups
overc
regiments
accusing
reliant
prey
pretext
coh
meh
meyer
weird
impover
impaired
maybe
maynard
maori
rohit
instinct
eleph
outlet
##adeus
transductive
mets
sof
paragu
##iously
geom
##tenstein
181
finer
finns
engined
repaired
brace
##phy
capes
capped
hume
upgrade
schw
schwar
bijective
biathlon
biogeography
varn
universes
leary
provoc
0000
blake
blaine
distur
distress
distortion
endos
apes
##ype
filing
statehood
sinus
remarks
movable
thematic
deple
approve
cores
ordn
powerball
militias
directorial
##iques
doming
1580
nonne
##cloth
landmass
teamed
skies
skysc
glam
protons
legions
##ashing
marketplace
refuse
refusing
terra
harms
representational
swallow
barak
educate
##ophyte
specialisation
lowe
involutions
purity
purana
delays
146
helen
helsin
sympos
1111
activate
autoc
autocratic
slide
initiation
handles
nowhere
daytime
competence
morley
##ulla
downturn
mali
malayan
malwa
##atsu
runoff
lastly
hyrcan
irgun
breeds
freezing
arrange
salazar
globalisation
clem
potatoes
##mea
journeys
motive
##aeus
chemically
frontal
selfish
eta
nascent
continuo
davies
papert
copilot
##weil
camero
goldman
wali
sentin
starr
viola
violate
piec
banat
moog
moors
translates
##holtz
citation
citations
contentious
243
245
crossroads
##ommando
burke
verify
verde
regularizer
garner
264
optimism
optimisation
karate
braun
excited
uncovered
uncountable
timely
calculator
##ourses
bowlers
casp
madero
windy
manufactures
crick
stemming
credibility
suslin
searches
mastery
duet
ghaz
maximise
tribune
snk
avoids
1869
couples
exhibiting
sooner
altipl
##oelect
bullets
habilitation
rainforest
weakly
tomatoes
##ollah
reproduced
escort
diplomas
##ijo
concentrating
masj
combatant
pushes
alexandra
correcting
ambul
mcdon
magnus
nbcunivers
codex
suspicious
streamed
borne
thriving
overture
concluding
##trans
meantone
1853
spirits
conscience
haifa
netiquette
alleles
bollywood
osm
gallbl
##eckel
births
##akhstan
gao
gaug
protestants
taipe
polytechnique
quarterback
deprived
scriptures
forestry
ashley
climax
charting
reactionary
possessing
mccall
naga
##writer
distinguishable
analyzes
romeo
##colo
abandonment
cosmos
jonas
leonid
enjoyment
sedu
sedans
alcs
burnt
enforcing
booster
waterm
stadiums
rods
haydn
transcontinental
mahal
ribbon
ribosomes
barbato
cyclones
conceptualized
excesses
stringent
bilateral
stimulating
cordoba
reservo
absorbing
pmatrix
flourish
morton
sutlej
aqua
forbade
consultation
soloists
tangible
extracellular
laden
hussein
obstacle
podium
advisers
bharata
tuition
tuples
dictated
pursuits
kidneys
somme
andreas
sweat
fixt
bundles
judgement
metropolis
vacuity
sleeping
escalating
whigg
ryder
yamamoto
exempt
listener
overwhelmed
rescind
pigments
vitro
devastation
giul
lindsay
##hesive
diagnostics
fixation
stereotyp
unicellular
convertible
kinetics
reunification
vibration
voluntarily
hierarchies
unusually
instantaneous
miniature
fulfilling
synchronous
norte
clashed
rafael
lapl
sympathy
mendel
heroic
deduction
cummings
divergent
authoritarianism
kleene
appreciated
nutritional
##odynamic
socioeconomic
telescopes
interconn
kirk
amidst
authentication
authenticity
gentry
sangam
lesbians
ontology
aurora
crackdown
proliferated
inscription
phoenix
disclosed
helmholtz
granite
hideyoshi
endeavors
succeeding
fernando
mummies
multiply
anaesth
intercontinental
uniqueness
detached
hakau
nilg
unwilling
feasibility
rectangle
sergei
maneuvers
meteorology
militarism
##harmonic
robbie
congruence
vigorous
ardennes
accelerating
restaurants
arthrop
dormant
sporadic
renovation
discriminative
lipset
##olitik
moderates
upload
mercantilist
gustav
confucianism
nephew
intercepted
dakota
appendix
encirclement
enhancement
connotation
seleucid
entrepreneurship
nonsense
kazakhstan
nucleotides
counterattack
caesare
conjugate
resonance
sumerians
dispatched
gentlemen
bauhaus
metacritic
sindhi
##glomerate
hamburg
ureth
sparsely
enrollment
shenzhou
heliocentric
troubled
eccentric
nostalg
resilience
elegant
dancers
lighthill
weizenbaum
glasgow
dissatisfaction
dichotomy
envelope
bedouin
rokkan
pledged
quackery
brockman
lifelong
ceylon
umpire
reynolds
prerequisite
superhero
counterculture
ezra
hectares
believers
versatile
spokesman
pulmonary
hajj
##lifting
deceptive
cytokinesis
tubercul
unspecified
haganah
kitchen
tudor
metrizable
cretaceous
pogroms
bataan
##itudinal
disambiguation
schapire
espionage
unacceptable
inaccess
shakespear
bukovina
philatelic
einziger
##building
eritre
iluvatar
porsche
tencent
recurrence
decriminal
schwarz
nonnegative
skyscrap
helsinki
symposium
hyrcanus
nbcuniversal
gallbladder
taipei
shakespeare
392
510
640
80s
815
90s
bike
boring
c♯
cir
crom
cune
caut
cpi
dg
ding
dian
dough
dining
duple
eur
eub
efl
fay
fide
feng
futs
fathers
gow
gaut
hr
hover
hiding
iyer
jod
jug
jock
kors
kron
korn
lact
lust
lanes
mcle
nin
nist
niz
nau
nanda
oust
pork
pits
paced
paving
qml
rr
rost
rau
sow
sull
sieve
tapes
tuple
uy
ui
upp
vor
vom
vault
vagu
wak
wels
wisc
xt
yad
yoga
yalta
£5
##aum
##rina
##rama
##uka
##eid
##vard
##nav
##nath
##nier
##yos
##ll
##list
##sy
##si
##pet
##politik
##cock
##caster
##hito
##wire
##wind
##wala
##zone
##mish
##gom
##fied
##dale
##bound
##billy
##birth
##xx
##2se
##81
##59
theoph
##onan
##atl
##atnam
##atomic
##esque
##enk
##ndt
##orin
##oran
##alu
inad
##arious
##aragua
##icity
##itor
##itte
##iso
##iseries
##inges
##rose
##omology
##sted
##stru
##elos
##oler
##acru
##etz
##eting
##etian
##ildu
##thy
##amine
##urations
forem
forese
forerun
##emer
staunch
##adows
##igl
##igs
whale
conic
reaff
reint
##imer
##imation
##imilar
##imeters
##uli
beas
##usan
##istingu
suites
sufi
##otics
comet
ores
orioles
spurs
deeds
deorbit
2050
##esset
##essler
##ogly
##ogical
##agi
##ploid
##avier
##avars
prp
unacc
trache
ito
usd
indistingu
negev
seab
seals
seating
##arty
compton
compress
shast
##sea
plung
intact
intang
intending
scans
##roup
contests
clare
clade
##activity
alloy
alloys
##anson
##berra
##ipoli
##achen
intergal
manit
canary
canberra
##ultural
amos
polities
gox
golets
ecml
peres
artef
fris
emulate
medial
marion
modulation
modulo
newark
bohm
##grades
##etwork
##ensis
##ounted
coloss
agn
basal
subway
serp
overhead
overnight
twins
##ffen
somehow
relent
prefect
undergar
socrates
imperson
histology
maid
instigated
knesset
numeric
deficits
outlining
outpatient
outweigh
acry
pew
peb
metz
attrition
norbert
##awar
setup
dob
engels
miniseries
##phs
playable
politecn
throughput
upwards
schul
##onsin
idf
biop
biotic
biores
quotes
universidad
##ematics
obelis
inflow
discovers
discourses
##ographs
blur
blame
grind
grasp
endured
aparth
##ypes
valuing
carpath
carroll
organelle
organizers
majesty
wellington
airsoft
airstr
##ceptions
##erty
revive
charismatic
armaments
belts
buffer
buildu
1093
matisse
recorders
originality
crip
crane
releg
servant
militants
greedy
muz
##aham
internationale
domest
1550
noncomm
proficiency
repressive
northwards
##cla
multif
multiples
1783
1763
importing
midi
##parov
proton
porte
refining
1650
1665
##tones
propensity
issu
barren
##aires
##ophyll
speciality
144
1494
naturalist
helena
leftists
videot
videoc
degrowth
predetermined
slides
antio
existent
focal
goodman
logos
devi
deviations
weston
primit
competent
connor
widened
widening
homeomorphism
volt
mald
malik
malcol
loops
loads
loaded
astur
astroph
asthma
circadian
banker
specificity
telecom
motives
objected
objectivity
pais
derog
derby
childbirth
##shot
uranus
micros
debreu
renal
305
samir
billionaire
despair
interacted
erd
erich
215
sequentially
##week
##isco
campaigned
robesp
hardly
221
substrates
transformative
merist
##cker
literate
##psy
creature
halfway
readiness
moj
outset
507
benefiting
likeness
greenberg
##enthal
mih
indicative
rockwell
##intosh
progressions
tenets
putin
lightly
5000
bloodshed
talked
favors
rolled
rhaps
galact
galway
galician
minimizes
cds
rebelled
inspection
residences
403
investigative
phenotypic
huxley
searched
hindered
parametric
virtu
duct
babe
petain
reinterp
godavari
fleets
notebook
notebooks
josef
interpretable
melissa
altru
1875
retrieve
markedly
sonnet
cartel
habitu
dissimilar
migrate
migrating
misclass
weaken
tommy
paralym
mutin
containment
understandable
333
honky
quezon
sabb
diplomat
stressors
domestication
coales
normalized
eyalet
reinforcing
cruiser
badge
##ilitar
durer
fluct
codified
##werke
utilitarian
screenings
revolted
morphogenesis
spiral
fortun
##omyc
celebrating
gallipoli
fashioned
negotiating
gaa
1844
encycloped
##ittances
pennant
1809
433
savannah
1836
hillbilly
hydra
doubts
nicaragua
ignores
dresses
croc
siri
8000
guiding
interventionism
prohibiting
aggregator
farmland
seekers
sedan
sacr
##hyd
gurd
kaʻ
favourite
kurta
darkness
antony
fermentation
##iyya
polynesia
pooling
mahan
chaired
flyby
bilinear
duality
sidney
mythical
consolidating
##seye
subtit
maharaj
irrigated
defendants
coward
embryology
rioting
1603
feminists
671
alteration
rabbin
tonality
paddle
exporting
bullseye
suppressing
armenians
argentine
bradley
dinner
sylv
goths
surfing
kaplan
remediation
retailers
substituted
pleasant
dunes
falsifiable
falsifiability
1556
fingerprints
kinetic
evacuation
hippocratic
disappearing
chandr
volcano
bishops
metamerism
97801
emirate
breathe
capsules
memorable
navigable
hispanic
censored
lavish
okinawan
sociologist
stabilized
##adowed
transitivity
degener
piracy
breaches
sparking
leaked
autoenc
excerpts
phylogeny
sterile
blowing
harbors
mentor
butterfly
hobb
configurations
conveyed
rlhf
unintention
jenny
hegel
carpenter
fierc
longev
##iguez
disliked
wonderful
miletus
pixels
trieste
##printing
conquerors
superstar
michelangelo
aztecs
zepp
##aboost
trailers
mariners
sergeant
##faring
replays
cervix
tyranny
zapotec
ordinances
sketch
spandrels
renovated
patriarchal
honduras
moderately
uploaded
cockt
template
zhukov
##watches
apostle
scandinavian
asymmetric
redesigned
sepul
suburban
enhancements
warehouse
highlanders
epithelial
orphan
unanimously
sourced
stigma
imbalance
nucleotide
duplicate
estuaries
empowered
absolutely
werner
electorate
unconditional
waned
foothills
scanning
impeachment
multivariate
promoter
incapable
schneider
landslides
rodriguez
chopra
maternal
pragmatic
quadruple
trustworthy
turbocharged
byproduct
subdisciplines
mavericks
presumably
stronghold
empowerment
aggressively
cylindrical
stainless
seq2se
fukushima
rashidun
sugars
gynaecology
outreach
homotopy
uninterrupted
tiberias
prognosis
geosynchronous
olivier
kurzweil
upheaval
cousin
fountain
jaguar
wabash
thyroid
paragraph
crushing
bayerische
cytoskeleton
tiebreaker
unpredictable
pkdd
seldom
yucatan
mcculloch
flanders
hidalgo
varnothing
cameroon
sentinel
caspian
altiplano
inaccessible
sullivan
wisconsin
##acruz
foremost
reaffir
reintrodu
indistinguishable
intergalactic
artefacts
bioreson
apartheid
buildup
malcolm
robespier
longevity
seq2seq
4g
570
583
970
bav
banc
bakh
brett
cv
cigar
cmea
dend
dix
dharm
eins
ebert
ego
eager
fict
fai
fuse
gore
gri
gyp
gros
hinge
hannah
ict
jev
jaland
jensen
kate
kins
khar
konstant
kuala
lom
lone
lund
lash
lamps
mk
mens
nal
nana
pn
pam
pab
pue
pune
poul
rf
r3
rai
rapp
ramb
rama
sear
sass
sally
sene
s10
sarkar
tant
tire
tues
tina
tears
uae
vv
vet
weld
wta
xn
xavier
yr
yan
yog
yuk
zimm
zinc
₹2
##range
##uber
##uys
##eel
##log
##iences
##pit
##pad
##pers
##ozoic
##cz
##cam
##cos
##cane
##hor
##hba
##worts
##mont
##govern
##dles
##bys
##bird
##kot
##×10
##ʻa
thames
##onov
##onians
##inor
##inster
##esi
##eny
##enjo
##enovac
##aren
##isk
##isan
##ingual
##roqu
tox
tosh
##lehart
##etery
##ilov
##thed
##thren
##amer
##urious
ascent
forge
stained
starch
straw
##igens
conglomerate
reused
regress
##utory
##imon
##ithms
##ithili
anz
anten
##term
##terror
progen
beef
##owitz
##usa
##iston
##istine
withstand
comcast
chast
chech
##apa
209
##abe
##opus
##ags
##pless
aria
##andra
##avi
##avati
prer
##ocar
##romole
unob
unix
unres
unbeat
unaffected
##eston
##esters
tripl
triples
trunk
##unting
usable
compas
shug
shops
##akar
leased
leinster
##ibles
##antan
resorted
resume
plc
intoler
##osthen
scd
contamin
cland
clades
cloning
adri
adaboost
##ardian
allopathy
hew
heid
##ipa
implication
##ieber
##ritical
interception
canoe
canvas
##echtenstein
aman
amadeus
gojong
econ
perkins
franks
fraser
recitation
ems
medley
maris
marrow
mush
boast
boyle
##grupp
##ificant
##angra
economical
##ensor
decid
decrees
##ismo
##ikes
evoke
conserve
basins
technologie
subun
overy
overst
overhaul
reggie
generous
assort
prewar
preamble
invari
cots
mathrel
mathews
mayan
maithili
##rops
##oughton
roz
numenor
defences
defender
parab
howe
specifies
geologists
countless
doab
engages
repelled
##asek
##msford
folding
humors
humph
wouldn
schl
##obacter
quin
universitat
infants
inflected
provoking
discomfort
funeral
blanch
terminated
grig
griev
grams
expose
exponents
apoll
valencia
carving
organise
flies
signaled
signifies
reminder
remittances
##ankara
computes
charlem
demon
armament
armada
anymore
advise
advising
##inda
smugg
deposition
persists
##ewrit
generalisation
respects
1099
saar
saul
##oyama
dres
retake
retention
eden
##fulness
detectors
correction
annie
##amesh
guo
guan
guise
militaries
greed
muq
secondly
modernized
elic
elgar
functionally
##ucts
archer
archival
##brian
landforms
##ohan
##ohist
skaters
1790
1791
1772
resultant
christie
prevail
protist
protista
associating
lifting
lifesp
legality
portrays
162
169
1648
##tonian
swadeshi
caliber
baran
libyan
westernmost
##amento
policemen
diverted
centralised
litigation
##doms
##imson
individualized
141
afflu
winn
activations
activision
algal
furious
convoy
farmer
predators
slot
##ennan
tempt
goodwill
131
admitting
superpower
devan
ceos
ceuta
battled
earthgov
vienn
##othe
bookmaker
malfunction
behaves
lots
keyboards
emergencies
synonyms
latitudes
testable
collateral
breton
brethren
254
252
deepest
salern
achieves
announce
captained
##meas
qualifiers
teleph
97814
projecting
integrals
epics
quantifiers
easternmost
homomorphisms
destined
participates
dimorphism
urge
reductions
microt
lineup
replaces
##hael
blackberry
nasir
214
sequels
copa
copern
seville
texans
campaigning
subsystem
communicated
##ochet
meristem
merrill
semif
macromole
231
congrat
turtle
##rawl
raphael
fuller
donor
hinter
bordered
necessitated
narayana
platonic
immersion
michelle
parliamentarians
royce
aircrew
263
optimality
observes
pathfind
excitement
diversion
uncont
unconscious
selectively
lightning
legalize
calculators
##orphisms
sizeable
congressman
collaborator
casino
rhiz
272
27th
voor
investigators
counteract
counterfact
hypers
luigi
firearm
paulo
bmg
##breeding
peta
ghett
storyline
branched
therapists
horr
unlock
licent
rounders
proteomics
expansions
cardboard
breakup
coven
covarian
crewm
melanch
raja
thomson
aliʻi
bulge
tropics
trophic
habitation
rainbow
orbiter
impressions
326
cosets
pollination
containers
preferring
335
honest
birch
overseen
fourths
purchases
daro
bacteri
adjoin
masking
cooperate
frankenstein
roadmap
eyed
pseudonym
factorization
alexandre
enhances
styled
355
satisfactory
umno
dialog
spectacular
spectroscopy
recommending
thrived
iva
arsenic
renault
authorship
hatfield
##trak
##ettled
suggestive
campuses
##opolitan
allele
plateaus
smartwatches
guarding
oslo
arranging
waqf
updating
surveyed
decorat
republicanism
1841
1840s
##zzar
neuronal
organismal
depress
##146
cubist
trusted
trustees
scripture
1832
rotten
libertarians
luck
lucky
lucrative
luczo
nigel
nigerian
montgom
fishes
intersex
intersections
liechtenstein
jacobi
confirming
nanak
falsehood
##borough
omaha
lester
cosmopolitan
narrowly
connectionism
gerhard
alberto
pharmacy
jazzar
7000
471
darker
flatten
##deuts
sienna
intrusion
intracellular
dualism
bedrock
prospered
mohenjo
pmc
obligation
gravitation
ladies
terminals
ligament
podcasts
smoothly
pavl
ricardian
monarchs
reciproc
decompos
epidermal
##zyg
##hrer
padma
anticipating
fiq
harshly
tsun
subscribe
rearrang
lecturer
nineteen
whigs
sugarcane
zoological
quotations
##acci
kapoor
fellowships
hellenic
vitamin
metabolites
supplanted
profoundly
jesuits
pistols
fingerprint
isometries
intensely
capitulated
catching
rebrand
supplemented
toxicity
shells
amplified
rafale
guerrillas
unreleased
phonem
botanists
deliberative
persuade
neighborhoods
myself
undergoes
condemnation
obviously
shields
glacial
phosphate
sodium
insurgents
healer
deliberation
madhava
municipalities
disclosure
helmet
ambassadors
caucasian
bogs
pregnant
hydrocar
commemorated
docking
disparate
rhodes
inglehart
logarithms
dislike
elliott
scorer
scorched
disagreements
hakim
uninhab
motorsport
enthusiastic
rnns
restructured
misinterp
reluctantly
rentals
energetic
lusin
seventy
mimicry
rashtrak
shamans
mantle
kasparov
vigil
bruno
yaroslav
coronavir
evangelical
polyphonic
rebuilding
showcase
samaritan
heavenly
schmidhuber
kokhba
lipschitz
zedong
##oskeletal
shattered
cryptocurrencies
glycol
##electric
##electronics
daimyo
daimyos
kahneman
asymmetry
grund
shibui
hymn
aqsa
hassabis
chelmsford
supersonic
densely
hotspot
unanimous
hampshire
tributary
unscientific
estuary
sheeran
commensurable
abramovic
uncondition
eclipsed
dnns
fugue
lancaster
unilateral
impairment
insignificant
ayyubid
ayyubids
cunning
gauge
neanderthal
paratro
inconsistency
srinivas
hernandez
jasenovac
deutsche
blitzkrieg
divisive
dalmatia
creek
thaler
stupid
outposts
cripp
discredited
redundant
cranial
cartilage
inflicting
comedian
seismic
reconsid
apprentices
apocaly
saffron
intermittently
plenty
multiculturalism
frontoviki
dissolve
asymptotic
dolphins
lobbied
qubits
philistines
irrespective
unfavorable
procurement
cemetery
nissan
tarski
amnesty
relaunched
imprecise
koppen
forefront
chieft
reminiscent
annealing
juxtap
satyagra
microstructure
psychedelic
audiobook
masturbation
zoroastrian
rachel
##emporal
paraguay
depleted
ordnance
caesarea
tuberculosis
cuneiform
welsh
inadvert
intangible
domestically
antioch
rhapsody
paralympic
sabbath
crocod
sepulchre
einsatz
jalandhar
senegal
tuesday
##osthenes
charlemagne
pathfinding
ghettos
montgomery
278
580
530
620
710
760
870
950
aime
bending
bma
benth
cog
colog
cans
cbc
cuff
dit
dell
dong
dwell
della
e♭
eud
ehr
fow
fach
fond
fencing
faded
fiji
gop
gund
gisc
gumb
gini
hw
hath
hann
hirsch
houghton
ia
ias
ipl
ionic
jed
jill
jaze
kro
kits
kof
kicks
kiy
lul
lach
mound
mug
mash
mapp
mca
nt
nem
nand
nath
nue
nok
nerd
o3
ond
ober
oik
pens
pitted
pensions
rim
rations
rote
rasht
sj
siv
sely
sik
sare
sats
sara
sora
tf
tense
tipp
tips
tides
uru
uci
ufc
vid
vases
vogue
vindh
xanth
yus
yud
yak
yves
zay
zoon
##aim
##rat
##rism
##rined
##uper
##uins
##vic
##nic
##nian
##name
##notes
##yas
##yri
##person
##cill
##hb
##horn
##wamy
##mese
##matory
##mlin
##gary
##gard
##green
##dan
##days
##dca
##bud
##borne
##kas
##kie
##tke
##tze
##840
##57
##ολ
##ни
##onism
##inarily
##edience
##enary
##orak
##alp
##alon
inso
inuit
##aner
##anians
##anasi
##arts
##arup
##icz
##itant
##itatively
andres
##roft
##rochem
##rem
##rections
##entice
##lew
##lehem
##sters
##ecy
##acic
##acus
##acious
##etr
##etism
##iler
##thals
##amas
##urp
isid
strom
stool
sticks
stellar
stagg
##chin
##adar
##adour
##adhi
##adne
congen
reuse
rezn
reentry
##utable
alkal
##ulic
ante
beuys
##ayers
comedic
##oso
##veri
spill
spector
##odont
deox
##esses
##ums
##umanu
##ifs
##ifers
arb
arct
arres
arenas
##avec
##udence
prat
prentice
##ocial
unh
unear
untr
trin
truc
trash
usher
indy
indec
indigo
indisp
##quel
incurred
shed
shade
shades
##akk
##akum
##sexual
##ibald
##izability
##therapy
reset
##oreans
plastics
intends
screw
notified
##athe
##oved
click
##acey
##ourcing
implicated
immanuel
interplay
interacts
syro
##assic
##assie
abel
abul
ects
genotype
genuin
fresco
recyc
emu
mare
mariana
boogie
##irection
##ensing
hadfield
##pres
##prudence
worldview
undead
relat
cob
underline
underlie
socle
imped
impending
roe
rochester
feanor
outd
parse
paraph
attorn
norvig
presides
speculate
geologic
1825
1822
fined
fincen
mined
miners
monothe
##issimo
capm
humorous
##riya
schism
biographies
quell
quote
quota
varanasi
##ematic
cream
infancy
provable
posing
bloss
blunt
blotting
terminate
grip
endoplasm
filtered
estonians
valence
medico
caravan
flug
airplay
revoked
sportsbook
numbering
chartered
demos
##spe
americana
##azero
##azaki
mainst
smel
wills
draining
##ometrics
perioperative
edison
edvard
periodicals
detract
electrically
redd
patric
##enga
crater
couldn
planar
elias
153
159
1516
1598
nonvi
##ucked
##cling
openst
174
1778
1770
1795
1775
1794
christine
topical
##pared
curse
curious
curtain
##gett
printers
lifesty
porto
refr
166
1644
popularised
##tonic
postage
harlem
calf
caltech
solom
solves
solvent
##mani
statutes
statutory
liberate
litt
liturgical
presenter
standpoint
149
leftrightarrow
convictions
persona
applicant
predator
predef
menstru
palais
raul
initech
handbooks
supergroup
dayton
devise
primer
moravec
freem
johnston
republished
councill
viability
definit
##lington
colonize
malnut
behaved
builders
juice
juarez
marched
shortest
irving
headlines
bettor
declines
romani
romanians
romanesque
brewer
microp
wording
##atorial
##atorium
achkan
clever
captains
potent
graded
telem
9781
sounded
navies
attackers
microelectronics
##ymbi
replacements
illiterate
##opsis
stepping
samoan
erat
erik
212
219
coping
squier
camel
criticizing
robins
wald
##ytic
##ytale
payout
223
##ushu
##ochtit
troy
troop
trotsky
238
embody
professionalism
silmar
24th
plantation
acquitted
burmese
multiplications
##ursement
rockef
rockabil
doctorates
regularity
littlewood
##islav
pastoral
##intang
automl
automating
267
conceal
threatens
##afar
imperf
tenochtit
putnam
travers
duterte
clinically
bowler
marty
271
pantheon
contempl
commissioners
urbanisation
resisting
clearer
transporting
faa
fauc
293
291
constructors
constructivism
sussex
hyperm
phenotypes
federalism
ramayana
harmless
eighteen
##rowned
firepower
hallmark
reactor
imperialist
masterpiece
hinder
jeans
jeho
jeoly
duplicated
expressionist
destroyer
evaluates
fundamentalist
nomine
berndt
melo
melan
rajiv
murphy
woodcut
permian
permeable
randy
villain
fairytale
aristocrats
##rosis
##uchadne
imprin
rationals
rationally
tomography
mutilation
understandings
honoured
escaping
707
speedup
weightlessness
weightlifting
eyew
subcut
springfield
nbcsn
3500
stockholm
stockhausen
behaviours
coded
spectra
spectator
bronx
revolves
revolving
anthropological
##amiliar
procedural
##health
1852
1856
1855
spatially
##ogenic
annexing
extremist
haul
haeckel
##ukh
conditioned
bolst
boliv
bolton
disposition
dispersal
bhag
skinner
criminology
imaginative
installment
pedestrian
aerobic
decorate
bottle
ironically
protestors
intellectually
trumpet
propositions
complemented
1842
385
munster
cheat
maxwell
discriminant
##⣿⣿⠟⢁⣴
cubes
losers
puls
shipw
daisy
savage
pinball
pinker
pinochet
alphazero
hilltop
rotary
icann
luca
lucy
medalist
mediums
ignore
naidu
fisheries
intersc
subscriptions
rider
precedents
##ulsions
comprehension
##khov
eukaryota
unfamiliar
mrp
mobilised
instrumentalists
leeu
cosmological
cosmonauts
motoren
motorola
subsidiaries
geriatric
reductionist
float
linkages
##iho
grokking
##ochemical
khanate
triangulation
1206
reigning
submod
vinci
transcript
586
barbarian
barbarians
unsolved
intraven
fragile
constituencies
ruined
49ers
twenty20
iteratively
stringed
bernoul
grossman
reconcil
mesopotamians
subtly
sutton
outlier
nui
discouraged
discouraging
hurley
consulted
consultants
coinage
husain
bags
bagging
nitrate
cooled
jurisprudence
clarendon
liquids
eroded
vertically
981
trafficking
monarchists
dismissal
inquiries
conjunctions
decomposed
championed
epidermis
rabbi
wrestlers
amateurs
minimalist
inefficiencies
elders
correlations
yangtze
1757
##boxes
##storms
scotia
escalate
lewontin
gotham
zoom
tabloid
kapu
##pieces
downloading
protestantism
summarize
summarizes
grasses
catastroph
chlorophyll
deliveries
tractor
capitulation
ajit
bicycle
binds
kimi
huntington
supplemental
dwind
##enzie
remembering
bf0
unprepared
botanist
horizontally
songwriting
gorilla
multiclass
dirty
pirate
syllab
6502
shielding
pornographic
bertrand
replicating
symphonic
symphonies
sacrifices
cornerstone
avenues
illumination
scrutin
cnid
conjectures
sprint
bernardino
rhodesia
antibiotic
clerks
macedonian
##classic
disagreed
kabir
toyota
segregated
mckin
niels
reflexive
reflexivity
pyruv
outperformed
cervical
penguins
1453
extraordinarily
gavin
gavaskar
anchored
tyrant
xenoph
synonymously
auditor
rigorously
gonz
stagnant
polymerase
bypassed
penetration
dormit
monstars
logarithmic
demolition
fortresses
plagiar
contaminated
kunst
reversing
retrospect
ausp
rococo
disintegration
disintegrated
chelsea
brushes
supersc
fujian
thornton
dissenters
syncret
implausible
carthagin
caesar
conjugation
dvds
pawn
ingenuity
compilations
bethlehem
turntables
tentative
unilater
nebuchadne
inflammatory
insignia
lumpur
tianjin
neanderthals
embroidered
mistakenly
srinivasa
annihilation
turbines
rampant
zeros
prakrit
marianas
hurricane
inaccurate
repayment
discrepancy
verdun
chalukyas
dudgeon
mclaren
pytka
paternal
griffin
skateboarding
midwives
oppressive
diophantus
embassy
eunuch
indiscrim
shepher
alluvial
mangrove
subversion
exponentiation
wendy
zygote
##volent
inconcl
acetyl
esteem
micrometeor
cecil
sigmoid
brittany
philanthropy
hyfdca
immortal
fonts
mahajan
reticulum
akkad
dystopian
invertebrates
prodigy
tanzania
throat
reopened
oratorio
prairie
enshrined
referee
cyberattacks
nolan
##ipotent
amelior
##okalani
schubert
guinness
moresby
epilepsy
misaligned
magnificent
neurosurgery
coinciding
cybernetics
phosphorylation
fujimori
microcontrollers
bawerk
mascot
vjm
amalgamated
endosymbi
rescinded
urethra
obelisks
asturias
sacramento
fictitious
pablo
searle
unbeaten
clandestine
grievances
dresden
muqadd
lifespan
viennese
adjoining
falsehoods
satyagraha
cologne
gumbel
jazeera
selye
insofar
arrests
indispens
genuinely
recycled
attorney
nonviol
lifestyles
predefined
malnutrition
rockefeller
rockabilly
tenochtitlan
bernoulli
nebuchadnezzar
080
2b
396
4o
499
412
468
524
60s
670
625
7b
770
860
880
940
aet
aub
aether
akh
bays
baku
biceps
ces
cly
cess
cine
cep
cyn
cma
cpus
cache
dug
dup
dull
dana
drier
ej
eject
g1
gend
gio
gma
hm
hq
hess
holog
hik
hok
hale
hues
hott
hanna
horde
ith
ich
iot
icl
iroqu
jall
jann
jains
kus
kass
kyle
kob
kane
klan
kgb
lj
lut
lign
lance
lamp
lomb
liang
mx
mour
mice
mits
munch
nn
nth
nested
nda
nmi
oun
oss
oval
pus
pile
paz
puss
pants
pca
pestic
qian
rapt
rosa
s0
sop
sra
sack
sond
sork
tl
tamp
taw
tiers
tapping
tecn
ticker
tilde
uz
vc
vod
viss
vatic
vint
vaj
vishn
vasco
wals
wads
woll
wyler
xw
x2
x1
yom
yao
yulia
zam
zhi
₹6
##aution
##aedia
##rish
##rences
##rification
##rada
##rift
##rusted
##uly
##eong
##vara
##yards
##litz
##sym
##pots
##cp
##cus
##hita
##hochsch
##wave
##wah
##zard
##matrix
##fir
##frey
##dog
##bel
##bil
##bok
##bred
##bars
##470
##54
##ław
##ен
thier
thwart
##onacci
##inian
##enfranch
##alent
inactive
inpatient
##anium
##aris
##arking
##arming
##icine
##isational
##roken
##ombo
##omintang
##storm
##stuff
##elage
##elhart
##oua
##olin
##olip
##aczyn
##ilate
##ivities
##amus
##amura
##urus
##urists
asqu
fork
forts
##emin
##emism
##emaker
sta
stag
strap
staf
##child
##chwitz
whist
conduction
reins
reiter
##utive
##imension
##imony
##imbra
alam
alarmed
##ulen
##uliar
beaux
##usement
suv
sui
supr
suzer
complic
oracle
##osi
##osine
##osmos
spart
spare
##odiaz
dew
##apo
203
##aby
##abatic
##ogha
##ifi
##agong
arp
arcc
arach
##avar
##avag
prized
prax
##ocs
##romachi
unfor
unreg
unantic
unorth
tran
traps
##unaga
atoll
seh
sewing
disgr
disarmed
disenfranch
compelling
##quin
##quist
worsh
incl
incar
shy
shiva
##akas
lehi
##therly
resin
resettled
pliny
intract
##ostatistics
contended
contends
cliffs
adver
adoles
##ardom
allergy
heel
##ansh
##ansk
##acharya
##ritis
warrant
warwick
interrupted
interrelated
interoper
intergovern
manm
manned
##ultuous
##luded
ama
amoe
amanda
amassed
polys
polyp
##fork
goeb
abys
perox
fringe
##uble
emin
medically
martha
modelled
musically
##gren
formulating
##ensk
##ensky
##ruff
deserted
##ikaga
##practic
butcher
agra
agglom
bash
basing
basics
technicians
technocratic
undivided
reginal
##orski
precl
preimage
cooked
coimbra
mewar
##eeney
weaver
##ieta
knopf
fei
defects
defiance
outfl
##adeva
transn
transylvania
peaking
sobo
sothe
paran
attribution
norad
specula
gehr
seth
1810
1813
1828
1817
counters
doolit
mint
minoan
minkowski
brest
brend
brave
##phis
statesmen
monoc
monoch
secrec
schro
bior
biops
biostatistics
internist
oboe
creole
infusion
blair
distract
surrey
grains
endor
expiration
##xton
statewide
medici
carv
carom
floral
aires
##isexual
equid
revisions
sportscenter
humanoid
demis
demography
##rolls
trader
differentiating
persecut
##upe
##upua
buk
buenos
economicus
concord
concret
descends
occult
occident
typewrit
retains
locate
locked
locality
matte
matild
mataram
##undered
detective
elective
gui
patna
southwards
langford
designate
crc
muromachi
elusive
1510
1565
famer
realist
realizing
skole
glorious
gloves
schooling
##rossing
factbook
factorial
importation
protracted
accorded
feats
refres
posture
textures
backst
swo
swee
baron
barker
introductions
successively
purification
purges
##screen
divest
pressured
pressurized
delight
standings
1460
1480
combustion
naturalistic
helic
1185
autolysis
italo
sumatra
predated
environmentally
##puted
antic
encodes
esports
albrecht
##ercase
handel
insistence
insulin
broadening
rada
prima
morals
morison
moravia
latex
characterizing
characteristically
freeman
augustus
totals
colonisation
##780
malin
malpract
loading
keynote
marches
##ylene
latency
femoral
totaling
occurrences
testament
authorised
irl
freeing
freeze
localities
microw
dominic
magnes
magellan
buses
arrives
saliv
salman
salwar
##ungen
privations
halves
caption
georget
titus
derrick
professionally
##aean
kills
##shine
##oidal
housew
urging
urchins
uranium
sexism
microgr
microbi
##rington
frontline
superman
stepp
stealth
##loom
turnout
turnover
behaviorism
disciples
erie
##keit
punitive
##ompet
constitutionally
papua
copying
mapai
camilla
##harmon
goldstein
hardships
walks
##echanical
communicates
payoff
paypal
mechanically
richmond
spaceship
piper
##eev
##iamen
banana
stephan
judy
judaea
macdonald
236
239
translator
##holiho
courtesy
donets
donovan
psycho
probable
approximations
crossbar
algorithmically
reasoned
micha
khmer
meaningless
verifiable
veracruz
equivalents
formalize
garfield
266
dams
exchequ
interpolation
progressives
precaution
observance
skyline
catar
catac
absurd
sunny
sunshine
royalist
invader
##umbling
martine
martyr
284
286
ethnom
ethnically
contempt
secretion
secretariat
##apsed
rebecca
ottawa
##oscopic
credible
##marked
evergreen
routines
hua
huk
roberto
coursework
reactive
mastered
visualized
corresponded
correspondent
alexnet
petr
llano
maximized
horrific
donegal
contractual
##owsky
compositional
##urga
breakaway
abstracted
covalent
wealthiest
initials
melt
melkor
georgian
601
suffr
distributive
benin
dissident
expansionist
louise
rationale
rationalism
atlantis
336
mesh
customized
stressful
masse
coldest
weighting
reflective
wilbur
subcover
##easible
mcm
mcgu
magnitudes
paralleled
durk
codons
bonding
ascension
thracian
torres
rigved
hatred
kilmore
kilograms
chromat
conscripts
oskar
indoct
borough
gasoline
cabar
pedology
directional
1846
383
6000
validate
compounded
depressed
1802
principalities
linguists
pulp
pulitzer
435
macroscop
ashikaga
huns
ptv
rotated
hooks
promptly
arithmetical
biomaterials
alignedat
doubly
slept
pleased
fishery
krie
liholiho
unemployed
subscript
catalan
##oplankton
ganga
abdicated
hetero
comprehend
lotus
eukaryote
##iberian
compliant
mrna
aggregating
veterin
dramas
dismember
cosmetic
ottonian
sedent
sedimentary
neurotrans
mercy
edsall
categorised
categorize
538
synthesizing
kuru
kuril
476
bottlen
diminish
esch
##opathology
polygon
keynesianism
extensionality
lyrical
pairwise
582
joach
joao
spotlight
unsolv
cyclone
akadem
hello
polymath
inferences
bedside
alfa
rowman
reservations
kuomintang
lyfe
##sfeld
acidic
cytology
vicinity
fibonacci
alienated
##asmus
forbids
##doors
consultations
extravag
kenny
wwi
wwdc
shaft
kyushu
proceeding
embryos
valuations
674
gamblers
vegetative
kamarup
recreate
decompose
bosnian
isaacs
sieg
tonk
headsets
##kova
positives
positivist
bundled
tsing
thoracic
reliefs
treasure
treasures
cortis
plotted
brahmins
conspic
parasit
windsor
loyalists
yamaha
crystals
emigrants
inventing
clockwise
exploratory
rumelhart
privileged
isthm
cassettes
syndication
gatherer
prostitution
assaulted
endowments
chamberlain
toxicology
amplify
libertarianism
shelters
retainer
taxonomists
##hardt
thickness
deduced
diverged
hanging
persuasion
digitized
hirohito
lenders
boldsym
kicked
glacier
jaipur
tumultuous
dnb
tinct
paso
upheld
pilgrim
cereal
mudde
liuzzi
hobby
klaus
overviews
critiqued
cede
endeavor
semiconductors
tertian
springs
carpet
herbiv
futurist
bathing
gibbs
reverted
anaer
frustration
fiddle
unbroken
detachments
rhetorical
nilsson
swiftly
superstars
marinos
oxidative
tribunals
mislead
harmonious
bubbles
jamaican
eclipse
prayers
unofficially
deterioration
laurie
goddesses
aaas
bessel
incompatibility
coronary
sanjaks
fetish
spontaneously
epidemics
bloomberg
a320
downing
racket
reshaped
disseminated
crystallography
glyc
iconography
grenades
barkley
harvesting
ingredient
gifted
##waters
bohemian
heralded
anglican
overseeing
auschwitz
ustase
ussachevsky
administering
hassan
cladistic
recaptured
guangzhou
counsel
hotspots
lviv
syncop
trajectories
draped
peculiar
beverage
commissar
annotated
typhoon
basilica
prosthetics
ingenious
voltaire
passionate
eclipses
1⁄2
sulfur
reissue
shenzhen
inflammation
ozone
shimon
allergies
marquam
coexist
inconsistencies
vistula
chongqing
enriched
pluto
augmentative
reconquered
reconquista
dartmouth
misman
mismatch
sgt
tungsten
zakat
reelection
incursions
posthumously
baldwin
talmudic
hurricanes
towers
proletariat
brachial
disappointed
disappointing
pamphlet
rwanda
spacewalk
sauer
pneumonia
bantu
ransom
reiterated
evapor
medicinae
mollus
##ablanca
historiographical
##rophysiology
chiropractic
multiheadedattention
metamorphosis
nippon
mangalore
##obotany
turbulent
intertwined
bifurcation
kramer
##onucleic
weathering
reproducibility
gallaecia
bourbaki
##rastus
alessandro
musculoskeletal
traumatic
nanomaterials
supremacist
daughters
ftsz
fatty
fakhr
chittagong
disobedience
elephants
geomatics
masjid
whiggish
arthropods
eritrea
skyscrapers
futsal
theophrastus
forerunner
astrophysics
habituation
mutinies
zeppelin
gyps
jevons
lomax
pueb
sassanid
antenna
shugart
deciduous
invariably
counterfactual
covenant
fiqh
coronavirus
paratroopers
apocalyptic
inadvertently
fachhochsch
satsuma
reznov
unearthed
indycar
outdated
endoplasmic
mainstay
smelting
menstruation
microprocess
eratosthenes
intravenous
inconclusive
indispensable
vatican
thierry
##aczynski
asquith
suzerain
##odiazep
unanticipated
unorthodox
intergovernmental
reginald
sobolev
sotheby
doolittle
secrecy
skolem
magnesium
exchequer
neurotransm
boldsymbol
020
414
424
525
545
610
794
910
911
997
a2
a1
aic
apl
ave
awa
aelia
apert
boc
bary
bae
bisexual
cact
caj
dl
ds
dand
dast
dors
dose
dred
duck
darius
eind
eased
eruption
fg
fiv
fang
fines
faz
ferv
fitch
gd
g2
gos
gong
gale
gins
ginger
gagar
hare
hons
hbo
iain
ips
ichi
jol
jad
jog
jok
jeter
jerse
jumps
klement
kerr
kessler
ler
lure
lass
lite
lined
lvert
liable
lcd
meng
moch
mds
maki
nis
nra
noman
nantz
oplus
pest
pax
pbs
rath
rvert
rogue
rahn
sip
senn
sands
sizable
sistine
tad
tame
tally
timed
tying
tikh
tuv
uv
vat
vish
vie
vadim
viva
wiz
wenger
xvi
yen
yesh
zel
zoo
zfc
−3
##aed
##aise
##rab
##rani
##ruta
##uels
##uke
##uously
##eet
##nov
##nels
##lm
##los
##law
##luss
##iu
##iq
##iere
##pen
##page
##pura
##poken
##oil
##oia
##oire
##oza
##court
##hre
##had
##hyth
##hwa
##hammer
##wissenschaft
##zs
##zhu
##mn
##mle
##mith
##mie
##mills
##gir
##flo
##dar
##dis
##dani
##ben
##bet
##bling
##bands
##bacteria
##bollah
##kani
##2v
##290
##jet
##jav
##87
thais
##eros
##onam
##onius
##inia
##inking
##atari
##orch
##orities
##orio
##oresis
##orece
##orrel
##alpur
inex
##anar
##anse
##animate
##arb
##icaca
##itness
##ional
##ingen
##asers
##asse
##roach
##reas
##entery
##stwhile
##elan
##oub
##ouard
##olle
##acians
##thood
##ivable
##ivists
##amon
##amen
##urge
##urfing
forew
isle
ishim
##emi
##emics
##emite
stall
stacc
##adra
##igara
##irac
##irts
wholes
conner
reeb
reimb
rewritten
##imen
##imids
alib
alve
alvin
alerts
[...]
